a 49960
. 27633
in 15026
de 14386
un 14165
Un 13602
en 12366
une 11051
the 10986
à 9695
et 8884
dans 8439
on 8185
man 7819
sur 7754
is 7545
and 7407
homme 7354
of 6895
with 6213
la 5970
Une 5763
des 4771
se 4027
femme 4009
woman 3976
, 3963
two 3879
are 3728
avec 3702
le 3273
Deux 3155
to 3139
people 3125
d'un 3012
at 2965
an 2950
wearing 2626
young 2280
d'une 2233
white 2230
chemise 2194
shirt 2142
black 2016
his 1972
while 1950
portant 1888
personnes 1886
blue 1873
men 1784
sitting 1749
red 1741
girl 1733
qui 1701
boy 1691
jeune 1691
dog 1681
groupe 1647
standing 1625
les 1622
garçon 1615
fille 1593
playing 1591
chien 1577
hommes 1564
group 1553
street 1449
down 1396
devant 1395
walking 1384
son 1363
front 1287
est 1273
her 1272
au 1261
holding 1239
pour 1215
rouge 1109
one 1099
du 1064
water 1063
by 1061
three 1055
sa 1046
porte 1043
alors 1022
sont 1020
women 988
femmes 982
assis 980
noir 977
enfant 974
joue 974
tient 950
up 947
green 927
gens 921
little 915
près 914
for 909
orange 909
blanc 898
looking 897
child 895
as 886
Les 875
outside 874
table 874
Trois 873
deux 869
large 857
rue 847
train 835
through 817
petit 783
yellow 783
brown 770
children 768
côté 762
Des 758
regarde 757
person 754
ball 735
from 730
hat 729
their 726
enfants 721
into 712
personne 710
que 707
saute 693
small 671
ses 668
next 666
other 661
trouve 655
veste 650
dressed 642
out 640
marche 639
cheveux 636
l'extérieur 635
jouent 632
bleue 630
some 625
bleu 616
over 613
t-shirt 612
jeunes 610
blanche 606
building 603
riding 591
soccer 590
jouant 587
running 582
shorts 580
near 573
jacket 571
petite 571
brun 566
couple 566
around 564
another 563
chapeau 552
marchent 551
stand 548
field 537
autre 536
sidewalk 535
Le 527
lunettes 525
robe 525
crowd 522
beach 521
jaune 520
air 519
fait 504
jeans 502
rue. 502
stands 499
pink 497
balle 495
jumping 495
sits 493
behind 490
long 484
par 475
grass 469
tenue 464
background 460
snow 459
bike 455
city 451
qu'un 451
pose 449
&apos;s 444
girls 441
derrière 437
tandis 436
top 433
football 429
player 429
photo 425
noire 424
looks 423
grand 422
asian 421
face 420
wall 419
costume 413
four 412
baseball 408
dogs 406
tiennent 406
that 405
several 404
older 403
plus 403
dress 399
marchant 399
off 399
regardant 399
filles 396
camera 394
foule 393
autour 389
vélo 388
park 387
talking 382
lady 381
something 381
vers 381
y 379
chiens 376
roule 374
assise 372
walks 372
along 370
garçons 369
guitar 369
hair 368
quelque 368
construction 366
working 365
boys 364
play 362
regardent 362
together 361
food 357
joueur 356
smiling 354
casque 352
l'eau 351
gray 346
game 341
picture 341
has 340
it 340
rose 338
blond 337
s'assise 337
pendant 335
course 334
plays 331
car 329
hand 327
sac 326
l'eau. 323
Quatre 322
holds 322
tennis 322
mur 318
pants 318
bench 315
planche 314
road 314
him 312
side 311
old 310
trottoir 310
glasses 306
walk 304
sit 303
stage 303
carrying 302
baby 299
leur 298
vêtements 298
restaurant 297
au-dessus 295
sous 293
Plusieurs 291
race 290
them 290
uniforme 290
bicycle 289
rock 289
terrain 287
gars 286
La 282
l'autre 281
neige. 281
&quot; 280
parle 280
male 279
microphone 279
pool 279
tree 279
vert 279
taking 276
each 272
l'un 272
doing 268
grande 267
head 263
dirt 262
watching 262
across 261
chose 261
asiatique 260
guy 260
assises 259
there 259
âgé 259
area 258
boat 258
plage. 258
qu'il 258
champ 257
debout 257
lit 257
brune 256
day 256
guitare 256
bord 255
main 255
verte 254
où 253
soleil 253
d'autres 251
back 250
jumps 250
hands 248
pantalons 248
voiture 248
ground 246
female 245
room 245
suit 245
bébé 242
performing 242
or 239
s'assiste 239
who 238
bâtiment 236
eating 236
ed 234
rouge. 234
striped 234
using 234
being 233
coat 233
tente 233
faisant 232
position 232
plage 231
rouges 231
sans 231
l'extérieur. 229
band 227
kids 225
under 225
ville. 225
watch 225
ensemble 224
its 224
many 224
plein 224
a@@ 223
horse 223
purple 222
store 222
trottoir. 222
l'air 221
mouth 221
he 220
leurs 220
prend 220
neige 219
sign 219
qu'une 217
téléphone 217
this 216
cheval 215
look 214
tête 214
sand 213
scène 213
runs 212
reading 211
sunglasses 210
players 209
banc 208
trick 207
tenant 206
hockey 205
chandail 204
bois. 203
clothing 203
trois 203
basketball 202
gros 201
mountain 200
route 200
arrière-plan. 198
bateau 198
dark 198
during 198
ocean 198
toy 198
parc 197
travaille 197
workers 197
dos 196
joueurs 195
middle 195
re@@ 195
be 194
climbing 194
prépare 194
watches 194
match 193
past 192
uniform 192
elderly 190
noirs 190
s 190
work 190
against 189
ing 188
d'eau. 187
helmet 187
skateboard 187
es 186
milieu 186
sentier 186
team 185
bleus 184
dancing 184
machine 183
window 183
lui. 182
jeu 181
rides 181
habillé 180
très 180
chair 179
ville 179
they 178
about 177
posing 177
bicyclette 176
c@@ 176
all 175
covered 175
casquette 174
l'herbe. 174
travers 174
trees 174
trouvent 174
waiting 174
wooden 174
bag 173
five 173
having 173
outdoor 173
pièce 172
swimming 172
tan 172
very 172
ers 171
parc. 171
getting 168
L'homme 167
blanc. 167
floor 166
trying 166
gris 164
ice 164
line 164
colorful 163
bras 161
-@@ 160
busy 160
fence 160
salle 160
singing 160
magasin 159
ou 159
shirts 159
jump 157
s'entraîne 157
Femme 156
cart 156
ce 156
contre 156
vieux 156
mains 155
promène 155
caméra. 154
e@@ 154
ride 154
photo. 153
utilise 153
font 152
l'arrière-plan. 152
book 151
laying 151
light 151
hats 150
high 150
hill 150
il 150
inside 150
bus 149
chaise 149
l'herbe 149
market 149
roulettes 149
autres 148
lors 148
panneau 148
truck 148
aux 147
bright 147
caméra 147
frisbee 147
visage 147
balle. 146
body 146
kitchen 146
cap 145
cellphone 145
chemises 145
in@@ 145
others 145
Il 144
grassy 144
path 144
big 143
d'hommes 143
making 143
someone 143
statue 143
chariot 142
clothes 142
instruments 142
night 141
semble 141
bâtiment. 140
motorcycle 140
takes 140
full 139
outfit 139
towards 139
umbrella 139
blancs 138
l'une 138
swing 138
track 138
bois 137
brick 137
d'enfants 137
enjoying 137
âgée 137
couche 136
travaillent 136
ballon 135
costumes 135
manteau 135
metal 135
entre 134
monte 134
partir 134
river 134
s'assie 134
Cinq 133
bar 133
board 133
paper 133
piece 133
plusieurs 133
ready 133
she 133
zone 133
2 132
o@@ 132
place 132
skateboarder 132
tank 132
d'eau 131
habillés 131
jouet 131
apron 130
i@@ 130
« 130
marché 129
piste 129
shop 129
chante 127
colored 127
conversation 127
d@@ 127
ds 127
open 127
scène. 127
cowboy 126
instrument 126
nombreuses 126
piscine 126
police 126
qu'elle 126
sweater 126
sécurité 126
worker 126
faire 125
above 124
lake 124
painting 124
peint 124
shopping 124
stick 124
De 123
bikini 123
bruns 123
going 123
main. 123
structure 123
travailleurs 123
adults 122
rayée 122
s'envole 122
d 121
music 121
petits 121
snowy 121
surfer 121
course. 120
dance 120
hard 120
house 120
montent 120
run 120
vest 120
l'aide 119
phone 119
pile 119
soleil. 119
surrounded 119
travaillant 119
wave 119
bouche. 118
onto 118
posent 118
stone 118
uniforms 118
camion 117
crowded 117
dame 117
montagne 117
nage 117
outdoors 117
prendre 117
robes 117
s'assèchent 117
beside 116
courent 116
e 116
foule. 116
jaune. 116
public 116
s'assistent 116
sol. 116
backpack 115
gear 115
pole 115
sable 115
set 115
smiles 115
tout 115
kid 114
nourriture 114
passe 114
regarde. 114
s@@ 114
con@@ 113
l'air. 113
l'intérieur 113
l'océan. 113
ligne 113
sable. 113
sol 113
subway 113
african 112
blanche. 112
di@@ 112
drinking 112
habillée 112
plancher 112
family 111
piscine. 111
équipe 111
american 110
bridge 110
flowers 110
lot 110
fire 109
microphone. 109
p 109
portent 109
toddler 109
arms 108
colline 108
danse 108
event 108
gathered 108
guys 108
hanging 108
route. 108
ts 108
verte. 108
plaid 107
away 106
catch 106
ly 106
objet 106
sleeping 106
arbre 105
beautiful 105
bleu. 105
point 105
preparing 105
rouge, 105
arm 104
basket 104
ca@@ 104
g@@ 104
ra@@ 104
de@@ 103
leaning 103
object 103
souriant 103
steps 103
after 102
cigarette 102
concert 102
fishing 102
grise 102
like 102
sourit 102
attend 101
attendent 101
bâton 101
dansent 101
p@@ 101
parlent 101
ting 101
adultes 100
co@@ 100
fleurs 100
fountain 100
parade 100
plan 100
quelques 100
rope 100
sommet 100
bouche 99
cycliste 99
er 99
jouer 99
nuit. 99
po@@ 99
sacs 99
shirtless 99
stairs 99
table. 99
chairs 98
graffiti 98
six 98
take 98
adult 97
l 97
roche 97
station 97
terre 97
tous 97
asiatiques 96
basket-ball 96
champ. 96
chose. 96
clôture 96
lancer 96
mange 96
rocks 96
shoes 96
jupe 95
selling 95
short 95
tall 95
tête. 95
bain 94
famille 94
sunny 94
t@@ 94
ti@@ 94
b@@ 93
chaussures 93
does 93
forest 93
glass 93
pont 93
préparent 93
quatre 93
setting 93
ski 93
guitare. 92
immeuble 92
musique 92
racing 92
terre. 92
arts 91
bleue. 91
courir 91
k 91
l'observent. 91
s'en 91
sautent 91
sort 91
volleyball 91
après 90
bat 90
blanches 90
both 90
corner 90
fruits 90
grill 90
m@@ 90
putting 90
s'enfonce 90
throwing 90
un@@ 90
wood 90
3 89
court 89
noir, 89
o 89
photos 89
pushing 89
slide 89
spectateurs 89
ve 89
view 89
between 88
comme 88
drink 88
elle. 88
have 88
ladies 88
laughing 88
lo@@ 88
magasin. 88
pieds 88
ri@@ 88
saut 88
arbre. 87
computer 87
d'âge 87
ding 87
flag 87
gilets 87
sweatshirt 87
to@@ 87
w@@ 87
ayant 86
couch 86
distance 86
do@@ 86
equipment 86
ex@@ 86
l'arrière 86
pantalon 86
al 85
bed 85
bikes 85
fish 85
pictures 85
ps 85
dont 84
livre 84
party 84
plastic 84
poses 84
ramp 84
way 84
beard 83
bowling 83
concrete 83
coupe 83
i 83
noir. 83
playground 83
prennent 83
reads 83
scooter 83
sun 83
trail 83
u@@ 83
which 83
woods 83
works 83
yard 83
cellulaire. 82
clown 82
frappe 82
li@@ 82
papier 82
possession 82
ro@@ 82
skirt 82
tables 82
vieille 82
be@@ 81
dock 81
fenêtre 81
habillées 81
midair 81
montre 81
nombreux 81
parapluie 81
qu'ils 81
soccer. 81
t 81
winter 81
y@@ 81
attire 80
base 80
blanc, 80
coin 80
just 80
led 80
mère 80
number 80
quai 80
so@@ 80
an@@ 79
beaucoup 79
dorme 79
lined 79
pousse 79
restaurant. 79
seated 79
tennis. 79
aliments 78
cyclistes 78
get 78
la@@ 78
lac. 78
ma@@ 78
maison 78
pa@@ 78
where 78
animal 77
bags 77
blonds 77
chaises 77
cuisine 77
mur. 77
nourriture. 77
school 77
sh 77
sh@@ 77
toward 77
what 77
beer 76
cooking 76
dansant 76
der 76
homme, 76
mangent 76
rivière 76
utilisant 76
barbe 75
blond-hair 75
buildings 75
cross 75
cutting 75
ensemble. 75
filled 75
haut 75
lui 75
pulling 75
rider 75
right 75
v@@ 75
vests 75
adulte 74
art 74
c 74
chef 74
couleurs 74
cream 74
d'entre 74
descend 74
image 74
jersey 74
journée 74
left 74
longs 74
marathon 74
shore 74
sky 74
st 74
tent 74
vert. 74
gants 73
grosse 73
mains. 73
middle-aged 73
mo@@ 73
mother 73
noires 73
appears 72
cliff 72
crossing 72
edge 72
entouré 72
friends 72
gens. 72
marches 72
moto 72
net 72
roues 72
s'élance 72
sculpture 72
ter 72
vague 72
bleues 71
cars 71
drapeau 71
few 71
fruit 71
l'extérieur, 71
me@@ 71
montagne. 71
mountains 71
orange. 71
pe@@ 71
pêche 71
s'agit 71
se@@ 71
showing 71
skateboarding 71
spectators 71
vélo. 71
appareil 70
bearded 70
chapeaux 70
feu 70
hoodie 70
horses 70
motocyclette 70
ons 70
pro@@ 70
rassemblent 70
show 70
si@@ 70
snowboarder 70
Quelques 69
bas 69
combinaison 69
cuisine. 69
dresses 69
make 69
nearby 69
performs 69
remplie 69
s'approche 69
scarf 69
suits 69
ted 69
violet 69
al@@ 68
autobus 68
bicyclette. 68
box 68
carries 68
driving 68
golf 68
passant 68
perform 68
personnes, 68
posant 68
rail 68
tasse 68
verre 68
boîte 67
crème 67
femme, 67
flower 67
foncés 67
leaves 67
martial 67
no 67
pied 67
pierre. 67
sourient 67
tapis 67
time 67
». 67
arrière 66
boots 66
ck 66
coffee 66
elle 66
gilet 66
immeuble. 66
longue 66
painted 66
parked 66
students 66
tenir 66
tunnel 66
uses 66
various 66
vendor 66
être 66
Petit 65
cake 65
car@@ 65
cup 65
enneigée. 65
eux. 65
frapper 65
gentleman 65
goggles 65
graffitis. 65
hand@@ 65
hommes, 65
jette 65
longues 65
roulent 65
shot 65
smile 65
smoking 65
travailleur 65
vehicle 65
visage. 65
younger 65
artiste 64
blanche, 64
bottle 64
cellulaire 64
compétition 64
cour 64
door 64
drums 64
eux 64
eyes 64
flags 64
flying 64
g 64
lying 64
maison. 64
moyen 64
métro. 64
passage 64
personnes. 64
rampe 64
rue, 64
s'occupe 64
surf 64
talks 64
terrain. 64
train. 64
vend 64
vif 64
bathing 63
blouse 63
canapé 63
coming 63
corde 63
hit 63
home 63
jaunes 63
kayak 63
kicking 63
l'autre. 63
ling 63
new 63
on@@ 63
paint 63
pointe 63
s'assis 63
st@@ 63
swinging 63
traverse 63
vi@@ 63
voitures 63
volley-ball 63
vue 63
équipement 63
ar@@ 62
beige 62
briques. 62
charrette 62
classe 62
f@@ 62
femme. 62
indian 62
it@@ 62
jackets 62
ls 62
newspaper 62
parking 62
pelle 62
penche 62
pente 62
prenant 62
prepares 62
rain 62
rocky 62
rodeo 62
sa@@ 62
safety 62
snowboardeur 62
vendeur 62
waves 62
Cette 61
arbres 61
ba@@ 61
briques 61
brunette 61
bucket 61
ciel 61
different 61
gather 61
gloves 61
grimpe 61
numéro 61
ont 61
practicing 61
roulettes. 61
tricks 61
at@@ 60
battent 60
blanket 60
bull 60
bunch 60
café 60
cement 60
cleaning 60
competition 60
cravate 60
en@@ 60
feuilles 60
ladder 60
listening 60
ne 60
ordinateur 60
pas 60
passent 60
proximité 60
roof 60
scene 60
sport 60
sports 60
vêtu 60
air. 59
bottes 59
can 59
country 59
d'arbres. 59
do 59
hold 59
items 59
le@@ 59
même 59
onlookers 59
petites 59
proximité. 59
staring 59
tentent 59
tie 59
wait 59
wet 59
audience 58
balloon 58
bicycles 58
bu@@ 58
ches 58
clôture. 58
couleur 58
couvert 58
desk 58
donne 58
empty 58
fenêtre. 58
fi@@ 58
giving 58
go 58
lawn 58
meal 58
parmi 58
peu 58
railing 58
rose. 58
sc@@ 58
tire 58
violette 58
» 58
Personne 57
ci@@ 57
collier 57
coucher 57
cra@@ 57
cu@@ 57
direction 57
drinks 57
foulard 57
gets 57
hot 57
leaps 57
lisant 57
manches 57
mangeant 57
military 57
monsieur 57
piste. 57
policier 57
pre@@ 57
regarder 57
runner 57
sautant 57
sliding 57
sp@@ 57
ta@@ 57
âgées 57
achalandée. 56
biker 56
bird 56
bleue, 56
bouteille 56
bowl 56
but 56
ch@@ 56
display 56
fontaine 56
forêt. 56
gathering 56
h@@ 56
karate 56
king 56
plastique 56
pointing 56
points 56
rouges. 56
s'asseye 56
sing 56
skieur 56
vegetables 56
w 56
yeux 56
Groupe 55
Six 55
barrière 55
before 55
ble 55
chasing 55
class 55
competing 55
facing 55
feet 55
fils 55
homme. 55
l'équipe 55
microscope 55
pelouse 55
platform 55
roulant 55
site 55
stop 55
streets 55
surfing 55
wedding 55
aide 54
ated 54
bateau. 54
bleu, 54
bureau 54
endroit 54
falaise 54
fillette 54
fleurs. 54
helmets 54
huge 54
ils 54
khaki 54
livre. 54
mask 54
monter 54
n@@ 54
ouvrier 54
pierre 54
skier 54
speaking 54
surfboard 54
affiche 53
bride 53
brun. 53
ces 53
classroom 53
festival 53
fond 53
ging 53
lights 53
masque 53
morceau 53
pass 53
s'asseyent 53
silver 53
surface 53
teams 53
travail 53
tries 53
virage 53
ying 53
alley 52
banc. 52
centre 52
climbs 52
colorés 52
dessus 52
end 52
father 52
glisse 52
jogging 52
ke 52
kissing 52
m 52
ping 52
purse 52
père 52
rochers 52
roses 52
s'élève 52
same 52
seen 52
sings 52
skis 52
spectateurs. 52
traditional 52
véhicule 52
waits 52
adolescent 51
barbu 51
bo@@ 51
club 51
counter 51
coup 51
fighting 51
fla@@ 51
gold 51
jaune, 51
ks 51
low 51
masculin 51
mettre 51
musicians 51
or@@ 51
policiers 51
screen 51
traîneau 51
urban 51
voiture. 51
bande 50
break 50
chantant 50
chien. 50
conduit 50
couverture 50
discutent 50
drapeaux 50
females 50
femmes, 50
forme 50
genoux 50
plaide 50
polo 50
sale 50
seau 50
skating 50
stroller 50
t-shirts 50
tambour 50
th@@ 50
âgés 50
écran 50
construction. 49
d'hiver 49
ded 49
dos. 49
elles 49
fête 49
happy 49
hole 49
kneeling 49
lap 49
légumes 49
maillot 49
ouvriers 49
pi@@ 49
pitcher 49
shoulder 49
sunset 49
throw 49
trampoline 49
tube 49
us 49
violin 49
walkway 49
writing 49
âgé, 49
élève 49
attempting 48
bald 48
belle 48
blowing 48
boire 48
business 48
christmas 48
extérieur. 48
fume 48
glace 48
hula 48
mi@@ 48
mirror 48
overlooking 48
performance 48
sorte 48
talk 48
verre. 48
waving 48
écoute 48
avoir 47
cking 47
close 47
cour. 47
cre@@ 47
denim 47
disputent 47
dormant 47
déplace 47
eau 47
gym 47
l@@ 47
made 47
ni@@ 47
outfits 47
peinture 47
pilote 47
saxophone 47
signs 47
skate 47
softball 47
spectacle 47
style 47
tri@@ 47
verts 47
4 46
ar 46
arrière-plan 46
artist 46
ballons 46
blond-haired 46
bubbles 46
béton. 46
cal 46
coureur 46
fauteuil 46
gâteau 46
haute 46
ho@@ 46
jour 46
musical 46
musiciens 46
officer 46
partie 46
plate 46
rivière. 46
says 46
ster 46
taureau 46
ure 46
étant 46
Enfants 45
articles 45
b 45
balloons 45
cheerleaders 45
chinese 45
cked 45
descendant 45
faces 45
fixing 45
foreground 45
giant 45
l'océan 45
leans 45
leg 45
life 45
musique. 45
n 45
plongée 45
rempli 45
ring 45
sourit. 45
vient 45
alone 44
cafe 44
ched 44
collar 44
eaux 44
exécute 44
fe@@ 44
helping 44
leather 44
mud 44
noire. 44
over@@ 44
pajamas 44
paysage 44
pleine 44
produits 44
racket 44
roller 44
rugby 44
semblent 44
seul 44
souffle 44
swim 44
te@@ 44
teenage 44
traversent 44
umbrellas 44
wheel 44
échelle 44
asleep 43
brightly 43
cheval. 43
dancers 43
diving 43
défilé. 43
electric 43
enjoy 43
headphones 43
journal 43
lac 43
legs 43
mar@@ 43
mariée 43
meat 43
métallique. 43
part 43
poisson 43
regardent. 43
roche. 43
rues 43
souriant. 43
ss@@ 43
sticks 43
su@@ 43
tirer 43
toit 43
transportant 43
traverser 43
type 43
vertes 43
wi@@ 43
équipes 43
am@@ 42
among 42
arbres. 42
avant 42
back@@ 42
certains 42
chasse 42
chevaux 42
colline. 42
comptoir 42
falling 42
filet 42
foncé 42
forêt 42
herbeux. 42
jeu. 42
makes 42
manger 42
observe 42
office 42
officers 42
passing 42
piano 42
public. 42
pâle 42
rire 42
s'agenouille 42
s'assissent 42
sandals 42
snow@@ 42
stadium 42
swings 42
tenues 42
vague. 42
washing 42
wears 42
; 41
Dans 41
achalandée 41
balls 41
barefoot 41
bière 41
bâtons 41
church 41
dark-haired 41
dirty 41
doorway 41
enfants. 41
escalier 41
fans 41
fontaine. 41
for@@ 41
friend 41
gauche. 41
goal 41
grands 41
heads 41
held 41
hiking 41
jeux. 41
lointain. 41
montagnes 41
multicolored 41
oiseau 41
parlant 41
participent 41
pause 41
photographer 41
plate-forme 41
podium 41
promenade 41
rassemble 41
recouvert 41
row 41
skiing 41
stri@@ 41
tiré 41
toys 41
vestes 41
accordion 40
ating 40
bol 40
canoe 40
canot 40
cinq 40
cloth 40
coureurs 40
ders 40
descendent 40
digging 40
drawing 40
el@@ 40
er@@ 40
go@@ 40
haut. 40
ins 40
l'arrière-plan 40
l'observe. 40
laptop 40
leash 40
males 40
marché. 40
ment 40
move 40
métallique 40
no@@ 40
papier. 40
picking 40
préparant 40
quelqu'un 40
reaching 40
repose 40
ru@@ 40
singer 40
sts 40
throws 40
traffic 40
van 40
video 40
bar@@ 39
below 39
casques 39
cuir 39
daughter 39
enfant. 39
entourée 39
flo@@ 39
fête. 39
groupe. 39
local 39
members 39
membres 39
nettoyer 39
oriental 39
promènent 39
r@@ 39
relaxing 39
remet 39
rit 39
rive 39
shallow 39
squ@@ 39
sun@@ 39
trou 39
utilisent 39
vélos 39
well 39
ws 39
écharpe 39
agit 38
amis 38
atop 38
autres. 38
balaye 38
basket-ball. 38
bicyclist 38
blo@@ 38
boisson 38
camouflage 38
cat 38
catches 38
catching 38
cette 38
chantier 38
contenant 38
cours 38
couverte 38
deep 38
dirige 38
enfants, 38
fille, 38
flip 38
foot 38
gives 38
hugging 38
kick 38
laisse 38
motocross 38
moving 38
pan@@ 38
panier 38
passes 38
pot 38
recouverte 38
resting 38
s'accroche 38
shovel 38
square 38
sta@@ 38
sting 38
tas 38
tourne 38
tra@@ 38
ved 38
événement 38
5 37
Jeune 37
adolescents 37
ans 37
ation 37
balayage 37
béton 37
cadre 37
ch 37
cks 37
climb 37
drum 37
flies 37
fun 37
garden 37
gate 37
ge 37
gu@@ 37
here 37
jouet. 37
lab 37
leaping 37
livrent 37
lone 37
man@@ 37
métro 37
noire, 37
orange, 37
paved 37
poussette 37
pping 37
prepare 37
rayures 37
rolling 37
s'amuse 37
salon 37
sed 37
shows 37
sled 37
sleeps 37
ss 37
stunt 37
sweeping 37
tattoo 37
tour 37
tro@@ 37
trunks 37
vêtue 37
élèves 37
équilibre 37
&apos; 36
Man 36
ad@@ 36
ats 36
attendant 36
avion 36
baseball. 36
block 36
café. 36
ciment 36
coats 36
cold 36
conversing 36
cor@@ 36
cordes 36
ct@@ 36
cting 36
cur@@ 36
côte 36
d'art 36
desert 36
extérieur 36
exécutant 36
glace. 36
hose 36
individuals 36
jean 36
lies 36
lots 36
magazine 36
marche. 36
martiaux 36
motocycliste 36
mural 36
photograph 36
pluie. 36
pompiers 36
pond 36
porte. 36
protection 36
sauter 36
splashing 36
tableau 36
tambour. 36
teeth 36
temps 36
tombe 36
uns 36
upside 36
ves 36
voie 36
we@@ 36
wear 36
Petite 35
boissons 35
classe. 35
closed 35
customers 35
d'arts 35
encombrée. 35
essaie 35
fa@@ 35
figure 35
formal 35
gardant 35
gun 35
hi@@ 35
how 35
ine 35
l'entrée 35
l'homme 35
militaire 35
moment 35
ms 35
mât 35
nuit 35
observent 35
photographe 35
photos. 35
pier 35
plants 35
round 35
s'élancent 35
snowboard 35
studio 35
telescope 35
these 35
town 35
underneath 35
wagon 35
wrestling 35
Nol 34
banquette 34
bien 34
bière. 34
cane 34
carnival 34
concert. 34
cut 34
cyclist 34
dances 34
eat 34
feu. 34
fille. 34
glacée 34
hall 34
he@@ 34
hiker 34
including 34
jeux 34
k@@ 34
ker 34
marié 34
mat 34
mer 34
opposing 34
per@@ 34
pont. 34
project 34
rodéo. 34
shoe 34
shoulders 34
spe@@ 34
taille 34
themselves 34
téléphone. 34
vide. 34
waters 34
without 34
Girl 33
allée 33
asiatique. 33
booth 33
ce@@ 33
chanteur 33
che@@ 33
circle 33
crosswalk 33
crying 33
dinner 33
ely 33
exécutent 33
fight 33
gardien 33
hoop 33
infant 33
jardin. 33
journal. 33
jungle 33
lit. 33
makeup 33
matching 33
mettent 33
obstacle 33
paddling 33
pays 33
produce 33
pulled 33
rouges, 33
runners 33
réunit 33
salope 33
sauvetage 33
seat 33
ste@@ 33
stra@@ 33
straw 33
taken 33
ur@@ 33
vert, 33
vitrine 33
wooded 33
écouteurs 33
Boy 32
Certaines 32
als 32
athlete 32
attempts 32
ballon. 32
bi@@ 32
bicyclists 32
books 32
boxes 32
bra@@ 32
bureau. 32
bâtonnet 32
bébé. 32
ching 32
covering 32
cricket 32
cro@@ 32
cted 32
d'eux 32
d'or 32
da@@ 32
divers 32
dra@@ 32
driver 32
foncée 32
goes 32
gra@@ 32
gs 32
gymnast 32
jo@@ 32
jockey 32
lunch 32
match. 32
mer. 32
montagnes. 32
mouillé 32
noirs, 32
nose 32
opening 32
ors 32
ouvre 32
performer 32
picnic 32
pluie 32
repas 32
rest 32
routine 32
s'emparer 32
s'entraînent 32
s'est 32
scie 32
seule 32
sewing 32
shed 32
stuffed 32
tes 32
tissu 32
trash 32
tuyau 32
vendant 32
viande 32
vêtus 32
Nol. 31
assiette 31
balcony 31
center 31
chases 31
corde. 31
cou 31
courant 31
cow 31
dehors 31
dri@@ 31
fo@@ 31
gi@@ 31
hammer 31
help 31
hikers 31
himself 31
il@@ 31
jambes 31
jouets 31
l'arrière. 31
lan@@ 31
lays 31
log 31
mobile 31
mu@@ 31
parapluie. 31
pedestrians 31
pelouse. 31
plage, 31
pushes 31
randonneur 31
s'y 31
s'élevant 31
sandales 31
sandy 31
sert 31
signe 31
slope 31
sombre. 31
teenagers 31
third 31
trottoir, 31
tu@@ 31
use 31
violon 31
voies 31
vole 31
x 31
New 30
Quelqu'un 30
africaine 30
barbecue 30
bent 30
boîtes 30
chantent 30
chat 30
côté. 30
d'être 30
deck 30
device 30
football. 30
garage 30
gris. 30
indoor 30
jambe 30
jupes 30
kind 30
lunettes, 30
mariage. 30
mat@@ 30
moto. 30
muni 30
mustache 30
ne@@ 30
neck 30
not 30
ous 30
paille 30
plancher. 30
polka 30
puddle 30
pulls 30
puts 30
pêche. 30
qu@@ 30
roue 30
sandwich 30
seven 30
sha@@ 30
speaks 30
staircase 30
stationnement. 30
suspendu 30
turn 30
ug@@ 30
vagues 30
vêtement 30
wing 30
Chevalier 29
achalandé. 29
américain 29
blancs. 29
boats 29
boit 29
bri@@ 29
brosse 29
canne 29
chi@@ 29
chiens. 29
chute 29
d-@@ 29
dancer 29
drives 29
défilé 29
enjoys 29
evening 29
extérieure. 29
fallen 29
gentlemen 29
glissant 29
gro@@ 29
grocery 29
heavy 29
hors 29
juggling 29
l'avant 29
laundry 29
lea@@ 29
lisent 29
marching 29
min@@ 29
mohawk 29
nageant 29
non 29
nus 29
ouverte 29
overalls 29
patio 29
per 29
pouring 29
pp@@ 29
quartier 29
rangée 29
s'avance 29
sco@@ 29
shaking 29
shaving 29
soleil, 29
swims 29
taxi 29
te 29
wa@@ 29
wetsuit 29
Ce 28
Ces 28
ate 28
barre 28
brown-haired 28
bulles 28
chaussettes 28
clear 28
cloudy 28
coloré 28
ction 28
escaliers 28
fair 28
feuilles. 28
fingers 28
foreign 28
garb 28
gazon 28
ges 28
glacée. 28
golden 28
gymnaste 28
hangs 28
kicks 28
l'on 28
lave 28
ledge 28
lieu 28
lift 28
lumière 28
lumières 28
lutte 28
légumes. 28
machines 28
maquillage 28
motifs 28
moves 28
native 28
nice 28
ouvert. 28
ped 28
pipe 28
pièce. 28
plonge 28
porch 28
poussant 28
protective 28
randonneurs 28
red-haired 28
rocheuse. 28
see 28
sheet 28
ship 28
steep 28
stream 28
teenager 28
tracks 28
télescope 28
voile 28
vérifie 28
water@@ 28
waterfall 28
win@@ 28
wrapped 28
été 28
Cet 27
Guy 27
action 27
airplane 27
app@@ 27
arena 27
attached 27
backyard 27
birds 27
blocks 27
bordée 27
boue 27
boule 27
boun@@ 27
bras. 27
bread 27
bâton. 27
cape 27
checking 27
chefs 27
colors 27
combinaisons 27
couper 27
ct 27
e-@@ 27
extérieure 27
eye 27
ful 27
gauche 27
gris, 27
intersection 27
ked 27
kes 27
l'eau, 27
l'envers 27
l'intérieur. 27
luggage 27
microphones 27
opposite 27
palm 27
passer 27
patins 27
pit 27
poles 27
pompier 27
porter 27
préparer 27
put 27
reaches 27
red-hair 27
sea 27
shooting 27
shoveling 27
skirts 27
soldats 27
soldiers 27
spi@@ 27
ters 27
toit. 27
travail. 27
troisième 27
try 27
unicycle 27
ut@@ 27
vif. 27
âge 27
Voici 26
Vue 26
achats 26
ant 26
arrière. 26
athlète 26
balancing 26
ballerina 26
bro@@ 26
can@@ 26
catcher 26
chemin 26
clean 26
cones 26
courts 26
cowboys 26
curb 26
dd@@ 26
droite. 26
floral 26
fourgonnette 26
frisbee. 26
glissière 26
goalie 26
gre@@ 26
heureux 26
hommes. 26
inflatable 26
j@@ 26
jaunes. 26
journée. 26
keyboard 26
kiss 26
land 26
laugh 26
marcher 26
mound 26
murale 26
oranges 26
parents 26
parlent. 26
pavement 26
ph@@ 26
poste 26
poster 26
poteau 26
projet 26
pu@@ 26
sli@@ 26
soldier 26
stationnement 26
string 26
tion 26
tirée 26
tongue 26
tops 26
uniformes 26
wheelchair 26
windows 26
wine 26
z@@ 26
électrique 26
Beaucoup 25
C'est 25
Père 25
américaine 25
backwards 25
bandanna 25
bar. 25
bas. 25
ber@@ 25
bikers 25
bottom 25
boutique 25
bubble 25
but. 25
buying 25
camion. 25
cercle 25
cigarette. 25
col@@ 25
com@@ 25
courtyard 25
curly 25
cyclists 25
cônes 25
danseuse 25
dessine 25
dresse 25
droite 25
dune 25
eats 25
ent 25
fabric 25
fall 25
fast 25
flight 25
floating 25
frame 25
fresh 25
fruits. 25
grille 25
haircut 25
happily 25
head@@ 25
id 25
inter@@ 25
l'ombre 25
laughs 25
mariage 25
married 25
mer@@ 25
motorcycles 25
musician 25
nap 25
ned 25
noirs. 25
nombre 25
pair 25
panneau. 25
patin 25
pente. 25
pigeons 25
plant 25
professional 25
raft 25
railroad 25
randonnée 25
regard 25
riders 25
rocheuse 25
réunissent 25
s'amusent 25
s'appuie 25
s'étend 25
s'étonne 25
sea@@ 25
sell 25
sentier. 25
serviette 25
shade 25
soldat 25
step 25
stool 25
student 25
swimsuit 25
tools 25
tractor 25
traîne 25
ty 25
village 25
ville, 25
vêtements. 25
walls 25
york 25
énorme 25
Certains 24
L'enfant 24
acoustic 24
appear 24
auditoire. 24
balles 24
bling 24
brune. 24
bucking 24
bun@@ 24
canapé. 24
carriage 24
cha@@ 24
chariot. 24
chaîne 24
cheering 24
chemise, 24
circulation 24
closeup 24
color 24
compagnie 24
couples 24
cs 24
d'herbe. 24
dents 24
derby 24
désert. 24
either 24
ensoleillé. 24
ery 24
garbage 24
genoux. 24
ger 24
goods 24
groom 24
guard 24
har@@ 24
hurdle 24
images 24
ist 24
jerseys 24
knee 24
langue 24
living 24
marketplace 24
miroir. 24
multiple 24
musicien 24
obtenir 24
ops 24
ouverte. 24
par@@ 24
parapluies 24
pin@@ 24
piétons 24
plane 24
plastique. 24
pris 24
rampe. 24
rayure 24
rayé 24
rose, 24
santa 24
scaffolding 24
shown 24
silhouette 24
sized 24
socks 24
sombre 24
spray 24
suspended 24
th 24
touche 24
touching 24
towel 24
vely 24
voir 24
yo@@ 24
you 24
épaules 24
équipage 24
1 23
Sept 23
advertisement 23
airport 23
animals 23
aring 23
backpacks 23
bank 23
batteur 23
beau 23
bending 23
bmx 23
boards 23
boue. 23
branches 23
bs 23
but@@ 23
cam@@ 23
caught 23
certaines 23
chain 23
chinois 23
clients 23
climber 23
conducteur 23
d'art. 23
danseurs 23
dining 23
discussion 23
dit 23
dry 23
du@@ 23
ears 23
elling 23
em@@ 23
escalator 23
escalier. 23
espace 23
fan 23
fenced 23
formation 23
fully 23
garçon, 23
german 23
graffitis 23
guitariste 23
hay 23
herbeux 23
hood 23
hooded 23
japanese 23
kneels 23
l'écart 23
l'épaule 23
laboratoire 23
landscape 23
lecture 23
let 23
long-haired 23
manuvre 23
marchandises 23
me 23
met 23
microscope. 23
montant 23
monument 23
mâle 23
paints 23
panneaux 23
participe 23
pattes 23
pes 23
pizza 23
plaza 23
portable 23
pped 23
produit 23
présence 23
raised 23
remorque 23
rire. 23
roulant. 23
région 23
réparer 23
s'occupent 23
serving 23
sheep 23
souriante 23
sted 23
sti@@ 23
sto@@ 23
stove 23
tatouage 23
underwater 23
vehicles 23
ver 23
wal@@ 23
welding 23
wer 23
yoga 23
! 22
Homme 22
VTT 22
age 22
agite 22
ajuste 22
amont 22
amusement 22
ary 22
athletic 22
attente 22
au@@ 22
bagages 22
blanches. 22
blancs, 22
bleus. 22
boissons. 22
bow 22
brunes 22
brush 22
brushing 22
bur@@ 22
caméra, 22
candy 22
cat@@ 22
caucasian 22
checkered 22
ciment. 22
comment 22
d'herbe 22
decorated 22
defen@@ 22
directions 22
dro@@ 22
ea@@ 22
ear@@ 22
escaladant 22
examine 22
examining 22
exposition 22
fer 22
file 22
fu@@ 22
garçon. 22
gazon. 22
ged 22
glissoire 22
good 22
grandes 22
gravel 22
grilling 22
groupes 22
ic 22
individual 22
ings 22
ja@@ 22
jeans, 22
jongle 22
ki@@ 22
l'escalier 22
lines 22
marathon. 22
mom 22
money 22
nature 22
neon 22
ning 22
observant 22
op@@ 22
operating 22
orchestra 22
pain 22
participating 22
penchant 22
pit@@ 22
post 22
pots 22
read 22
referee 22
rouler 22
s'arrêtent 22
s'asseoira 22
scra@@ 22
scuba 22
seems 22
shaped 22
shes 22
siège 22
stade 22
summer 22
surprend 22
tambours 22
teacher 22
things 22
thrown 22
ur 22
volley-ball. 22
wed 22
wo@@ 22
ze 22
( 21
ami 21
arrêt 21
ars 21
attempt 21
atv 21
autobus. 21
balance 21
balcon 21
bars 21
basse 21
benches 21
bles 21
bleus, 21
blonde 21
bouquet 21
brea@@ 21
bulles. 21
button 21
chest 21
cker 21
clair 21
compete 21
compétition. 21
cone 21
crouches 21
cuit 21
différentes 21
diverses 21
dol@@ 21
elles. 21
f 21
façon 21
feeding 21
firefighters 21
flotte 21
form@@ 21
ger@@ 21
hallway 21
harness 21
heels 21
hitting 21
indienne 21
instruments. 21
ite 21
jouets. 21
jumpsuit 21
jusqu'à 21
juste 21
l'appareil 21
l'équipement 21
lin@@ 21
lire 21
lu@@ 21
mais 21
map 21
marteau 21
muddy 21
métal 21
neige, 21
nez 21
ol@@ 21
only 21
opponent 21
parcours 21
passengers 21
patient 21
peace 21
peut 21
peut-être 21
photographs 21
plateau 21
plie 21
practice 21
presentation 21
pri@@ 21
print 21
profonde 21
présente 21
quai. 21
racer 21
rec@@ 21
res 21
rests 21
rochers. 21
ropes 21
rowing 21
s'arrête 21
s'élevait 21
sets 21
sharing 21
sk@@ 21
snowboarding 21
sol@@ 21
spectacle. 21
statue. 21
sticking 21
sub@@ 21
surplombe 21
surveille 21
tente. 21
touristes 21
tourists 21
tracteur 21
tub 21
tur@@ 21
turning 21
ul@@ 21
urbain. 21
urbaine. 21
ve@@ 21
vente 21
ver@@ 21
vitesse 21
vives 21
war@@ 21
écrit 21
) 20
8 20
Asiatiques 20
Enfant 20
Femmes 20
York. 20
ad 20
aged 20
ally 20
also 20
amp 20
arbitre 20
baignent 20
ballet 20
bandana 20
barrière. 20
baskets 20
bathroom 20
blazer 20
boivent 20
boxing 20
bâtiments 20
cage 20
camping 20
carpet 20
ced 20
ceinture 20
chase 20
chaud 20
cheveux. 20
ciel. 20
cleans 20
coach 20
coloré. 20
craft 20
creuse 20
danseuses 20
dish 20
dr@@ 20
drummer 20
détend 20
ear 20
eau. 20
eight 20
et@@ 20
femmes. 20
fin@@ 20
fly 20
fro@@ 20
fumant 20
gare 20
gas 20
ge@@ 20
grill. 20
groups 20
guitars 20
half 20
hauteur 20
headscarf 20
ity 20
je@@ 20
kers 20
leotard 20
ler 20
loading 20
long-sleeved 20
machinery 20
manifestation 20
marchait 20
mettant 20
model 20
motorcyclist 20
na@@ 20
navy 20
ner 20
out@@ 20
outil 20
parler 20
pen 20
plantes 20
policeman 20
prise 20
pull 20
racetrack 20
ruban 20
rural 20
s'assure 20
scooters 20
scouts 20
she@@ 20
sink 20
skateboards 20
speech 20
sport. 20
sporting 20
sses 20
ssion 20
start 20
sters 20
stones 20
tile 20
tool 20
tor@@ 20
toutes 20
tricycle 20
turns 20
unique 20
vendre 20
verte, 20
vertes. 20
vidéo 20
vidéo. 20
viewing 20
vives. 20
vo@@ 20
we 20
wide 20
wire 20
wn 20
wor@@ 20
y-@@ 20
échafaudage 20
&amp; 19
ac@@ 19
acrobatie 19
afro-américain 19
ahead 19
allemand 19
ard 19
assi@@ 19
ati@@ 19
atten@@ 19
bath 19
beam 19
beverage 19
boardwalk 19
bushes 19
cally 19
capture 19
carte 19
case 19
ceiling 19
chapeau, 19
chargée 19
chassant 19
cing 19
ck@@ 19
college 19
cool 19
couchant 19
crie 19
crouching 19
d'eux. 19
d'école 19
dark-skinned 19
dge 19
dis@@ 19
donnant 19
dos, 19
dreadlocks 19
déchets 19
eastern 19
effectue 19
el 19
enneigée 19
ered 19
essayant 19
fancy 19
femelle 19
fenêtres 19
first 19
fixe 19
foncés, 19
fort 19
gers 19
great 19
gri@@ 19
h 19
heart 19
herself 19
hillside 19
hol@@ 19
horseback 19
indoors 19
inspecte 19
jardin 19
jouissent 19
lane 19
lar 19
leaving 19
livres 19
magazines 19
manger. 19
maroon 19
martiaux. 19
medical 19
member 19
militaires 19
ming 19
mixing 19
multicolore 19
museum 19
mélange 19
narrow 19
neighborhood 19
niveau 19
nu 19
obstacle. 19
outstretched 19
paire 19
parc, 19
petting 19
pierres 19
pitch 19
pla@@ 19
place. 19
planches 19
plat 19
porche 19
portable. 19
portrait 19
possibly 19
professionnel 19
prêt 19
puck 19
qu'elles 19
quelqu'un. 19
quilles 19
r 19
radeau 19
ramasse 19
rassemblement 19
rickshaw 19
rivage. 19
rocher. 19
ry 19
s'appuyant 19
s'asseoir 19
s'exerce 19
salopes 19
scène, 19
sells 19
shoot 19
slides 19
smoke 19
snow-covered 19
stopped 19
surplombant 19
swimmer 19
t-@@ 19
tag 19
tattooed 19
tents 19
tin@@ 19
travailler 19
trumpet 19
turban 19
tw@@ 19
um@@ 19
vache 19
vendors 19
verres 19
vide 19
violon. 19
visible 19
x@@ 19
écouteurs. 19
église. 19
air@@ 18
ali@@ 18
animaux 18
apple 18
apprécie 18
army 18
auditorium 18
autre. 18
balançoire 18
birthday 18
bly 18
boisson. 18
boisée. 18
bordure 18
bottles 18
boules 18
bout 18
boutons 18
buckets 18
buy 18
camp 18
cans 18
card 18
cardboard 18
carnaval. 18
celebrating 18
chaise. 18
chapeau. 18
chaque 18
choir 18
clay 18
clo@@ 18
commercial 18
container 18
converse 18
cow-boy 18
cts 18
d'apparence 18
d'arbres 18
danse. 18
descendre 18
dishes 18
déplacent 18
entrance 18
escaliers. 18
excited 18
fencing 18
feux 18
fil 18
finish 18
fire@@ 18
folding 18
fosse 18
funny 18
gr@@ 18
guitarist 18
hang 18
helps 18
hospital 18
hotel 18
hugs 18
l'autre, 18
lay 18
live 18
lunettes. 18
maillots 18
mall 18
montrant 18
mostly 18
moteur 18
motocyclette. 18
motocyclistes 18
médecin 18
nets 18
ns 18
ornate 18
outils 18
paniers 18
pen@@ 18
pieces 18
pl@@ 18
poubelle 18
produisent 18
protest 18
puppy 18
pâte 18
quarterback 18
rela@@ 18
reçoit 18
rodéo 18
roues. 18
rubber 18
répare 18
s'attaque 18
s'enfoncer 18
s'éclaboussure 18
sal@@ 18
saw 18
seats 18
shepherd 18
skates 18
slo@@ 18
sol, 18
song 18
sourient. 18
squatting 18
surveille. 18
suspendus 18
tatoué 18
thumbs 18
tre@@ 18
tresses 18
types 18
unes 18
uniformed 18
up@@ 18
ut 18
va@@ 18
verts. 18
vil 18
wheels 18
youth 18
ys 18
étang 18
événement. 18
0 17
Jeunes 17
achètent 17
adulte. 17
africains 17
aire 17
airs 17
apartment 17
approche 17
ates 17
attaque 17
backs 17
balances 17
balayant 17
bancs 17
banjo 17
batter 17
bear 17
belt 17
berger 17
bin 17
blows 17
bordé 17
bowls 17
broom 17
calf 17
chambre 17
chanteuse 17
chaussure 17
cla@@ 17
clavier 17
cloth@@ 17
coiffure 17
colle@@ 17
coloring 17
colorée 17
comfor@@ 17
commence 17
commercial. 17
conference 17
construire 17
contraption 17
coo@@ 17
courte 17
courtes 17
ctors 17
cuts 17
d'affaires 17
d'arbre 17
debout, 17
debout. 17
dents. 17
derrière. 17
dessous 17
dire@@ 17
doctor 17
doors 17
dunes 17
dy 17
encombrée 17
enfant, 17
escalade 17
ethnic 17
fil@@ 17
filets 17
filles, 17
finger 17
firetruck 17
fisherman 17
fle@@ 17
flipping 17
float 17
fol@@ 17
furniture 17
ga@@ 17
gentilhomme 17
ght 17
got 17
grinding 17
ha@@ 17
hair@@ 17
handstand 17
harnais 17
hoops 17
hotdogs 17
inspecting 17
item 17
jeep 17
jet 17
jolie 17
khakis 17
kilt 17
kn@@ 17
l'argent 17
lancent 17
leading 17
library 17
machine. 17
magnifique 17
miroir 17
more 17
mât. 17
navire 17
ny 17
oreilles 17
os 17
pan 17
parasol 17
partiellement 17
personne. 17
pick 17
pil@@ 17
pine 17
pique-nique 17
pique-nique. 17
plaque 17
plates 17
pleure 17
poitrine 17
por@@ 17
pratique 17
présentation 17
rafting 17
rase 17
rayée, 17
rayés 17
recouvrant 17
reflective 17
reposant 17
reposent 17
ressemble 17
ribbon 17
rink 17
rit. 17
roses. 17
rough 17
ruisseau. 17
s'amusant 17
saut. 17
scenery 17
service 17
situé 17
skie 17
sleeveless 17
smokes 17
snack 17
solitaire 17
sortant 17
space 17
spinning 17
spraying 17
stack 17
stares 17
storefront 17
stretching 17
stripes 17
stroll 17
stru@@ 17
sw@@ 17
swe@@ 17
sword 17
tattoos 17
tered 17
tho@@ 17
tly 17
tombé 17
tourner 17
travaux 17
tuiles 17
unds 17
uni@@ 17
vegetable 17
ven 17
vol 17
vous 17
vêtues 17
zing 17
également 17
- 16
-up 16
2012 16
6 16
Travailleurs 16
accident 16
acheter 16
achète 16
act 16
africain 16
allée. 16
ance 16
annonce 16
approaching 16
artistes 16
arène 16
attentivement 16
balding 16
banner 16
barrel 16
barres 16
bass 16
bassin 16
bat@@ 16
beg@@ 16
bleues. 16
bloquer 16
boucle 16
bow@@ 16
broken 16
brun, 16
burgundy 16
buvant 16
candles 16
cap@@ 16
carving 16
castle 16
chalk 16
chaussures. 16
chauve-souris 16
chevaux. 16
clad 16
computers 16
corps 16
coudre 16
crane 16
crew 16
d'adultes 16
d'amis 16
d'eau, 16
dar@@ 16
dead 16
discussing 16
doigts 16
duck 16
emergency 16
ence 16
enseigne 16
ey@@ 16
factory 16
farm 16
fix 16
flip-flops 16
fluffy 16
folded 16
following 16
free 16
ft 16
garde 16
gui@@ 16
gymnasium 16
horn 16
houses 16
instru@@ 16
intently 16
jete 16
jewelry 16
joie 16
kayaks 16
ke@@ 16
kite 16
lamp 16
lancé 16
lifting 16
listens 16
livres. 16
london 16
marches. 16
mas 16
ments 16
microphone, 16
modèle 16
mon@@ 16
moped 16
motoneige 16
motorbike 16
murs 16
naked 16
nighttime 16
niveau. 16
néon 16
objects 16
odd 16
oping 16
opposée 16
overhead 16
parachute 16
participant 16
passagers 16
pneus 16
pol@@ 16
portes 16
pratiquent 16
presque 16
profonde. 16
provisions 16
publique. 16
races 16
rail. 16
rainy 16
raises 16
ral 16
reach 16
recherche 16
rendre 16
rive. 16
rocheux. 16
s'assouplit 16
s'entretient 16
s'envolent 16
s'incline 16
seaux 16
section 16
semelles 16
sides 16
smo@@ 16
sofa 16
speed 16
spread 16
stade. 16
stairway 16
starting 16
surrounding 16
sweat@@ 16
tain 16
television 16
tentant 16
tied 16
tige 16
tourist 16
traditionnelle 16
trampoline. 16
transport 16
tropical 16
turned 16
turquoise 16
ures 16
uvres 16
vendent 16
vendeurs 16
véhicule. 16
véhicules 16
vélo, 16
ward 16
warm 16
wife 16
électrique. 16
étudie 16
&apos;t 15
-down 15
-like 15
.@@ 15
1@@ 15
3@@ 15
Lady 15
acoustique 15
activité 15
advertising 15
aident 15
alpiniste 15
am 15
ami@@ 15
amongst 15
applique 15
arcade 15
arm@@ 15
bac 15
balle, 15
barber 15
bateaux 15
beneath 15
bla@@ 15
blanches, 15
blow 15
bouteilles 15
branch 15
called 15
cameras 15
chacun 15
chassent 15
chaud. 15
chaussée 15
chiffon 15
choses 15
clôturée. 15
colorées 15
come 15
comple@@ 15
compris 15
control 15
corn 15
craie 15
crosses 15
crâne 15
cut@@ 15
downtown 15
durant 15
déjeuner 15
electronic 15
elephant 15
encombré. 15
engaged 15
engine 15
enneigé. 15
ens 15
ensemble, 15
ensoleillée. 15
ent@@ 15
environnement 15
falaise. 15
fer. 15
fireman 15
fleur 15
flottant 15
flowered 15
follows 15
forward 15
fourrure 15
fr@@ 15
fre@@ 15
fumée 15
gg@@ 15
go-@@ 15
grosses 15
headband 15
hel@@ 15
her@@ 15
hits 15
hockey. 15
hotdog 15
hun@@ 15
hydrant 15
ing@@ 15
instrument. 15
ir@@ 15
jockeys 15
jour. 15
keep 15
kiosque 15
lançait 15
liquid 15
liquide 15
lit@@ 15
lointain 15
lounging 15
main, 15
maisons 15
marchent. 15
material 15
membre 15
mince 15
motor@@ 15
moyen, 15
my 15
nageurs 15
name 15
necklace 15
nettoyant 15
newborn 15
nez. 15
nouveau 15
numerous 15
observing 15
oc@@ 15
ordinateur. 15
ordinateurs 15
ori@@ 15
papers 15
partially 15
participate 15
patinent 15
patinoire 15
pea@@ 15
photo, 15
poissons 15
ponytail 15
pottery 15
poussent 15
present 15
protesting 15
quilles. 15
quitte 15
raising 15
redheaded 15
relax 15
renversement 15
repair 15
repas. 15
revêtement 15
rivage 15
rows 15
s'assouffle 15
s'empare 15
sabots 15
security 15
shades 15
shaved 15
sho@@ 15
shovels 15
sièges 15
skateboard. 15
smaller 15
soccer, 15
sportive 15
ssed 15
ssing 15
straight 15
stre@@ 15
sur@@ 15
swimmers 15
table, 15
tan@@ 15
tch 15
teammate 15
tex@@ 15
theater 15
thin 15
til@@ 15
tirent 15
tle 15
tomber 15
trailer 15
training 15
tricot 15
trucks 15
vagues. 15
vie@@ 15
ving 15
violet, 15
violet. 15
visages 15
whi@@ 15
white-@@ 15
wings 15
wrestle 15
zed 15
étang. 15
11 14
Grand 14
admiring 14
adversaire 14
ages 14
airborne 14
aisle 14
aliments. 14
angel 14
aprons 14
arc 14
athletes 14
athlètes 14
balaie 14
bare 14
biking 14
bil@@ 14
billboard 14
binoculars 14
bite 14
black@@ 14
blocs 14
book@@ 14
brique 14
brune, 14
cal@@ 14
calm 14
camel 14
canon 14
capot 14
caps 14
cards 14
care 14
carry 14
cartes 14
casual 14
charac@@ 14
cli@@ 14
clients. 14
cobblestone 14
colorés. 14
conférence. 14
construisent 14
conven@@ 14
cook 14
cordes. 14
crafts 14
cru@@ 14
d'adolescents 14
d'ordinateur. 14
d'origine 14
desig@@ 14
différentes. 14
dimly 14
donkey 14
dorment 14
déjeuner. 14
dîner 14
dîner. 14
eling 14
employés 14
entraîneur 14
expre@@ 14
fake 14
falls 14
faux 14
filet. 14
firemen 14
fl@@ 14
flou 14
flute 14
foire 14
fra@@ 14
frais 14
fri@@ 14
féminine 14
gar@@ 14
gh@@ 14
gift 14
gla@@ 14
gli@@ 14
glo@@ 14
glove 14
grand@@ 14
guards 14
guns 14
gâteau. 14
herbe. 14
herbeuse. 14
homeless 14
hu@@ 14
hug 14
ily 14
im 14
immeubles 14
interacting 14
intérieur. 14
jettent 14
job 14
joue. 14
l'extrémité 14
l'observent 14
lar@@ 14
leads 14
len@@ 14
lounge 14
lève 14
mangent. 14
menu 14
mic 14
mid 14
mmed 14
most 14
moustache 14
museau 14
métal. 14
objet. 14
objets 14
oes 14
oms 14
ouvert 14
passenger 14
patineurs 14
peering 14
peignoir 14
peindre 14
performers 14
photographed 14
pillow 14
pinata 14
places 14
plantes. 14
pleure. 14
pneu 14
pretty 14
présentent 14
pur@@ 14
push 14
pêcheur 14
rainbow 14
rangées 14
receiving 14
repairs 14
rings 14
rocher 14
rollerblades 14
ruisseau 14
s'adonne 14
s'aventure 14
s'étendant 14
saleté. 14
sam@@ 14
scarves 14
ser@@ 14
shakes 14
share 14
shi@@ 14
shining 14
shops 14
silly 14
skiers 14
skieurs 14
slee@@ 14
slightly 14
sortent 14
spar@@ 14
splashes 14
spo@@ 14
spon@@ 14
sportif 14
sprinkler 14
star 14
steel 14
stic 14
story 14
surf. 14
tasses 14
teaching 14
tee 14
tend 14
test 14
ties 14
tower 14
traditionnels 14
tronc 14
trottoirs 14
trunk 14
tutu 14
télévision 14
tête, 14
upon 14
uts 14
va 14
vieillard 14
vin 14
vin. 14
vu 14
vélos. 14
wading 14
weaving 14
wh@@ 14
whilst 14
wit@@ 14
world 14
xes 14
yed 14
écoutant 14
étalage 14
état 14
2@@ 13
L'équipe 13
Moyen-Orient 13
ado@@ 13
affiches 13
agent 13
ari@@ 13
assis. 13
ast 13
atelier 13
ator 13
attention 13
autochtone 13
autumn 13
aérienne 13
bain. 13
ban@@ 13
barrier 13
beanie 13
bleachers 13
bol. 13
boîte. 13
bricks 13
browsing 13
buffet 13
bystanders 13
ca 13
canal 13
canapé, 13
canard 13
capturer 13
capuchon 13
carnaval 13
cartes. 13
carts 13
ceremony 13
chainsaw 13
chariots 13
check 13
checks 13
cheer 13
cherche 13
chiot 13
cle@@ 13
coaster 13
comes 13
consisting 13
couchent 13
coupant 13
craque 13
craw@@ 13
croix 13
cups 13
customer 13
cône 13
d'attractions. 13
d'urgence 13
dad 13
dding 13
debris 13
différents 13
dough 13
drapeaux. 13
drill 13
dum@@ 13
dusk 13
détendent 13
eggs 13
els 13
enfonce 13
enter@@ 13
entering 13
ents 13
examines 13
far 13
farmer 13
fermés. 13
ferrées. 13
feuille 13
filling 13
fli@@ 13
flips 13
form 13
four@@ 13
fusil 13
fusil. 13
gare. 13
gestures 13
golf. 13
greyhound 13
grin@@ 13
grise. 13
groceries 13
grue 13
guitare, 13
gymnase. 13
géant 13
headed 13
heading 13
high-@@ 13
hoo@@ 13
if 13
ines 13
inspectent 13
je 13
joué 13
ka@@ 13
keys 13
knit 13
l'arrière-plan, 13
l'herbe, 13
lacrosse 13
landing 13
laptops 13
le-@@ 13
lead 13
lifted 13
lion 13
luttes 13
légèrement 13
ma 13
marchandises. 13
marchant. 13
marine 13
masculins 13
meeting 13
mes 13
messy 13
modern 13
mouvement 13
munie 13
mène 13
nage. 13
notes 13
observes 13
occupée 13
off@@ 13
official 13
oiseaux 13
ones 13
orchestre 13
order 13
ordures 13
oven 13
overweight 13
paddle 13
paddles 13
parasailing 13
part@@ 13
passent. 13
patinage 13
patine 13
pavée. 13
pe 13
peau 13
peintre 13
pierres. 13
pin 13
pins 13
pirate 13
plan@@ 13
plongée. 13
poodle 13
pratiquant 13
praying 13
probablement 13
prononce 13
publicité 13
que@@ 13
queue 13
ramassant 13
ren@@ 13
rod 13
s'approchent 13
s'apprête 13
s'assèche 13
s'efforce 13
s'inclinant 13
sac. 13
sack 13
sailing 13
science 13
shine 13
shoppers 13
similar 13
ski. 13
sks 13
sm@@ 13
sneakers 13
soir. 13
some@@ 13
son@@ 13
sourire. 13
spoon 13
spotted 13
stance 13
stomach 13
studying 13
taches 13
tail 13
tapis. 13
target 13
tea 13
telephone 13
temps. 13
tending 13
texas 13
ther 13
tires 13
tissu. 13
top@@ 13
touches 13
transportent 13
trolley 13
tubes 13
umpire 13
ung 13
utiliser 13
valise 13
vel@@ 13
veste, 13
violette, 13
voile. 13
vol. 13
was 13
waterfront 13
waterway 13
wel@@ 13
wheelbarrow 13
éclairée. 13
église 13
émet 13
établit 13
étiquette 13
étudiants 13
5@@ 12
Jeux 12
accompani@@ 12
ailes 12
alleyway 12
amis. 12
angle 12
anti@@ 12
aperçu 12
applying 12
aquarium 12
arti@@ 12
assiettes 12
atta@@ 12
attaché 12
attending 12
auditoire 12
bagpipes 12
bamboo 12
banan@@ 12
barri@@ 12
been 12
beverages 12
bijoux 12
bit 12
biting 12
blankets 12
blonds, 12
blur@@ 12
bonbons 12
boulder 12
buissons. 12
bulldozer 12
bâtiments. 12
bâtons. 12
cadeau 12
camions 12
casserole 12
cello 12
centre-ville. 12
cet 12
chanson 12
chante. 12
char@@ 12
chicken 12
château 12
circulation. 12
clapping 12
client 12
clowns 12
co 12
comm@@ 12
complete 12
conversation. 12
cooks 12
costume, 12
couchée 12
countryside 12
course, 12
covers 12
crayon 12
crayons 12
crossed 12
cti@@ 12
cuisinière. 12
cérémonie 12
d'arbre. 12
d'oiseaux 12
der@@ 12
dering 12
diver 12
doigts. 12
doll 12
domin@@ 12
dot 12
drive 12
dust 12
employé 12
entertain@@ 12
enveloppe 12
enveloppé 12
exam@@ 12
excit@@ 12
exercise 12
exhibit 12
far@@ 12
feath@@ 12
fier 12
fin 12
foin. 12
fond. 12
forehead 12
forestier. 12
frappé 12
games 12
garçons, 12
gestes 12
ggy 12
give 12
gonflable 12
gravier. 12
gymnastics 12
handing 12
heureuse 12
highway 12
immeubles. 12
inspects 12
iron 12
ities 12
iting 12
jack@@ 12
joli 12
juice 12
kil@@ 12
knees 12
knife 12
l'accordéon. 12
l'habitude 12
l'ombre. 12
laisse. 12
listen 12
ll 12
load 12
local. 12
location 12
long-sleeve 12
longs, 12
là. 12
magasins 12
medi@@ 12
merchandise 12
mming 12
mode 12
montrent 12
movie 12
mâles 12
nagent 12
newly 12
newspapers 12
nouvelle 12
observent. 12
off-@@ 12
olympics 12
organi@@ 12
orientale 12
ously 12
pack 12
paint@@ 12
paperwork 12
par. 12
para@@ 12
parachut@@ 12
parent 12
parler. 12
partagent 12
partie. 12
pass@@ 12
passe. 12
patineur 12
patterned 12
pavée 12
photographie 12
pied. 12
pigtails 12
pillows 12
placing 12
plongeur 12
poils 12
portée 12
poteaux 12
poursuit 12
poutre 12
presenting 12
prix 12
professionnelle 12
publicitaire 12
pulvérise 12
puppies 12
radio 12
rails 12
ran@@ 12
rapidement 12
raquette 12
raquettes 12
record 12
repairing 12
restauration 12
rollerblading 12
rues. 12
run@@ 12
réunies 12
sale. 12
scooter. 12
screaming 12
sculptures 12
seem 12
semblable 12
serve 12
serves 12
shadows 12
shirted 12
shorts, 12
sion 12
située 12
skater 12
skaters 12
ski@@ 12
sna@@ 12
snowsuit 12
so 12
soda 12
soulève 12
sourire 12
spanish 12
sportif. 12
sprinkl@@ 12
stare 12
stationnée 12
still 12
stipule 12
stops 12
street@@ 12
suitcase 12
sweeps 12
série 12
tackle 12
tape 12
teal 12
teen 12
temple 12
terminer 12
tired 12
tomat@@ 12
tossing 12
toucher 12
trains 12
traversant 12
tray 12
tribal 12
tted 12
tv 12
veau 12
venue 12
vieil 12
violettes 12
visiting 12
wares 12
wheelie 12
wild 12
wires 12
wra@@ 12
wrap 12
wrestler 12
yer 12
zes 12
éclairée 12
éclatante 12
écoutent 12
étranger 12
0@@ 11
10 11
9 11
adjusting 11
adv@@ 11
african-american 11
aime 11
alignées 11
alling 11
appareils 11
aqu@@ 11
arch 11
are@@ 11
arme 11
arrangement 11
artwork 11
asians 11
assem@@ 11
ations 11
autour. 11
aval. 11
avant-plan 11
aérien 11
backdrop 11
badminton 11
bandes 11
bannière 11
bartender 11
battre 11
bicyclettes 11
billard. 11
billot 11
black-haired 11
blin@@ 11
bois, 11
bols 11
bor@@ 11
bouncing 11
bra 11
bron@@ 11
burning 11
bébés 11
cabine 11
carefully 11
carton 11
casino 11
casquettes 11
ce-@@ 11
celebration 11
chaises. 11
chandails 11
chatting 11
chaîne. 11
cheek 11
cher 11
chess 11
china 11
chopping 11
chur 11
circule 11
closely 11
col 11
collie 11
colorée. 11
company 11
composée 11
constru@@ 11
cool@@ 11
costume. 11
coudre. 11
coun@@ 11
couverture. 11
crates 11
creek 11
crosse 11
crouched 11
cycling 11
cyclomoteur 11
d'enfants. 11
d'hiver. 11
dan@@ 11
danser 11
ddle 11
deli@@ 11
den@@ 11
department 11
descent 11
dessin 11
dessous. 11
destination 11
din@@ 11
discours 11
dives 11
dj 11
don@@ 11
drawn 11
dress@@ 11
drib@@ 11
droit 11
dusty 11
déchets. 11
east 11
eglasses 11
elev@@ 11
ensoleillement. 11
enthusia@@ 11
ets 11
examinent 11
fashion 11
fashioned 11
fat 11
fel@@ 11
femelles 11
ferrée. 11
ffs 11
figures 11
film 11
finished 11
firefighter 11
fixer 11
flannel 11
floats 11
flûte 11
focused 11
foncées 11
football, 11
froid. 11
frère 11
gathers 11
gle 11
gymnastique 11
haired 11
hur@@ 11
hut 11
ic@@ 11
ies 11
incline 11
injured 11
involved 11
jouent. 11
jumper 11
kayaking 11
kie 11
l'automne. 11
l'occasion 11
l'écart. 11
l'école 11
laboratoire. 11
lampe 11
lancera 11
larger 11
laundromat 11
leaf 11
learning 11
lifts 11
lighted 11
lips 11
located 11
logo 11
logs 11
loo@@ 11
loom 11
lourde 11
maintenance 11
mal 11
maneu@@ 11
marquer 11
med 11
meet 11
mid-@@ 11
monticule 11
montée 11
motorcyclists 11
motorized 11
mouillage 11
mower 11
moyenne 11
mp@@ 11
mug 11
multicolores 11
musée. 11
métalliques 11
nail 11
nettoyent 11
noires. 11
nourrit 11
nous 11
nouveau-né 11
nuageux. 11
nuit, 11
numbers 11
ol 11
oned 11
ong 11
opens 11
own 11
paquet 11
parapluies. 11
passersby 11
pat@@ 11
patch 11
patins. 11
peinture. 11
pelle. 11
pick@@ 11
picks 11
pieds. 11
pierre, 11
pilot 11
pièces 11
placed 11
plante 11
planting 11
play@@ 11
playfully 11
pliants 11
plongeant 11
plumes 11
pneus. 11
podium. 11
poisson. 11
pommes 11
poor 11
pop@@ 11
posed 11
poupée 11
pper 11
practices 11
printed 11
promenade. 11
pâle. 11
rally 11
ramasser 11
randonnée. 11
range 11
rapids 11
rasait 11
recei@@ 11
recevoir 11
regi@@ 11
retenir 11
rice 11
rollerskating 11
roun@@ 11
route, 11
rurale. 11
s'étire 11
sable, 11
saleté 11
sauté 11
scape 11
seau. 11
second 11
secondaire 11
see@@ 11
sel@@ 11
sele@@ 11
shoreline 11
sno@@ 11
snowshoes 11
soit 11
sombres 11
speak 11
sprin@@ 11
stan@@ 11
stle 11
stoop 11
strange 11
sty 11
stylo 11
sunlight 11
supplies 11
surgery 11
suspenders 11
swimsuits 11
tacheté 11
tackling 11
tasse. 11
teens 11
ten@@ 11
ter@@ 11
tights 11
tiny 11
toile 11
tombée 11
torch 11
traveling 11
trick. 11
trip 11
tun@@ 11
tâches 11
télévision. 11
und 11
underwear 11
unk 11
urbaine 11
ute 11
vendre. 11
viol@@ 11
voit 11
voyage 11
vue. 11
washer 11
watched 11
ways 11
weap@@ 11
weather 11
wered 11
wind@@ 11
wning 11
xi@@ 11
xylophone 11
yarn 11
âgée, 11
échafaudage. 11
éclaboussure 11
éclairé 11
édifice 11
était 11
étrange 11
étudiant 11
# 10
7 10
9@@ 10
Indien 10
achalandé 10
activity 10
ai@@ 10
air, 10
altitude 10
america 10
ami. 10
amidst 10
ani@@ 10
annonçant 10
apart 10
appelé 10
apprend 10
approaches 10
arch@@ 10
arri@@ 10
asia 10
asiatique, 10
attachés 10
avant-plan. 10
bag@@ 10
baise 10
balançoire. 10
banc, 10
barbecue. 10
baseball, 10
basket. 10
battant 10
battent. 10
belts 10
ber 10
bikinis 10
blood 10
bloque 10
boisée 10
bouche, 10
bourreau 10
bowling. 10
bre@@ 10
brin@@ 10
brother 10
bruns, 10
butterfly 10
button@@ 10
bâtiment, 10
béret 10
caisse 10
camera@@ 10
canvas 10
casque, 10
cast 10
casually 10
celebrate 10
chalkboard 10
chan@@ 10
chaussure. 10
chaussée. 10
cheese 10
chemise. 10
chercher 10
cheval, 10
chinois. 10
cial 10
ckets 10
clair. 10
clim@@ 10
coa@@ 10
collared 10
colorées. 10
commande 10
commencer 10
commun. 10
comptoir. 10
condu@@ 10
conférence 10
cop 10
courbés 10
coure 10
cover 10
cowgirl 10
craie. 10
creating 10
cross@@ 10
ctions 10
ctor 10
cuillère 10
cuisine, 10
cuisinière 10
cul@@ 10
cup@@ 10
cur 10
cute 10
célèbre 10
d'attente 10
d'autobus 10
d'autobus. 10
d'élèves 10
d'épicerie 10
ddy 10
decorative 10
demonstra@@ 10
desc@@ 10
dessinent 10
deuxième 10
dies 10
discute 10
displaying 10
displays 10
dispositif 10
done 10
donnent 10
dre@@ 10
driveway 10
début 10
décoré 10
décorée 10
départ 10
désert 10
earphones 10
eing 10
ell 10
embracing 10
embrasse 10
emer@@ 10
ends 10
enseignant 10
eri@@ 10
experiment 10
ey 10
fabriquer 10
facial 10
facility 10
fair@@ 10
feat@@ 10
fer@@ 10
ff@@ 10
fils. 10
finishing 10
floo@@ 10
florale 10
foin 10
foot@@ 10
fore@@ 10
fourgonnette. 10
frozen 10
fuite 10
fur 10
furry 10
gallery 10
garniture 10
gaze 10
gazes 10
geste 10
glissière. 10
goat 10
gravier 10
gray-haired 10
grise, 10
handrail 10
hauts 10
headdress 10
hear@@ 10
helicopter 10
hiding 10
hike 10
icy 10
ie 10
individu 10
inten@@ 10
intérieure. 10
involving 10
jogs 10
john 10
jouissant 10
journaux 10
ju@@ 10
juggles 10
jus 10
kno@@ 10
l'accordéon 10
l'approche 10
l'avant-plan. 10
l'école. 10
l'épaule. 10
laden 10
lance 10
late 10
laun@@ 10
laver 10
leaf@@ 10
leap 10
leggings 10
lens 10
less 10
lighting 10
lining 10
link 10
lled 10
lobby 10
love 10
lutteur 10
mannequin 10
manteaux 10
march 10
marcheurs 10
mel@@ 10
melons 10
mexican 10
monitor 10
mop 10
morning 10
motion 10
motos 10
mouillé. 10
mul@@ 10
multi@@ 10
murale. 10
mâchoires 10
nam@@ 10
nee@@ 10
ney 10
nouvellement 10
nur@@ 10
nurses 10
nus, 10
od 10
officielle 10
oper@@ 10
or. 10
oranges. 10
ot@@ 10
ow@@ 10
pads 10
paix 10
paix. 10
palmiers 10
patio. 10
peeking 10
pers 10
personne, 10
pigeon 10
plafond 10
plate-forme. 10
played 10
ple 10
poignée 10
pointant 10
pomme 10
poser 10
poulet 10
poussette. 10
pra@@ 10
premier 10
process 10
products 10
protéger 10
quickly 10
racers 10
rassemblées 10
rassemblés 10
rayées 10
rea@@ 10
reste 10
retrie@@ 10
rin@@ 10
roadside 10
roches 10
rooftop 10
routière. 10
row@@ 10
réunion 10
réunis 10
s'acquitte 10
s'agite 10
s'amuser 10
s'emballe 10
s'exercent 10
sans-abri 10
saute. 10
scaffold 10
scending 10
scenic 10
scolaire 10
score 10
scre@@ 10
seagul@@ 10
sel 10
sem@@ 10
ser 10
sexe 10
shape 10
shar@@ 10
shel@@ 10
shing 10
sideways 10
single 10
sive 10
soap 10
sortie 10
speaker 10
spect@@ 10
sprayed 10
ssive 10
stall 10
star@@ 10
stat@@ 10
stepping 10
ster@@ 10
stilts 10
storm 10
stroke 10
stu@@ 10
super@@ 10
superman 10
surfs 10
surveillent 10
suspendue 10
sèche 10
tables. 10
talent 10
tatouée 10
tempête 10
tenniseuse 10
tentes 10
terre, 10
them@@ 10
thers 10
thin@@ 10
thumb 10
thé 10
théâtre. 10
toddlers 10
tombent 10
touch 10
transportation 10
transporte 10
trashcan 10
trompette 10
trouver 10
tunnel. 10
twir@@ 10
u 10
upward 10
urbain 10
vache. 10
valley 10
violette. 10
visage, 10
walked 10
washes 10
wer@@ 10
whom 10
will 10
wn@@ 10
wns 10
work@@ 10
workout 10
workshop 10
zens 10
zi@@ 10
écran. 10
équipement. 10
étendue 10
étroite 10
été. 10
4@@ 9
BMX 9
Huit 9
Londres 9
Pendant 9
Profondeur 9
Texas 9
York 9
ab@@ 9
able 9
abrupte 9
abrupte. 9
accordéon 9
adjusts 9
admire 9
adolescente 9
afternoon 9
agents 9
aller 9
almost 9
américains 9
appro@@ 9
apprécient 9
argentée 9
ascenseur 9
aspire 9
atm 9
attractive 9
au-delà 9
aîné 9
baignoire 9
baiser 9
bal@@ 9
balcon. 9
bambou. 9
barbe@@ 9
barre. 9
barrières 9
base. 9
bath@@ 9
bathtub 9
batman 9
bea@@ 9
begins 9
bel@@ 9
belongings 9
bends 9
beret 9
berge 9
bibliothèque 9
bicycling 9
bin@@ 9
blue-@@ 9
boarding 9
bongo 9
booths 9
bor 9
bougies 9
boxer 9
branche 9
brass 9
breakdancing 9
brushes 9
built 9
bull@@ 9
bulle 9
burgundi 9
bush@@ 9
bébé, 9
cab 9
cadeau. 9
cakes 9
campagne. 9
canadian 9
cann@@ 9
caoutchouc 9
capped 9
cellphones 9
cer@@ 9
chanteuses 9
chassé 9
chauve 9
checkers 9
chewing 9
chiens, 9
chiots 9
chocolate 9
chopsticks 9
circular 9
circulent 9
classic 9
cleaner 9
cloud 9
clouds 9
cola 9
color@@ 9
colum@@ 9
concentra@@ 9
concentre 9
construit 9
containing 9
corne 9
courses 9
couteau 9
couvertures 9
cowboy, 9
cri@@ 9
crowds 9
crée 9
créer 9
crépuscule. 9
curly-haired 9
cy 9
câble 9
célèbrent 9
d'obstacles. 9
d'obtenir 9
d'épicerie. 9
dansant. 9
dansent. 9
decora@@ 9
decorations 9
design 9
designs 9
dessus. 9
dig@@ 9
digital 9
diner 9
dirigeant 9
discours. 9
discu@@ 9
discutant 9
displayed 9
dive 9
divertissent 9
documents 9
dragging 9
drapeau. 9
draw 9
drôle 9
ducks 9
dumpster 9
dun@@ 9
débris 9
déroule 9
ell@@ 9
elmo 9
employees 9
encombré 9
enneigé 9
enthousiasme 9
entourés 9
ep@@ 9
ering 9
even 9
exerci@@ 9
expl@@ 9
fabrique 9
farmers 9
featuring 9
fedora 9
fell 9
fen@@ 9
fishes 9
foc@@ 9
foliage 9
foncée, 9
fraîchement 9
french 9
galerie 9
garage. 9
gardening 9
garder 9
gazing 9
genou. 9
gens, 9
gesturing 9
gged 9
grabbing 9
grabs 9
gradu@@ 9
graph@@ 9
green@@ 9
gy@@ 9
gymnase 9
géante. 9
hall. 9
handed 9
handle 9
hea@@ 9
heavily 9
highchair 9
hills 9
hind 9
hiver. 9
horizon 9
hudd@@ 9
hula-hoop 9
illumin@@ 9
im@@ 9
incliné 9
indiennes 9
ining 9
interesting 9
jetée 9
joggant 9
joy 9
jumped 9
kel@@ 9
kit@@ 9
kly 9
known 9
ky 9
l'armée 9
l'enfant 9
l'ordinateur. 9
lavage 9
lavent 9
league 9
lequel 9
lets 9
libre. 9
lie 9
lèvres 9
magasins. 9
mark 9
matériel 9
mechani@@ 9
men@@ 9
mesure 9
mix 9
mixer 9
moderne. 9
moitié 9
monkey 9
morceaux 9
motocyclettes 9
motor 9
multicolore. 9
muzzle 9
muzzled 9
métalliques. 9
nageur 9
nature. 9
news 9
nom 9
nue 9
obser@@ 9
odles 9
olympic 9
operates 9
opy 9
oreiller 9
oreillers 9
ou@@ 9
pain. 9
painter 9
pale 9
pans 9
parlant. 9
parle. 9
parlent, 9
passage. 9
passager 9
pathway 9
pattern 9
pavé 9
peer 9
peinte 9
peluche. 9
pencil 9
perles 9
perruque 9
pet 9
photograph@@ 9
piano. 9
plafond. 9
plo@@ 9
plongeurs 9
post@@ 9
potato 9
poteau. 9
poterie 9
power 9
protesters 9
pt 9
pumpkin 9
punch 9
punk 9
pédale 9
quête 9
raincoat 9
rapproche 9
rav@@ 9
really 9
recording 9
reflection 9
relea@@ 9
religieuse 9
remo@@ 9
renversé 9
restaurant, 9
rifle 9
riot 9
river@@ 9
rivière, 9
road@@ 9
rocheux 9
rouet 9
réparation 9
réunion. 9
s'adonnent 9
s'attaquer 9
s'ennuie 9
s'entretiennent 9
s'écrase 9
s'étourdit 9
sad 9
sand@@ 9
sari 9
saris 9
sawing 9
saxophone. 9
scar@@ 9
scent 9
scientifique 9
scrubs 9
secteur 9
semblables 9
shiel@@ 9
shiny 9
shoo@@ 9
short-haired 9
show@@ 9
sit@@ 9
skateboarders 9
sking 9
sledding 9
sniffing 9
soir 9
solo 9
sorting 9
souriant, 9
sparring 9
stacked 9
staff 9
strapped 9
strolls 9
structure. 9
stump 9
sty@@ 9
suit@@ 9
suivi 9
sujet 9
sum@@ 9
support 9
sure 9
surpeuplé 9
swor@@ 9
tags 9
talons 9
tan. 9
task 9
techni@@ 9
tends 9
termin@@ 9
terrier 9
than 9
thing 9
ticket 9
tient. 9
tight 9
tiled 9
tips 9
toi@@ 9
tournament 9
toute 9
transit 9
treat 9
trench 9
tripod 9
tru@@ 9
tug@@ 9
ture 9
two-@@ 9
ue 9
um 9
upset 9
verti@@ 9
viande. 9
virage. 9
wait@@ 9
well-@@ 9
wheeler 9
wig 9
wind 9
wr@@ 9
writes 9
ya 9
yel@@ 9
z 9
âne 9
échangent 9
écharpes 9
échelle. 9
éclairé. 9
éléphant 9
épaules. 9
épée 9
étourdi. 9
étranger. 9
-colored 8
: 8
Alors 8
Au 8
DJ 8
Image 8
Je 8
John 8
Nol, 8
Nous 8
Sur 8
abandoned 8
acce@@ 8
ach 8
acrobatic 8
adultes, 8
adverti@@ 8
afro-américains 8
agriculteur 8
aiment 8
ale 8
altitude. 8
amont. 8
amount 8
américain. 8
and@@ 8
ands 8
animal. 8
anneau 8
arc-en-ciel. 8
arrière-plan, 8
articles. 8
artists 8
ately 8
attachée 8
atteint 8
autobus, 8
avion. 8
babies 8
bagages. 8
bains 8
balais 8
balayage. 8
banners 8
barefooted 8
barre@@ 8
bateau, 8
beads 8
bear@@ 8
because 8
bedroom 8
bell@@ 8
bers 8
bicyclette, 8
bijoux. 8
bille 8
bled 8
boireait 8
boueux 8
boulangerie 8
boxe 8
break@@ 8
bridesmaids 8
brief@@ 8
buil@@ 8
bundle 8
buried 8
cabane 8
cadeaux 8
calme. 8
camels 8
camouflés 8
campagne 8
campfire 8
candle 8
canoes 8
caoutchouc. 8
carrier 8
cases 8
casque. 8
chaise, 8
challen@@ 8
chameau 8
charrette. 8
chee@@ 8
cheerleader 8
cheerleading 8
cherry 8
chie@@ 8
chien, 8
chirurgie. 8
cigar 8
cigar@@ 8
citi@@ 8
ck-@@ 8
clar@@ 8
clavier. 8
cluttered 8
collation 8
collines 8
collège 8
columns 8
colère 8
combat 8
communi@@ 8
companion 8
completed 8
composé 8
conductor 8
congreg@@ 8
conne@@ 8
contrôle 8
corne. 8
cornemuse. 8
costumes. 8
coteau 8
cou. 8
cover@@ 8
crashing 8
create 8
creusant 8
criant 8
cries 8
crow@@ 8
cuisinier 8
côtés. 8
d'anniversaire 8
d'argent 8
d'arrivée. 8
d'avoir 8
d'entraînement. 8
d'escalade 8
d'équipes 8
darkened 8
daytime 8
deci@@ 8
deer 8
denti@@ 8
deser@@ 8
dessert 8
dessinant 8
dessiner 8
dessins 8
dex 8
dinosau@@ 8
directing 8
disque 8
distance. 8
divertir 8
dle 8
dly 8
doesn 8
doigt 8
donner 8
douche 8
down@@ 8
downhill 8
draped 8
draws 8
déplacer 8
easel 8
edly 8
ee 8
egg 8
elabo@@ 8
eled 8
em 8
employee 8
entourées 8
entreprise 8
envi@@ 8
es@@ 8
establishment 8
europe 8
european 8
every@@ 8
fields 8
filles. 8
filming 8
finger@@ 8
fleurie 8
flower@@ 8
flèche 8
fléchit 8
foam 8
followed 8
foods 8
ford 8
forested 8
fountains 8
free@@ 8
fs 8
fting 8
fume. 8
fun@@ 8
féminin 8
genou 8
gesture 8
gn@@ 8
gonflable. 8
gown 8
grab 8
graffiti@@ 8
grasp@@ 8
guichet 8
gym. 8
gère 8
had 8
halloween 8
hammering 8
hammock 8
hardwood 8
harmonica 8
harve@@ 8
hau@@ 8
haut, 8
hawaiian 8
herbeux, 8
hispani@@ 8
histor@@ 8
hit@@ 8
homemade 8
hor@@ 8
huit 8
hum@@ 8
human 8
husky 8
hélicoptère 8
identi@@ 8
iling 8
ility 8
image. 8
imp@@ 8
impliquant 8
india 8
industrial 8
inning 8
ir 8
jouer. 8
jouit 8
judges 8
jungle. 8
kar@@ 8
karaté 8
kaya@@ 8
ker@@ 8
kick@@ 8
kisses 8
kne@@ 8
knee-@@ 8
ko@@ 8
l'achat. 8
l'air, 8
l'arbitre 8
l'horizon. 8
l'image 8
l'obscurité. 8
l'océan, 8
l'échec 8
l'écran 8
labeled 8
laboratory 8
lanterns 8
laquelle 8
laverie. 8
lay@@ 8
lem@@ 8
lers 8
lettres 8
lever 8
ley 8
lic 8
ligne, 8
ligne. 8
lignes 8
lit, 8
lively 8
loaded 8
lon@@ 8
looked 8
lor 8
lorsque 8
lou@@ 8
lumière. 8
ly-@@ 8
lèche 8
lèvent 8
magazine. 8
manifestants 8
marron 8
marteau. 8
masks 8
mate 8
medium 8
mem@@ 8
mess 8
metal@@ 8
midst 8
milieu. 8
mix@@ 8
monopoly 8
moti@@ 8
mouettes 8
mountain@@ 8
moutons 8
much 8
murky 8
muscular 8
musta@@ 8
musée 8
mâche 8
nails 8
napping 8
navigates 8
navigue 8
nel 8
nettoye 8
noires, 8
notebook 8
nuage 8
nuages 8
ob@@ 8
occupé 8
oil 8
oli@@ 8
oring 8
ours 8
ox@@ 8
package 8
packed 8
packing 8
pagaye 8
pagayent 8
palmiers. 8
panier. 8
parapluie, 8
partage 8
passerelle 8
patinoire. 8
patro@@ 8
patrons 8
pause. 8
pavé. 8
pay 8
peers 8
peintes 8
penchent 8
personnel 8
photographers 8
photographie. 8
pigeons. 8
pins. 8
pique 8
piquet 8
piscine, 8
piste, 8
placées 8
plain 8
planche. 8
plupart 8
pocket 8
poitrine. 8
police. 8
porche. 8
port 8
porteur 8
positi@@ 8
poterie. 8
pourpre 8
pours 8
pow@@ 8
ppy 8
prière 8
prochaine 8
product 8
professeur 8
projector 8
protect 8
provisions. 8
prêts 8
pub 8
purses 8
père. 8
quai, 8
quantité 8
quartier. 8
rate 8
rayé. 8
redhead 8
religious 8
remplit 8
ressemblent 8
retient 8
rit@@ 8
rock@@ 8
roller-@@ 8
roo@@ 8
roue. 8
roulants 8
rouleau 8
rub@@ 8
rug 8
ry-@@ 8
réparations 8
réservoir 8
s'accrochent 8
s'adresse 8
s'approche. 8
s'avère 8
s'enfoncent 8
s'enfuit 8
s'enveloppent 8
s'occuper 8
s'oriente 8
s'élever 8
s'éloigne 8
sailboat 8
say 8
scientifique. 8
sculpte 8
sear@@ 8
sen@@ 8
sept 8
series 8
shadow 8
shaggy 8
shelf 8
shing@@ 8
shor@@ 8
shout@@ 8
side@@ 8
signing 8
sil@@ 8
sin@@ 8
sk 8
skies 8
skills 8
skinny 8
skul@@ 8
sla@@ 8
sle@@ 8
snowboards 8
social 8
soigneusement 8
soirée 8
somewhere 8
sommeil 8
spa@@ 8
spat@@ 8
speeding 8
spins 8
spla@@ 8
splashed 8
spot 8
spotlight 8
sprays 8
spring 8
squeezing 8
ssions 8
stant 8
state 8
stati@@ 8
ston@@ 8
stores 8
stream@@ 8
stretches 8
stringed 8
strolling 8
stry 8
stuck 8
stuff 8
surgical 8
survolant 8
synchronized 8
sécurité. 8
t-shirt, 8
table@@ 8
tache 8
tackled 8
tal@@ 8
tation 8
taxis 8
tching 8
teammates 8
tenter 8
terminé 8
tery 8
théâtre 8
tic 8
times 8
tir 8
tirera 8
tissus 8
tondeuse 8
too 8
toothbrush 8
travel 8
tug-of-war 8
tuiles. 8
tum@@ 8
tuxe@@ 8
tuyau. 8
tuyaux 8
tying 8
underground 8
unhappy 8
unusual 8
ured 8
usly 8
uti@@ 8
vaisselles 8
variety 8
vaste 8
vending 8
veulent 8
victoire 8
victory 8
vintage 8
vitrines 8
vérifier 8
waist 8
waiter 8
walmart 8
war 8
warehouse 8
waterskiing 8
were 8
wheeled 8
when 8
who@@ 8
win 8
won@@ 8
ya@@ 8
zzy 8
éclats 8
édifices 8
élan 8
élèvent 8
équipements 8
étoile 8
évier 8
6@@ 7
8@@ 7
? 7
Boyne 7
Chien 7
Elle 7
Ils 7
Men 7
On 7
Vous 7
abri 7
acoustique. 7
acting 7
activ@@ 7
adversaire. 7
afro-américaine 7
ag@@ 7
agricole 7
airs. 7
ales 7
alimentaires 7
amp@@ 7
ant@@ 7
ants 7
applaudit 7
approche. 7
appuyé 7
arc-en-ciel 7
arc. 7
argenté. 7
argentée. 7
arran@@ 7
arrow 7
arrêté 7
ass@@ 7
assis, 7
assise. 7
assises. 7
assistent 7
atelier. 7
attaqué 7
attle 7
aussi 7
autochtones 7
avait 7
baignoire. 7
bain, 7
bands 7
bas, 7
baseman 7
bateaux. 7
battre. 7
belles 7
bend 7
berry 7
bibliothèque. 7
billard 7
bleues, 7
bloc 7
blu@@ 7
boisé. 7
bon@@ 7
bonne 7
boucle. 7
bougie 7
bouteille. 7
box@@ 7
boxeur 7
branchie 7
brille 7
brique. 7
briques, 7
british 7
broad 7
brossant 7
brouette. 7
bruns. 7
bul@@ 7
bush 7
busine@@ 7
buvent 7
camp. 7
canyon 7
cari@@ 7
carte. 7
cause 7
cel@@ 7
cen@@ 7
cerf-volant 7
champs 7
chanteurs 7
charge 7
chargé 7
chat. 7
chaude. 7
check@@ 7
chers 7
chez 7
chil@@ 7
chin 7
châle 7
chèvre 7
claire 7
cle 7
club. 7
clut@@ 7
clôturée 7
colonnes. 7
commerciale. 7
competiti@@ 7
congre@@ 7
cons@@ 7
couches 7
couché 7
couleur. 7
couleurs. 7
cours. 7
courts, 7
cousue 7
couverts 7
creusent 7
crie. 7
cyc@@ 7
cycles 7
côte. 7
d'animaux 7
d'argent. 7
d'arrivée 7
d'art, 7
d'artistes 7
d'ascendance 7
d'athlétisme 7
d'elle. 7
d'entretien 7
d'escalade. 7
d'incendie 7
d'outils 7
d'époque 7
d'été 7
dam@@ 7
day@@ 7
deli 7
demande 7
demonstration 7
den 7
depuis 7
die 7
dir@@ 7
direct 7
direction. 7
dirigent 7
discutent. 7
dit@@ 7
diti@@ 7
doigt. 7
dormant. 7
dorme. 7
délabré. 7
détendue 7
earth 7
eds 7
ele@@ 7
electri@@ 7
elementary 7
elle, 7
embra@@ 7
emprunte 7
enceinte 7
end@@ 7
enfonçant 7
engins 7
enlève 7
enregistre 7
ensoleillé 7
ently 7
entourant 7
entraînant 7
entraîne 7
entrer 7
entrée 7
escaladière 7
ese 7
ethnique 7
eux, 7
exhi@@ 7
explo@@ 7
expérience 7
extrait 7
extre@@ 7
fatigué 7
ferme 7
ferme. 7
fermés 7
festi@@ 7
festival. 7
fetti 7
filme 7
fit@@ 7
fleuri 7
flottent 7
flu@@ 7
fois 7
foncé, 7
force 7
foules 7
frappant 7
fromage 7
fron@@ 7
front. 7
fusils 7
gage 7
gal@@ 7
gars, 7
garé 7
garée 7
ght@@ 7
gol@@ 7
greyho@@ 7
grills 7
gymnastique. 7
gâteaux 7
géant. 7
ha 7
hache. 7
hal@@ 7
ham 7
hamburger 7
hamm@@ 7
happ@@ 7
heurtent 7
holi@@ 7
hop@@ 7
identiques 7
ight 7
inclinée. 7
infirmières 7
ingrédients 7
interagissent 7
intervie@@ 7
irs 7
iti@@ 7
itt@@ 7
jeans. 7
jenga 7
jeunes, 7
journaux. 7
jumelles 7
jumelles. 7
kings 7
l'arbre. 7
l'attention 7
l'aéroport. 7
l'il 7
l'intention 7
l'objet 7
l'époque 7
lac, 7
laid 7
lama 7
land@@ 7
lands 7
lasso 7
latérale 7
lau@@ 7
lavant 7
legged 7
leopard 7
let@@ 7
level 7
libre 7
licking 7
life@@ 7
lling 7
loa@@ 7
loin 7
longues, 7
loups 7
lourd. 7
lush 7
lutte. 7
mag@@ 7
magasin, 7
maid 7
mains, 7
marble 7
marchent, 7
mari 7
marin 7
marked 7
marker 7
mascara 7
mascot 7
mascotte 7
masques 7
matelas 7
may 7
maybe 7
mcdonald 7
meadow 7
measuring 7
medieval 7
microphones. 7
miniat@@ 7
mit@@ 7
mitaines 7
mitt 7
mm@@ 7
monde 7
monde. 7
monitors 7
monk 7
mord 7
mouillés 7
mountainous 7
mounted 7
mouths 7
mowing 7
mur, 7
murs. 7
musical. 7
musique, 7
musli@@ 7
mâts 7
mère. 7
mélangeur 7
métiers 7
métro, 7
n'a 7
named 7
nat@@ 7
nautique 7
necklaces 7
newlywed 7
nine 7
nocturne. 7
noix 7
nude 7
nun 7
oeufs 7
olo@@ 7
ols 7
om 7
oni@@ 7
open@@ 7
opposées 7
ora@@ 7
ordering 7
oriente 7
orned 7
our 7
p-@@ 7
pad 7
paille. 7
papiers 7
parasol. 7
parce 7
parcelle 7
parcours. 7
passants 7
passants. 7
patte 7
peaks 7
pee@@ 7
person@@ 7
personnages 7
phare 7
photographié 7
picket 7
pict@@ 7
pinceau 7
pittoresque. 7
placé 7
plaisir 7
plea@@ 7
pliante 7
plié 7
poids 7
pointed 7
poli@@ 7
policemen 7
pony 7
pop 7
pops 7
port. 7
poubelle. 7
poussière 7
prepared 7
presents 7
prints 7
produits. 7
profession@@ 7
profond. 7
profondes. 7
proje@@ 7
propre 7
prote@@ 7
pum@@ 7
punching 7
puppet 7
purchase 7
puzzle 7
pyramid 7
pêchent 7
quad 7
quet 7
quiet 7
quittent 7
raconte 7
racontent 7
rafts 7
rai@@ 7
railings 7
raining 7
ramassent 7
rayé, 7
reception 7
recouvrait 7
refle@@ 7
repor@@ 7
resort 7
retourne 7
return 7
rise 7
rist@@ 7
roches. 7
rollers 7
rollerskates 7
rolls 7
rondelle 7
rondelle. 7
ronment 7
roulés 7
routier 7
roux 7
rugs 7
rustic 7
s'accrochant 7
s'aperçoit 7
s'arrêter 7
s'embrassent 7
s'éclaboussant 7
s'élèvent 7
s-@@ 7
sacs. 7
sail 7
saisit 7
salon. 7
salopette 7
sandales, 7
sandwich. 7
scientist 7
scopes 7
seafood 7
seating 7
sements 7
semi-@@ 7
separate 7
servent 7
serveur 7
serviette. 7
shawl 7
shift 7
shorts. 7
shower 7
si 7
sidelines 7
sig@@ 7
signes 7
silhouetted 7
skil@@ 7
skydiving 7
skyline 7
sl@@ 7
slacks 7
slam 7
sleeves 7
snacks 7
snor@@ 7
sociali@@ 7
softball. 7
sold 7
sortir 7
soude 7
soufflent 7
sparkl@@ 7
spectacles 7
speeds 7
squats 7
ssage 7
stand. 7
starring 7
stationnées 7
ste 7
striking 7
strings 7
stripe 7
stro@@ 7
strugg@@ 7
styli@@ 7
suite 7
sunbathing 7
supermarket 7
sur. 7
surfers 7
swing. 7
sy 7
ta 7
tableau. 7
tack@@ 7
tails 7
tains 7
tarp 7
ten 7
terrain, 7
thedra@@ 7
thick 7
though 7
ths 7
thème 7
tiger 7
tisse 7
ton@@ 7
tons 7
topless 7
touchant 7
tournoi 7
tracksuit 7
traditionnel 7
travels 7
traînant 7
traînent 7
treadmill 7
tree-@@ 7
tremble 7
tress 7
tribunes 7
tro 7
trophy 7
trotting 7
trémie. 7
tton 7
turkey 7
typing 7
télescope. 7
ual 7
uble 7
ugh 7
ukulele 7
ultimate 7
ume 7
ung@@ 7
unter@@ 7
upwards 7
usa 7
usband 7
used 7
usine. 7
vacuum 7
vacuuming 7
val 7
vallée 7
vau@@ 7
ven@@ 7
vering 7
vers@@ 7
vibrant 7
videota@@ 7
viennent 7
vifs 7
vil@@ 7
vision 7
visor 7
vitrine. 7
voiture, 7
volant 7
warming 7
wash 7
watermelons 7
waterski@@ 7
wea@@ 7
wei@@ 7
weigh@@ 7
wheel@@ 7
wilderness 7
woodland 7
workman 7
wrestlers 7
written 7
xe 7
year 7
zoo 7
écrivant 7
écrivent 7
électronique. 7
épaule 7
étagères 7
étoiles 7
étonné 7
étrange. 7
12 6
2012. 6
Asie. 6
Bienvenue 6
Cheval 6
Chine. 6
Cowboy 6
Crowd 6
Diverses 6
Miami 6
Noir 6
Noirs 6
Photo 6
Sooners 6
The 6
Times 6
accompagne 6
accordéon. 6
acier 6
acti@@ 6
admirant 6
adolescentes 6
afri@@ 6
agitées. 6
agriculteurs. 6
aider 6
alimentaire 6
alls 6
allume 6
alpinistes 6
ame 6
ang@@ 6
animée 6
any 6
appar@@ 6
appe@@ 6
après-midi 6
arbre, 6
arche 6
ards 6
argent 6
arrache 6
arrêter 6
arène. 6
assiette. 6
assise, 6
ath 6
ath@@ 6
ation@@ 6
atteindre 6
attra@@ 6
aus 6
aus@@ 6
auto@@ 6
avance 6
aérien. 6
baigne 6
baisera 6
balai 6
band@@ 6
bannières 6
bar, 6
barbu, 6
basket-ball, 6
bathro@@ 6
bb@@ 6
beam@@ 6
billot. 6
blanchisserie 6
boarder 6
bodysuit 6
boivent. 6
bon 6
bonbons. 6
boogie 6
botto@@ 6
boucles 6
boueux. 6
bougies. 6
boîtes. 6
br@@ 6
brise 6
broch@@ 6
bronco 6
brunes. 6
bum@@ 6
bureaux 6
bureaux. 6
buve 6
béquille 6
cade 6
camion-pompier. 6
camp@@ 6
canards 6
canne. 6
caractères 6
cardigan 6
carton. 6
casserole. 6
celebra@@ 6
cer 6
ceremon@@ 6
cess 6
chameaux 6
chapeaux. 6
char 6
chargement 6
chaînes 6
cher@@ 6
cheveux, 6
chinoises 6
cho@@ 6
cible. 6
cinéma 6
circus 6
cl@@ 6
clu@@ 6
clôture, 6
coiffure. 6
colonne 6
combat. 6
compet@@ 6
complet@@ 6
complexe 6
complètement 6
concours. 6
concurrence 6
contenu 6
corps. 6
courbe 6
courir. 6
couronne 6
couvre 6
coéquipiers 6
cray@@ 6
croustilles 6
crête 6
cuire 6
cular 6
côtés 6
d'articles 6
d'artifice 6
d'artisanat 6
d'automne. 6
d'autre 6
d'elle 6
d'escaliers 6
d'or. 6
d'orange 6
d'ordinateur 6
d'étudiants 6
d'été. 6
da 6
dernier 6
dessinée 6
devant. 6
dia@@ 6
directement 6
dirigé 6
doré 6
dru@@ 6
dunk 6
déballe 6
défilent 6
démonstration 6
déposer 6
ei@@ 6
empreintes 6
ena@@ 6
endommagé 6
enneigées. 6
enroulé 6
ensoleillement 6
enthousiaste 6
entrant 6
ep 6
escaladière. 6
essaient 6
ethniques 6
excité 6
extérieur, 6
extérieures 6
extérieures. 6
famille. 6
fashi@@ 6
fenêtres. 6
ferroviaire. 6
ffy 6
fil. 6
fish@@ 6
fit 6
flammes 6
foncé. 6
fontaines 6
forêt, 6
foule, 6
four. 6
fournitures 6
frappent 6
froid 6
fts 6
gagner 6
garde. 6
garées 6
ggles 6
ghts 6
girl@@ 6
gne 6
gon 6
gonflables 6
gress 6
grillage 6
grillant 6
grises 6
guise 6
guitares 6
gâte 6
géante 6
hamburgers 6
han@@ 6
harnais. 6
heav@@ 6
hen@@ 6
herbe 6
herbeuse 6
hil@@ 6
hin 6
hispanique 6
hiver 6
horse@@ 6
ht 6
hutte 6
importante. 6
incendie 6
inclinée 6
inclu@@ 6
indi@@ 6
indiens 6
infirmière 6
infla@@ 6
information 6
inscrit 6
inspe@@ 6
ise 6
ite@@ 6
ites 6
japonais 6
jardinage. 6
jeu, 6
joie. 6
journaliste 6
juges 6
jump@@ 6
kee@@ 6
key 6
kimono 6
kin@@ 6
kiosk 6
l'Université 6
l'achat 6
l'allée. 6
l'arrivée 6
l'art 6
l'avant-plan 6
l'avant. 6
l'endroit 6
l'envers. 6
l'horizon 6
l'observation 6
l'écoute 6
laiton 6
lanternes 6
lat@@ 6
legos 6
letter@@ 6
ligue 6
lim@@ 6
liqu@@ 6
lise 6
lisière 6
livre, 6
ll@@ 6
lt 6
lumineuse 6
lumineuse. 6
lumières. 6
légère 6
magasinage 6
magasine 6
magnifiques 6
maj@@ 6
majorité 6
mange. 6
mani@@ 6
manifestation. 6
marathon, 6
marque 6
message 6
messages 6
miami 6
micro@@ 6
mil@@ 6
minivan 6
mise 6
mitt@@ 6
moins 6
montre. 6
motif 6
moto, 6
motoneige. 6
mouille 6
mouillée 6
mousse 6
mouton 6
moutons. 6
munis 6
mènent 6
mère, 6
mêmes 6
n'est 6
na 6
nageuse 6
navigable 6
navigable. 6
near@@ 6
nettoyage. 6
night@@ 6
nommé 6
nouvelles 6
océan 6
océanique 6
officiel 6
ombre 6
on-@@ 6
ongles 6
open-@@ 6
opposée. 6
ordures. 6
oreille. 6
paci@@ 6
pack@@ 6
padd@@ 6
pagaie 6
pancartes 6
panneaux. 6
parachutiste 6
parallel 6
partageant 6
partici@@ 6
past@@ 6
patient. 6
patinait 6
patinant 6
pauvre 6
payant. 6
pays. 6
peignent 6
peints 6
peluche 6
personnage 6
peuvent 6
photographier 6
pipes 6
planeur 6
plats 6
poche 6
pointent 6
politi@@ 6
pon@@ 6
ponch@@ 6
poney 6
popcorn 6
porc 6
portables 6
pouce 6
poudre 6
poupées 6
pousser 6
poussettes 6
poussière. 6
première 6
prin@@ 6
pro 6
professor 6
projecteur 6
projecteur. 6
promenant 6
promise 6
protection. 6
protestation 6
préparation 6
prête 6
publique 6
pâle, 6
qui@@ 6
rad@@ 6
radeau. 6
rag 6
rapides. 6
raser 6
rassemblent. 6
rayée. 6
raz@@ 6
recor@@ 6
recouverts 6
red-@@ 6
refer@@ 6
regard. 6
regardant. 6
reliés 6
remplis 6
renaiss@@ 6
rend 6
reposer 6
restaurants 6
ribb@@ 6
riz 6
roche, 6
rollerskat@@ 6
ron@@ 6
rond 6
roses, 6
rubans 6
rubs 6
rues, 6
rurale 6
rush 6
s'agenouillent 6
s'approvisionne 6
s'assisant 6
s'assitant 6
s'attaquent 6
s'entretiennent. 6
s'exprime 6
sail@@ 6
sang 6
santé 6
sausa@@ 6
savourent 6
sca@@ 6
scal@@ 6
sci@@ 6
scope 6
seattle 6
senior 6
servir 6
seuil 6
shake 6
shoe@@ 6
signalisation 6
sleep 6
sn@@ 6
snowboard. 6
sombre, 6
sooners 6
sor@@ 6
souffleur 6
souriante, 6
souriantes 6
ssi@@ 6
ssion@@ 6
stal@@ 6
stars 6
stationné 6
steaks 6
stern 6
stir@@ 6
stor@@ 6
stretched 6
stunts 6
suivre 6
supp@@ 6
surf@@ 6
surpeuplé. 6
swan 6
sweat 6
system 6
sécurité, 6
séjour 6
séjour. 6
taille, 6
tal 6
talus 6
tat@@ 6
tatouages 6
tau@@ 6
taureau. 6
tee. 6
tem@@ 6
tern 6
terrasse 6
terrasse. 6
those 6
tirant 6
tirés 6
tour. 6
tout-petits 6
toux 6
tr@@ 6
traditionnelle. 6
trans@@ 6
trav@@ 6
trompette. 6
tronçon 6
trou. 6
troupeau 6
tuni@@ 6
tâche 6
téléphonique 6
téléphonique. 6
ub@@ 6
ula 6
und@@ 6
university 6
uvre 6
variété 6
vege@@ 6
vent. 6
verse 6
verts, 6
veston 6
vides. 6
vie 6
vif, 6
violets 6
violoniste 6
visibles 6
visiteurs 6
vite 6
vol@@ 6
volkswagen 6
volunte@@ 6
vor@@ 6
vues 6
w-@@ 6
wat@@ 6
weight 6
wet@@ 6
whe@@ 6
wild@@ 6
zombi@@ 6
âge. 6
écouter 6
écrans 6
électronique 6
épicerie. 6
épreuve 6
équipe. 6
établissement 6
étagère 6
étincelles 6
étiquettes 6
étroit 6
étroite. 6
-covered 5
00@@ 5
Baby 5
Bande 5
Elmo 5
Europe. 5
Jenga 5
Ma 5
Manche 5
McDonald's. 5
Nike 5
Olympiques 5
Personnes 5
Red 5
Seattle 5
Skateboarder 5
Tenniseur 5
Très 5
a-@@ 5
abandonné. 5
abondante 5
acclamant 5
ach@@ 5
achat 5
acrobatique 5
acte 5
adversaires 5
ait 5
alimentaire. 5
ama@@ 5
amarre 5
ameri@@ 5
américains. 5
ancienne. 5
anciens 5
ange 5
angels 5
animaux. 5
apercu 5
aquatique. 5
arabi@@ 5
argenté 5
arrière, 5
article 5
asphalt 5
assez 5
assises, 5
assistant 5
ators 5
atterrit 5
auprès 5
automatique 5
automatique. 5
automobile 5
aveugle 5
aéroport 5
aéroport. 5
baignade 5
baignant 5
balade 5
balaie. 5
balan@@ 5
balayent 5
ball@@ 5
balleuse 5
ballons. 5
banquette. 5
barbe, 5
barbier 5
barils 5
barman 5
barren 5
base@@ 5
basket@@ 5
basse. 5
beige, 5
billet 5
billets. 5
bir@@ 5
blanchisserie. 5
blessé 5
blonds. 5
bloqué 5
boire. 5
boss 5
botte 5
boucher 5
bouclier 5
bouscule 5
boutique. 5
bracelet 5
brouette 5
brouillard 5
brouillard. 5
buissons 5
bulle. 5
bureau, 5
bus. 5
bâche 5
bâtonnets 5
bécher 5
bétail 5
bétail. 5
cache 5
camping. 5
caméraman 5
caméras 5
cannes 5
care@@ 5
caricature 5
carri@@ 5
carrés 5
cascade. 5
casino. 5
casquette, 5
centre. 5
cerf-volant. 5
cerfs 5
certain 5
chain@@ 5
champ, 5
champa@@ 5
chanter. 5
chasser 5
chats 5
chaude 5
chaussures, 5
cheer@@ 5
chemi@@ 5
chemin. 5
chemises, 5
cherchent 5
chips 5
chirurgiens 5
chocolat 5
choses. 5
cigarettes 5
cir@@ 5
circulaire 5
cit@@ 5
classe, 5
clown. 5
cockpit 5
collation. 5
collègue 5
coloré, 5
combattants 5
complet 5
comprend 5
compte 5
concours 5
conditionnement 5
confettis 5
congrès 5
consi@@ 5
contain@@ 5
corde, 5
corridor 5
coule 5
couloir 5
coussin 5
couvrant 5
crient 5
croisés. 5
ctive 5
cuise 5
cuisinant 5
curieux 5
cy@@ 5
célébrer 5
cérémonie. 5
d'Amérique 5
d'affaires. 5
d'air 5
d'amis. 5
d'argile. 5
d'arrêt 5
d'autres. 5
d'en 5
d'escalader 5
d'escaliers. 5
d'eux, 5
d'exercice 5
d'homme 5
d'hommes, 5
d'hôpital. 5
d'instruments 5
d'épaule 5
d'équipe. 5
dactylographie 5
dal@@ 5
danser. 5
das 5
dehors. 5
derby. 5
descente 5
destination. 5
dges 5
dig 5
discussion. 5
documents. 5
douceur 5
dramati@@ 5
drap 5
dunking 5
décorations 5
défenseur 5
déguster 5
dépanneur. 5
ees 5
effectuent 5
effets 5
eleph@@ 5
emp@@ 5
empilés 5
encore 5
ender 5
endroits 5
enfoncée 5
enfoui 5
enfouissant 5
enga@@ 5
enrobe 5
enroule 5
enseignante 5
ensoleillée 5
entourent 5
envoie 5
er-@@ 5
ere 5
essayer 5
exercice 5
explique 5
expressions 5
extérieurs 5
extérieurs. 5
exécuter 5
fabriquant 5
faisceau 5
fan@@ 5
fanfare 5
fans. 5
fauteuils 5
fe 5
fermés, 5
feuille. 5
ff 5
ffe@@ 5
ffel 5
figh@@ 5
fir@@ 5
fisher@@ 5
floue 5
flèche. 5
fléchettes 5
fléchissent 5
foire. 5
fouet 5
foyer 5
fraîche 5
froid, 5
froide 5
froide. 5
g-@@ 5
gant 5
gants, 5
gardé 5
garés 5
gaz 5
gen@@ 5
genoux, 5
gent 5
geo@@ 5
gh 5
ghtly 5
gin@@ 5
glacier. 5
glacé 5
glisser 5
gn 5
graffiti. 5
grille. 5
griller 5
grima@@ 5
grimpeur 5
guerre 5
géantes 5
hache 5
ham@@ 5
harpe. 5
hat@@ 5
headset 5
herbes 5
hero 5
high@@ 5
hin@@ 5
hou@@ 5
humide 5
hutte. 5
ian 5
ie@@ 5
iel@@ 5
immeuble, 5
impatience 5
imprimé 5
in-@@ 5
incendie. 5
inférieur. 5
ini@@ 5
intere@@ 5
intersection. 5
intérieur 5
intérieure 5
ipod 5
ired 5
iro@@ 5
island 5
iz@@ 5
jack 5
jambe. 5
japan 5
jaunes, 5
jeune, 5
jeune. 5
jewel@@ 5
jogger 5
jogging. 5
jouent, 5
joueur. 5
jubilation 5
kayake 5
kel 5
ket@@ 5
key@@ 5
ki 5
kies 5
kimonos 5
l'adversaire 5
l'aire 5
l'allée 5
l'alopeur 5
l'angle 5
l'arrêt 5
l'autobus 5
l'autobus. 5
l'autoroute. 5
l'avion. 5
l'exercice 5
l'hôtel 5
l'il. 5
l'uniforme 5
l'échelle 5
l'état 5
lame 5
lançant 5
last 5
lean@@ 5
lecteur 5
lei@@ 5
levant 5
lier 5
ligh@@ 5
lisse 5
locaux 5
lui, 5
lum@@ 5
léopard 5
magasinent 5
magazines. 5
mailles 5
mailles. 5
maison, 5
make@@ 5
manches, 5
manière 5
manteau. 5
manuvres 5
marbre. 5
mariés 5
marques 5
martiaux, 5
mas. 5
mask@@ 5
mates 5
matériel. 5
mauvaises 5
maître 5
mcdonalds 5
menton. 5
meuble 5
meubles 5
middle-@@ 5
mini-@@ 5
mirro@@ 5
mly 5
mobile. 5
moderne 5
monter. 5
montré 5
montrée 5
monté 5
mordant 5
mordre 5
motorisé. 5
mots 5
moutarde 5
mouvement. 5
mouvements 5
musculaire 5
musicale 5
médecins 5
médical 5
mélanger 5
navigation 5
naviguant 5
nettoyage 5
nourriture, 5
nuage. 5
nuageuse. 5
nuageux 5
o-@@ 5
obama 5
occupée. 5
odle 5
oeil 5
offre 5
oiseau. 5
olympique 5
olympiques 5
ope 5
operation 5
oppon@@ 5
ore@@ 5
ored 5
oreilles. 5
organise 5
ouverte, 5
panneau, 5
papiers. 5
papillon 5
papillons 5
parents. 5
participer 5
patiner 5
ped@@ 5
pedal 5
pedestri@@ 5
peigne 5
peine 5
pel@@ 5
pelles 5
pense 5
perche 5
performance. 5
pers@@ 5
photographes 5
physique 5
pile. 5
pilier 5
pipe. 5
plaine 5
planchers 5
plateaux 5
plaît 5
pleut. 5
plombent 5
plongent 5
pluvieux. 5
poche. 5
poodles 5
poussé 5
poutres 5
press@@ 5
pressions 5
preuve 5
prie@@ 5
prochain 5
produit. 5
professionnelle. 5
professionnels 5
promène. 5
protestant 5
présentant 5
prétend 5
publique, 5
puits 5
pul@@ 5
put@@ 5
pâtisseries 5
pétales 5
pêcher. 5
pêcheurs 5
racket. 5
radeaux 5
rail@@ 5
rain@@ 5
rake 5
rallye 5
rapide 5
rasoir 5
ravin 5
re 5
red@@ 5
relais. 5
remorque. 5
remplir 5
remplissent 5
repos 5
restauration. 5
robe. 5
robo@@ 5
rock. 5
ronde 5
ros@@ 5
roulant, 5
roule. 5
roulettes, 5
roulis 5
roulé 5
routine. 5
rugby. 5
rut@@ 5
rythme 5
réaction 5
réparent 5
rôle 5
s'amusant. 5
s'amuseront 5
s'aspire 5
s'assient 5
s'assoit 5
s'assurant 5
s'attache 5
s'aventurent 5
s'embarque 5
s'embrasse 5
s'enfonçant 5
s'escalade 5
s'exercer 5
s'il 5
s'établit 5
s'étonne. 5
s. 5
sablonneuse. 5
sabot 5
sai@@ 5
salope. 5
saluent 5
san 5
san@@ 5
sangle 5
sas 5
sat@@ 5
sauf 5
savoure 5
saxoph@@ 5
scoo@@ 5
sculp@@ 5
sculpter 5
sens 5
serveure 5
servi@@ 5
services 5
serviettes 5
seul. 5
shado@@ 5
sillonnent 5
sky-@@ 5
smit@@ 5
snap 5
snowboar@@ 5
soa@@ 5
soirée. 5
sommet. 5
soudant 5
souder 5
souffler 5
soulevant 5
soulevé 5
sous-vêtements 5
span@@ 5
spectateur 5
spee@@ 5
sper@@ 5
spider@@ 5
spongebo@@ 5
sport, 5
sportive. 5
sse@@ 5
stock 5
stock@@ 5
store@@ 5
stret@@ 5
stro 5
studio. 5
suce 5
suivent 5
surfe 5
surroun@@ 5
surveillé 5
survole 5
survoleur 5
suspendue. 5
suspendues 5
sweatshirts 5
swim@@ 5
symbol 5
symbole 5
système 5
sèche. 5
tage 5
taille. 5
tambour@@ 5
tambours. 5
tan, 5
tar@@ 5
tatouage. 5
teel 5
teinte 5
temp@@ 5
tennis, 5
tentes. 5
text 5
thor@@ 5
thro@@ 5
tiennent. 5
tiers 5
tigre 5
tisser 5
tissé 5
toboggan 5
tombe. 5
tombé. 5
torche 5
tournant 5
train, 5
tran@@ 5
transmet 5
travaille. 5
tribale 5
tribu 5
trophée 5
trépied 5
trépied. 5
tue 5
ty@@ 5
under@@ 5
uniforme, 5
uniforme. 5
ups 5
uring 5
ush 5
uth 5
vaches 5
valises 5
var@@ 5
vedette 5
velours 5
vente. 5
ventilateur 5
ventre 5
verser 5
victoire. 5
vieilles 5
vio@@ 5
visite 5
voie. 5
voiliers 5
voitures. 5
volent 5
vont 5
vraiment 5
vérifient 5
vêtements, 5
wake@@ 5
wakeboard 5
wards 5
watermel@@ 5
welcome 5
wood@@ 5
yeux. 5
ysi@@ 5
za@@ 5
ze@@ 5
zen 5
zer 5
», 5
âgé. 5
âgée. 5
âgés, 5
échelle, 5
éclaboussant 5
école. 5
écrire 5
écrit. 5
élevé 5
élevé. 5
épaisse 5
épaule. 5
équipages 5
établi 5
étalons. 5
étend 5
étiqueté 5
étire 5
étui 5
20@@ 4
Apple. 4
Asie 4
Avec 4
Boston 4
Coca-Cola 4
Couple 4
Course 4
Disney. 4
En 4
Environ 4
Inde. 4
Indiens 4
Jack 4
Japon. 4
Japonais 4
Lors 4
Mickey 4
Moyen-Orient. 4
Parade 4
Petits 4
Speedo 4
Square 4
Surfer 4
Vingt-huit 4
Walmart 4
Walmart. 4
abondante. 4
acclame 4
accompagné 4
achalandé, 4
achats. 4
acrobatiques 4
acteurs 4
activement 4
activité. 4
activités 4
admi@@ 4
admirent 4
adorable 4
affiche. 4
affichent 4
aga@@ 4
agitant 4
agrafe 4
agréable. 4
ajoute 4
aliment 4
all@@ 4
amarrent 4
américaine, 4
ancien 4
anniversaire 4
années 4
ap@@ 4
apparemment 4
appartement 4
appelle 4
apprendre 4
appuie 4
aqua 4
arabe 4
arcade. 4
arcs 4
arme. 4
armure 4
arrivant 4
arrose 4
arroseurs. 4
artistique 4
aspirateur 4
assemble 4
astro@@ 4
ater 4
aters 4
attache 4
attend. 4
atterrir 4
attrayante 4
autres, 4
avance. 4
avant. 4
aventure 4
bague 4
baguette 4
balcon@@ 4
ballerin@@ 4
ballerinas 4
ballon, 4
bananes. 4
bancs. 4
bande. 4
banjo. 4
bannière. 4
barbe. 4
barbue 4
baril 4
barres. 4
base, 4
bbing 4
beige. 4
bicyclettes. 4
biens. 4
billes 4
billots 4
biscuits. 4
bizarre 4
bl@@ 4
blan@@ 4
blondes 4
bloquer. 4
boisé 4
bongo. 4
borne 4
boston 4
boue, 4
boul@@ 4
bourreau. 4
bourse 4
bouton 4
bouée 4
breton 4
brochure 4
brow@@ 4
bru@@ 4
brusquement 4
bunge@@ 4
buste 4
bâche. 4
bâtonnet. 4
bâtonnets. 4
béquilles 4
cachant 4
cadeaux. 4
cadre. 4
cadres 4
cagoule 4
calme 4
calmes 4
calmes. 4
camion-pompier 4
campeurs 4
caméras. 4
canettes 4
canots 4
canyon. 4
cardiaque 4
carrousel. 4
cathédrale. 4
cau@@ 4
caucasien 4
cell@@ 4
cellulaire, 4
centre-ville 4
cercle. 4
cercles 4
cerf 4
chameau. 4
chanson. 4
chanter 4
chantier. 4
charbon. 4
chaton 4
cheminée. 4
chevreuil 4
chin@@ 4
chiot. 4
chirurgie 4
chop@@ 4
chubby 4
chèvres 4
cimetière. 4
circ@@ 4
ciseau 4
ciseaux 4
citrouille 4
ckens 4
claire. 4
claquant 4
clarinette 4
clean@@ 4
client. 4
cloisonnement 4
clou 4
coca-@@ 4
coco 4
coffre 4
coin. 4
colis. 4
collations 4
collations. 4
collection 4
colliers 4
colore 4
colorée, 4
colorés, 4
colère. 4
combattant 4
commandes 4
comp@@ 4
compagne 4
compagnon 4
compagnons 4
compe@@ 4
concentré 4
conditions 4
construction, 4
contient 4
contro@@ 4
convertible 4
cornemuse 4
cou@@ 4
couche. 4
couchées 4
coude 4
couple, 4
coupure 4
courbés, 4
coureuse 4
couronnes 4
couteau. 4
couvercle 4
couvertes 4
cowboy. 4
coéquipier 4
cravate, 4
cricket. 4
crosse. 4
crème. 4
créant 4
cuillère. 4
cuir. 4
cuisson 4
culasse 4
cur. 4
custo@@ 4
cycliste, 4
cyclomoteur. 4
câbles 4
céréales 4
d'Halloween 4
d'abord 4
d'accueil 4
d'aliments 4
d'animaux. 4
d'anniversaire. 4
d'arbres, 4
d'artisanat. 4
d'attractions 4
d'auto. 4
d'enfants, 4
d'entraînement 4
d'entrée. 4
d'environ 4
d'escalier 4
d'images 4
d'immeubles. 4
d'oeufs 4
d'ombre. 4
d'ordinateurs 4
d'ours 4
d'utiliser 4
d'émeute 4
d'équitation 4
d'éteindre 4
dalle 4
danseur 4
daugh@@ 4
dauphin 4
derrière, 4
descendre. 4
dessus, 4
dinde 4
dings 4
dio 4
dire 4
distribue 4
distribuent 4
dition@@ 4
dizaines 4
dragon 4
drop 4
drôles 4
dur 4
dur. 4
débarrasse 4
débris. 4
déchirés 4
décide 4
décore 4
découper 4
découper. 4
déverse 4
eaux. 4
ed@@ 4
electro@@ 4
elles, 4
empruntant 4
empruntent 4
en-@@ 4
encadré 4
encombré, 4
enfile 4
eng@@ 4
engin 4
enjo@@ 4
enlevé 4
enneigées 4
enneigés 4
enregistrent 4
enregistrer 4
enroulée 4
enterré 4
entoure 4
entrepôt. 4
envers 4
equip@@ 4
erial 4
ers@@ 4
espagnole 4
essentiellement 4
estomac 4
eting 4
ette 4
européen 4
examiner 4
excités 4
experi@@ 4
exposés. 4
expression 4
face. 4
fal@@ 4
famille, 4
ferrées 4
feuilles, 4
fic 4
fig@@ 4
figurent 4
fils, 4
flanc 4
fleur. 4
fleurs, 4
flexion 4
flotteurs 4
flèches 4
fléchir 4
fois. 4
fonctionne 4
fourruré 4
franchit 4
frit 4
fru@@ 4
ft@@ 4
fumée. 4
fur@@ 4
fédora 4
féminines 4
gan 4
gan@@ 4
gants. 4
garden@@ 4
gazeuses 4
gazonné. 4
geish@@ 4
gent@@ 4
gie 4
glace, 4
gle@@ 4
glisse. 4
glissent 4
gold-@@ 4
gomme 4
gonfle 4
gonflée 4
gras 4
groupe, 4
guichets 4
guit@@ 4
guitaristes 4
gymna@@ 4
habileté 4
half@@ 4
halter 4
hamac 4
hamac. 4
haricots 4
hautes 4
hauteur. 4
hawaenne 4
hawk 4
heureux, 4
historique. 4
hn@@ 4
hol 4
hoop. 4
hula-ho@@ 4
humaine 4
humide. 4
iPod. 4
identiques, 4
identiques. 4
immense 4
inc@@ 4
inconnu. 4
inder 4
iner 4
inférieur 4
inline 4
inscrite 4
interaction 4
ird 4
japonais. 4
japonaise 4
javelin 4
jetée. 4
jogg@@ 4
jogge 4
jolies 4
joliment 4
jouant. 4
jugent 4
ka 4
karaté. 4
kayakistes 4
ken 4
kilts 4
kin 4
kiosques 4
kitchena@@ 4
kitt@@ 4
kl@@ 4
l'Armée 4
l'a 4
l'arbre 4
l'argent. 4
l'aveugle 4
l'escalier. 4
l'heure 4
l'homme. 4
l'honneur 4
l'intérieur, 4
l'observe 4
l'ordinateur 4
l'oreille. 4
l'écoute. 4
laboratoire, 4
labrador 4
laine 4
lait 4
lancer. 4
lanterne 4
lap@@ 4
lapin 4
lapins 4
las 4
lass@@ 4
lave-vaisselle. 4
laver. 4
lear@@ 4
lentement 4
lentille 4
ler@@ 4
lieu. 4
lieux 4
lisaient 4
littoral. 4
lointain, 4
long-@@ 4
lorsqu'il 4
loupe. 4
lèvre 4
machinerie 4
machinerie. 4
magasinant 4
magasiniers 4
maintenir 4
mal@@ 4
malgré 4
malheureux 4
marais. 4
marchand 4
marchands 4
marchant, 4
marche, 4
mariage, 4
marqué 4
marron, 4
masculin, 4
masqué 4
mature 4
mea@@ 4
medecins 4
mega@@ 4
menu. 4
mick@@ 4
micro 4
minces 4
mini@@ 4
minuscule 4
miroir, 4
mis 4
mitaine 4
mo 4
mobil@@ 4
mod@@ 4
moine 4
montagne, 4
montrer 4
montrés 4
montées 4
moo@@ 4
mop@@ 4
mor@@ 4
mot 4
moteur, 4
motocyclette, 4
motorisée. 4
motos. 4
mou@@ 4
mouillée. 4
mounta@@ 4
mpe@@ 4
multicolores. 4
multiples 4
munies 4
musulmans 4
muzz@@ 4
mères 4
métier 4
natation 4
nation@@ 4
ness 4
nettoyeur 4
new@@ 4
nin@@ 4
nom, 4
nor@@ 4
noti@@ 4
nouilles 4
nourrir 4
nouveau-né. 4
nouveaux 4
numérique 4
numéros 4
nus. 4
néon. 4
obtenu 4
of@@ 4
officielles 4
officier 4
oklaho@@ 4
olympique. 4
ombragé 4
ombragé. 4
ombragée 4
ombres 4
op 4
opposé. 4
opération 4
orchestre. 4
ordinateur, 4
org@@ 4
ornementé 4
orné 4
osier. 4
ot 4
ouverts. 4
ouvrent 4
ouvrir 4
pagayant 4
paille, 4
pain@@ 4
palmier. 4
parallèles. 4
parasail 4
parcourent 4
park@@ 4
parrainé 4
parti@@ 4
participat@@ 4
passagers. 4
passer. 4
pati@@ 4
patinage. 4
patrio@@ 4
paysage. 4
peint. 4
peintures 4
peop@@ 4
peri@@ 4
personnels 4
phones 4
photographe. 4
photographient 4
pics 4
piercing 4
pigeon. 4
piles 4
piliers 4
pilotage 4
pilotes 4
pince 4
pinces 4
pira@@ 4
pistes 4
pizza. 4
pièce, 4
piétons. 4
placent 4
plaides 4
plantant 4
plante. 4
plantent 4
plastique, 4
plat@@ 4
pleins 4
pliante. 4
plume 4
poin@@ 4
poing 4
pointe. 4
poissons. 4
policier, 4
policière 4
polka. 4
portable, 4
portion 4
pouce. 4
power@@ 4
pratiquer 4
prendre. 4
prepar@@ 4
primaire 4
prise. 4
profitant 4
profondes 4
projet. 4
propan@@ 4
propos 4
propriétaire 4
protestataires 4
protestent 4
protège 4
prun@@ 4
pré 4
présenté 4
prêtre 4
pt@@ 4
publicitaire. 4
pulvérisant 4
pulvérisent 4
pulvérisé 4
pun@@ 4
pâturage. 4
q 4
quadruple 4
quatrième 4
ramener 4
rapide. 4
rapides 4
raquette. 4
read@@ 4
reflet 4
relaxant 4
relaxent 4
religieux 4
remise 4
remplissant 4
resserre 4
rest@@ 4
rester 4
retenant 4
retire 4
retiré 4
retourner 4
revers 4
reçu 4
rideau 4
riz. 4
robot 4
rocheuses. 4
rodéo, 4
rollerbla@@ 4
rond. 4
rondes 4
rouleaux 4
ruines 4
rustique 4
réception 4
réception. 4
récolte 4
récoltent 4
récoltes 4
réflexion 4
réflexion. 4
réfléchissants 4
s'adressent 4
s'amuser. 4
s'assaillent 4
s'asseyant 4
s'assisent 4
s'assoient 4
s'enfile 4
s'enracine 4
s'entraine 4
s'entraîner 4
s'enveloppe 4
s'envolant 4
s'envole. 4
s'habitue 4
s'installe 4
s'éclairent 4
s'écoule 4
s'élançant 4
s'établissant 4
s'étourdissant 4
s'étourdissent 4
sachant 4
sain 4
salopettes 4
sandales. 4
sau@@ 4
sauter. 4
sauvage 4
sauvage. 4
sauvages 4
sauvetage. 4
savon 4
savourer 4
school@@ 4
sculpt@@ 4
sculptant 4
sculpteur 4
self 4
seni@@ 4
sent@@ 4
separ@@ 4
serrée. 4
servi 4
seul, 4
sexy 4
short-@@ 4
sifflet. 4
simi@@ 4
singe 4
sirop 4
siting 4
ske@@ 4
skel@@ 4
ski, 4
skis. 4
sky@@ 4
smi@@ 4
sni@@ 4
som@@ 4
sombrer@@ 4
sou@@ 4
soudage 4
souffle. 4
soulever 4
soulevés 4
soupe 4
souriants 4
soutien 4
spandex 4
spatule 4
spea@@ 4
spectateurs, 4
sportives 4
spéciale 4
ssen@@ 4
ssy 4
st. 4
stair@@ 4
starbucks 4
stationnées. 4
statu@@ 4
stea@@ 4
str@@ 4
stum@@ 4
suivie 4
sumo 4
supermarché 4
supérieur. 4
surfeur 4
surfeurs 4
surplombent 4
surpoids 4
suspension 4
suv 4
swi@@ 4
séance 4
séchoir 4
taining 4
talents 4
tampon 4
tard 4
tea@@ 4
tech@@ 4
tell@@ 4
tendant 4
teri@@ 4
teria 4
terminent 4
terminé. 4
tiara 4
tir. 4
tomate 4
tomates 4
tombant 4
tond 4
torches 4
touchent 4
toujours 4
touriste 4
tournée 4
tracteur. 4
traction 4
train@@ 4
tranchée 4
tranquille 4
tranquille. 4
transpor@@ 4
transporter 4
travaillent. 4
trempé 4
triste 4
troncs 4
trop 4
tropicale. 4
truc 4
trémie 4
tt@@ 4
tube. 4
tunique 4
tures 4
twi@@ 4
twister 4
typi@@ 4
tz@@ 4
tâche. 4
téléphone, 4
téléphones 4
uf 4
una 4
unicef 4
unt 4
urbaine, 4
usine 4
utensi@@ 4
vacances. 4
vaisselle 4
valise. 4
vallée. 4
valoir 4
vapeur 4
vendeur. 4
verdure. 4
veter@@ 4
village. 4
violettes. 4
violons 4
visages. 4
visitent 4
vive. 4
voies. 4
voilier 4
voir. 4
voler 4
voyagent 4
voyager 4
voyons 4
vus 4
vy 4
wan@@ 4
washington 4
yama@@ 4
zo@@ 4
âges 4
âgées, 4
âne. 4
ânes 4
éarmuffs 4
échantillon 4
éclairage 4
éclairantes 4
éclatant. 4
éclatante, 4
éclatante. 4
école 4
écrire. 4
écussons. 4
équilibré 4
étages. 4
étaient 4
étalons 4
éteigne 4
étendues. 4
étendus. 4
étranges 4
étranges. 4
étroitement 4
étuve 4
évier. 4
éviter 4
% 3
(en 3
-skinned 3
30 3
A&amp;M 3
Adulte 3
Adultes 3
Athlète 3
BMX. 3
Batman 3
Chevaliers 3
Chinois 3
City. 3
Coca 3
Cola 3
Coney 3
Deere 3
Divers 3
Douze 3
Fille 3
Frisbee 3
Grande 3
Gymnaste 3
Hollister 3
Kitty 3
L'un 3
LA 3
Legos 3
Legos. 3
Londres. 3
McDonalds. 3
Mets 3
Mohawk 3
Mouse 3
Neuf 3
Nintendo 3
Obama 3
Petites 3
Peu 3
Pétonniers 3
Regarder 3
Renaissance. 3
Starbucks 3
Subway. 3
Sud 3
Toyota 3
Travailleur 3
Travaux 3
Vingt 3
Washington 3
abrupt. 3
acclament. 3
accrochant 3
accroché 3
accrochés 3
accueil, 3
accueillant. 3
acheter. 3
acro@@ 3
acrobate 3
acrobatie. 3
adul@@ 3
adultes. 3
affaires 3
affiches. 3
affleurement 3
africaine. 3
africaines 3
afro-américain, 3
agitée 3
aigu 3
ainsi 3
ajustant 3
ak@@ 3
alignés 3
allemands 3
allumés. 3
amarré 3
amicale 3
amont, 3
amour 3
amusant 3
ancien. 3
ancienne 3
anda 3
angel@@ 3
anges 3
animé 3
animée. 3
anneau. 3
anneaux. 3
annonce. 3
ans, 3
apparaissent 3
appel 3
appliquant 3
apprennent 3
apron, 3
apron. 3
ara@@ 3
arbitres 3
arbres, 3
argile. 3
armes 3
arracher 3
arring 3
arrive. 3
arrivée. 3
arrières 3
arroser 3
arroseur 3
arroseur. 3
arrosé 3
arrête 3
arrêté. 3
arrêtée 3
arrêtées 3
artificiel. 3
artisan 3
artistique. 3
asi@@ 3
asphaltée. 3
aspirant 3
assortiment 3
athlétiques 3
att@@ 3
attaqué. 3
attendaient 3
attendent. 3
attentivement. 3
attraction 3
attrayantes 3
audacieux 3
auditorium. 3
automatiques 3
automatiques. 3
automne. 3
aval 3
avant-plan, 3
avez 3
avions 3
avirant 3
b-@@ 3
ba 3
backpa@@ 3
bacs 3
badge 3
baigner 3
bal 3
balais. 3
balayer 3
balcons 3
ballet. 3
banane 3
bandana, 3
bandes. 3
banlieue 3
barbes 3
barbier. 3
barbu. 3
barbus 3
bardeaux 3
bardeaux. 3
baril. 3
barrière, 3
baseur 3
bassiste 3
bataille 3
beauti@@ 3
bet@@ 3
biscuits 3
bière, 3
bières. 3
ble@@ 3
bli@@ 3
blocs. 3
blon@@ 3
bm@@ 3
body@@ 3
bols. 3
boo@@ 3
bord. 3
bordent 3
bottes, 3
bottes. 3
bouclage. 3
boucle, 3
bouilloire 3
boulangerie. 3
bourreau, 3
bouteilles. 3
boutonné 3
boxe. 3
boxeurs 3
bracelets 3
bran@@ 3
branches. 3
bref 3
brillant 3
brillante 3
brise-vent 3
brisé 3
bronze 3
brosser 3
brouillée. 3
broussailles. 3
broyer 3
broyeur 3
bucks 3
budd@@ 3
buggy 3
buisson 3
bulles, 3
burger 3
but, 3
by@@ 3
bâton, 3
bébés. 3
bécher. 3
béchers 3
bénévoles 3
cabines 3
cachent 3
caché 3
café, 3
cafétéria 3
cage. 3
caisses 3
camarades 3
camion, 3
camouflé 3
campe 3
caméramans 3
canal. 3
canards. 3
cano@@ 3
canons 3
canot. 3
capes 3
capturer. 3
carrée 3
casiers 3
casquette. 3
cathédrale 3
cation 3
ceintures 3
celle-ci. 3
celui 3
centaines 3
centre, 3
cercle, 3
chambre. 3
champagne 3
chantant. 3
chapeaux, 3
charbon 3
chaud, 3
chaudes 3
chaussons 3
chef. 3
cherchant 3
chevalier 3
chiffre 3
chiffres 3
choisissent 3
choisit 3
chose, 3
chutes 3
château. 3
chèque 3
chèvre. 3
ciali@@ 3
cible 3
cigare 3
circuler 3
cireur 3
cirque 3
cirque. 3
cisaillement 3
citoyens 3
citron 3
civile 3
claque 3
classique 3
classique. 3
cleats 3
clés 3
clôtures 3
clôturé 3
cobb@@ 3
colin 3
collines. 3
collègues 3
colonnes 3
coloris 3
colorit 3
comi@@ 3
commis 3
commun 3
communication 3
complet, 3
comprenant 3
compétition, 3
comté 3
concentrés 3
concert, 3
concerts 3
concessions. 3
concurrents 3
conduire 3
conduite 3
confectionne 3
conserve. 3
constructions 3
construite. 3
conteneur 3
contrôle. 3
contrôler 3
convers@@ 3
cornemuses 3
corridor. 3
costum@@ 3
coton 3
coton. 3
couchant. 3
couche, 3
coude. 3
couettes 3
coup. 3
coupent 3
coups 3
coupés 3
cour@@ 3
courlés 3
court. 3
courte, 3
courte. 3
courtepointe 3
courts. 3
cousue. 3
couteaux. 3
couvert. 3
couvertures. 3
coéquipier, 3
coéquipier. 3
crabe 3
cran@@ 3
cravate. 3
cravates 3
crayon. 3
crayons. 3
croisière. 3
croisées. 3
croix. 3
crou@@ 3
crouchant 3
croupit 3
crâne, 3
crâne. 3
création 3
créent 3
cuisiner 3
cuisiniers 3
cuisinières 3
curs. 3
cycle 3
cycliste. 3
cyclistes, 3
cygne 3
célibataire 3
céramique 3
cérémonielle 3
d'Asie 3
d'achats 3
d'acier. 3
d'action 3
d'adultes. 3
d'agriculteurs. 3
d'aide 3
d'air. 3
d'alcool 3
d'alcool. 3
d'alimentation 3
d'aliments. 3
d'anneaux 3
d'appartements 3
d'appartements. 3
d'argile 3
d'armée 3
d'athlétisme. 3
d'attente. 3
d'elles. 3
d'empêcher 3
d'enregistrement. 3
d'exposition. 3
d'habitation. 3
d'herbes 3
d'hiver, 3
d'incendie. 3
d'individus 3
d'informatique. 3
d'observateurs. 3
d'oiseaux. 3
d'opération. 3
d'oreilles 3
d'ouvrir 3
d'uniformes 3
d'âges 3
d'ébriété 3
d'écoute 3
d'écran 3
d'église 3
d'époque. 3
d'équilibre. 3
d'équipe 3
dach@@ 3
danger 3
danse, 3
del@@ 3
demandant 3
denim, 3
dernière 3
descend. 3
dessert. 3
diaporama. 3
dinosaure. 3
dinosaures 3
direct. 3
direction, 3
directions. 3
directives 3
disc@@ 3
discutent, 3
discuter 3
dispersés 3
dispersés. 3
disponibles 3
disques 3
disques. 3
divertissant 3
divertit 3
doit 3
dojo. 3
domicile. 3
dominos 3
don 3
donné 3
door@@ 3
dor 3
dor@@ 3
dossier 3
double 3
douzaine 3
drag 3
droite, 3
duquel 3
décharge 3
décharger. 3
déchirés, 3
décident 3
décolle 3
décorative 3
décorative. 3
défensif 3
déformée 3
déguste 3
dégât 3
départ. 3
dérangeante. 3
déserte. 3
désertique 3
détendre 3
ef@@ 3
eil 3
ek 3
eless 3
eli@@ 3
emballage 3
embarcation 3
empilées 3
empêcher 3
encadrant 3
encadrées 3
enchanté 3
enchantée 3
enchaînés 3
encombrées 3
encombrés 3
enfoncé 3
enfouies 3
enfouissent 3
enroulées 3
enseignent 3
enseignes 3
ensoleillé, 3
enthousiasme. 3
enthousiastes 3
enthusi@@ 3
entièrement 3
entraine 3
entraînement 3
entraînent 3
entraîneur. 3
entrent 3
entretient 3
entu@@ 3
enveloppée 3
escalade. 3
escaliers, 3
espagnol 3
espagnol. 3
esprit 3
ethni@@ 3
examinant 3
exercices 3
explorateur 3
explorent 3
explosion. 3
exposant 3
exposé 3
exposées 3
exposées. 3
expérience. 3
extrémités. 3
extrêmement 3
fabrication 3
faible 3
fami@@ 3
familiale 3
familiale. 3
fau@@ 3
faucon 3
façade 3
façons 3
fee@@ 3
fenêtre, 3
fermée. 3
ferroviaire 3
ferrée 3
fest 3
feuillage 3
fiel@@ 3
filet, 3
film. 3
filment 3
filmer 3
flamme 3
fleuve 3
flocons 3
flottant. 3
flottante 3
flotter 3
flotteur 3
floues 3
fluer 3
flânent 3
fléche 3
flétent 3
football@@ 3
footballeurs 3
forces 3
formations 3
forment 3
former 3
forte 3
fou 3
foulards 3
fournitures. 3
fous 3
frais. 3
fraise 3
fran@@ 3
frappe. 3
fraîche. 3
fromage. 3
fréquenté. 3
fréquentée. 3
fter 3
fumant. 3
fées 3
fête, 3
fêtes 3
gam@@ 3
gant. 3
garde-corps 3
gardes 3
gardienne 3
garçons. 3
gat@@ 3
gauche, 3
gay 3
gazon, 3
ge-@@ 3
gestuelle 3
girouette 3
goatee 3
golf@@ 3
golfeur 3
gomme. 3
gonflant 3
gonflé. 3
goûter 3
graffitié. 3
graines 3
graphique 3
grillent 3
grimpent 3
grotte 3
grue. 3
guide 3
guitariste, 3
gâterie 3
géométrique. 3
habillé, 3
haie. 3
handicapée 3
harmonique. 3
haute. 3
haw@@ 3
hell@@ 3
henna 3
histoire 3
hockey, 3
horizon@@ 3
humaine. 3
hâte 3
hôpital 3
hôpital. 3
hôtel. 3
i-@@ 3
ici 3
ilt 3
importante 3
impressionnant 3
indien 3
industriel. 3
infan@@ 3
inhabituel 3
inhabituelle 3
inner@@ 3
inscrits 3
insecte 3
inspectant 3
installe 3
instructions 3
instruments, 3
intense 3
intitulé 3
intitulée 3
ire 3
itali@@ 3
iter 3
jam@@ 3
jambes. 3
jante 3
japonaises 3
jardinage 3
jetski 3
jeunes. 3
jo 3
jogit 3
jouaient 3
jouait 3
joues 3
joues. 3
jouets, 3
jug@@ 3
juge-arbitre 3
jugg@@ 3
jum@@ 3
jun@@ 3
jupe, 3
jupe. 3
jus. 3
jusqu'au 3
k-@@ 3
karate. 3
kayakiste 3
keeper 3
ken@@ 3
khaki, 3
kinds 3
kli@@ 3
kni@@ 3
l'accueil 3
l'action 3
l'affiche 3
l'aider 3
l'aise 3
l'alcool. 3
l'ancien 3
l'apparence 3
l'arène. 3
l'attention. 3
l'auditoire 3
l'avant, 3
l'avant-plan, 3
l'avion 3
l'aéroport 3
l'enfant. 3
l'enseignant 3
l'entrée. 3
l'espace 3
l'exposition 3
l'image. 3
l'immeuble 3
l'inscription 3
l'installation 3
l'intersection. 3
l'obscurité 3
l'observant. 3
l'oreille 3
l'ouverture 3
l'unisson 3
l'éclairage 3
l'église. 3
l'épicerie. 3
l'épée 3
l'évier 3
label@@ 3
labra@@ 3
lad@@ 3
langue. 3
latex 3
latéral 3
latéralement 3
laverie 3
lei 3
leot@@ 3
leotards 3
lesquels 3
letter 3
lied 3
limon. 3
lings 3
lis 3
live@@ 3
locale. 3
long@@ 3
loun@@ 3
loup 3
lourd 3
lu 3
lui-même 3
lumineux. 3
lutteurs 3
luxe. 3
ly@@ 3
là 3
lèvres. 3
lécher 3
macaque 3
maintenant 3
manchon 3
mangeant. 3
manipulent 3
mannequ@@ 3
mannequins 3
manque 3
manuvrer 3
maquillage. 3
marbre 3
marcher. 3
marches, 3
mari@@ 3
marin@@ 3
marina. 3
marionnette 3
marié. 3
marqueur 3
mas-grain 3
masculine 3
match, 3
matelassé. 3
mati@@ 3
matin 3
matin. 3
mauvais 3
meilleur 3
menus 3
mer, 3
mers 3
meter 3
metri@@ 3
mets 3
mexicain 3
mexicain. 3
microscopes 3
militaire, 3
mini-jupe 3
miniature 3
miroirs. 3
mock 3
moder@@ 3
moines 3
mon 3
moniteur 3
monopole. 3
monster 3
montagneuse 3
montagneux. 3
monte. 3
mort. 3
mortes. 3
morts 3
motard 3
mouton. 3
moyenne. 3
mp 3
mulet 3
murales 3
mutuellement 3
mâcher 3
mécanique 3
médical. 3
métalliques, 3
métier. 3
mêlent 3
nageant. 3
nagent. 3
nager. 3
nament 3
nati@@ 3
navig@@ 3
navire. 3
neck@@ 3
neigeux 3
neigeux. 3
ner@@ 3
neuf 3
nez, 3
nocturne 3
note 3
note@@ 3
notes. 3
notre 3
nourrissent 3
nuages. 3
nue. 3
num@@ 3
numérique. 3
objectif 3
observateurs 3
observer 3
occupé. 3
occupées 3
océan. 3
océanique. 3
oeuf 3
officielle, 3
oiseaux. 3
olli@@ 3
om@@ 3
ombres. 3
ongles. 3
onloo@@ 3
opposé 3
opposés 3
opérations 3
orateur 3
ore 3
orientale. 3
orienté 3
orientés 3
ornement 3
ornementé. 3
ort@@ 3
orteils 3
oth@@ 3
outfielder 3
outil. 3
ouvert, 3
ouvertes 3
overall 3
pacificateur 3
pagaies 3
pages 3
pajamas, 3
pal@@ 3
palais 3
palmier 3
panoramique 3
papillon. 3
parachute. 3
parachutisme 3
parade. 3
parasols 3
parka 3
parlait 3
part. 3
participants 3
parties 3
partout. 3
passerelle. 3
passionnément 3
passé 3
patri@@ 3
patron 3
patrouille 3
patrouillent 3
pattes. 3
peints. 3
pelles. 3
pelouse, 3
penché 3
penchée 3
pensant 3
perceuse 3
perd 3
perçage 3
petit, 3
petit. 3
petite-fille 3
pho@@ 3
photographiée 3
photographiés 3
pier@@ 3
piercings 3
pinata. 3
ping-pong 3
pique. 3
piquet. 3
piquetage 3
pistolet 3
pistolets 3
pittoresque 3
piège 3
placard. 3
placée 3
plaidés 3
plaisir. 3
plancher, 3
planchistes 3
planter 3
plantes, 3
plaques 3
pliantes 3
pliantes. 3
plient 3
pliés 3
pliés. 3
plombant 3
plonger 3
plonger. 3
pluie, 3
plumes, 3
pluviose. 3
pochette 3
poids. 3
poignées 3
poisson, 3
police, 3
policiers. 3
politique 3
poncho 3
ponchos 3
pony@@ 3
portables. 3
portait 3
portatif. 3
porte, 3
porte-monnaie 3
portefeuille 3
porteuse 3
portra@@ 3
portraits 3
posent. 3
positions 3
possible 3
postérieures 3
postérieures. 3
posé 3
potat@@ 3
poteaux. 3
poulets 3
pourpre. 3
poursuivi 3
poussette, 3
poussiéreux 3
pouvez 3
pouvoir 3
prairie 3
pratiquait 3
presse 3
priant 3
prie 3
prient 3
principal 3
principalement 3
prix. 3
professionnel. 3
profi@@ 3
profitent 3
profonde, 3
profonds 3
progra@@ 3
projetée 3
propre. 3
protestation. 3
pré. 3
préférée. 3
préparation. 3
publicités. 3
puces. 3
pulvérisation 3
pulvérisation. 3
pulvérisée. 3
pump@@ 3
pyramide. 3
pâturage 3
qu'on 3
quar@@ 3
quelconque. 3
quelques-uns 3
quitté 3
quoi 3
rabat 3
rad 3
rafraîchissements. 3
rames 3
rampe, 3
rampes 3
ramène 3
rang 3
rapport 3
rapprochent 3
raser. 3
rassemblaient 3
rassemblait 3
rassemble. 3
recevant 3
recouvertes 3
recueillent 3
regarde, 3
reliant 3
relié 3
reliée 3
relâcher 3
rembourrage 3
remorqué 3
remplace 3
rencontre 3
renversé. 3
repose. 3
représentées 3
repère. 3
respiration 3
ressemblant 3
ressort 3
ressortir 3
retirent 3
retirer 3
retriever 3
reçoivent 3
ridicule 3
ridicules 3
ridor 3
rinçant 3
rireaient 3
rires 3
rit, 3
rive, 3
ro 3
robinet 3
rocheuses 3
rot 3
rouillée. 3
rouleau. 3
rouleur 3
rugby, 3
rustique. 3
récemment 3
réconforte 3
récupère 3
réfléchir 3
réfléchissant. 3
réfléchissante 3
réfléchissantes 3
réfléchit 3
réparant 3
réseau 3
réunissant 3
s'abat 3
s'abîme 3
s'adonner 3
s'agir 3
s'alignent 3
s'alimente 3
s'amuse. 3
s'amusent. 3
s'amuseraient 3
s'approchant 3
s'arrêtant 3
s'assaut 3
s'assurer 3
s'attend 3
s'efforçant 3
s'embarrassant 3
s'empressent 3
s'endorme 3
s'enrobe 3
s'enroule 3
s'entraîne. 3
s'essuie 3
s'ils 3
s'intéressent 3
s'échoue 3
s'éclaire 3
s'écraser 3
s'éjecte 3
s'équilibre 3
s'étalant 3
s'étalent 3
s'étendent 3
sablonneuse, 3
sabot. 3
saines 3
sangles 3
saucisses 3
saumon 3
sautent. 3
sauts 3
savent 3
savon. 3
school-@@ 3
scienti@@ 3
scooters. 3
scream@@ 3
scrub 3
scu@@ 3
sculpture. 3
sculptures. 3
sec 3
sees 3
sein 3
selon 3
semblant 3
semelle 3
serpente. 3
serrure 3
serrés 3
servis 3
sh-@@ 3
shin@@ 3
shit 3
signalisation. 3
signaux 3
signent 3
silhouettes 3
similaires 3
simple 3
sine 3
singes 3
skate. 3
skateboarding. 3
skiant 3
skinned 3
snowboarders 3
social. 3
société 3
soeur 3
soient 3
soin 3
soins 3
soir, 3
solaire 3
soldat. 3
sombrero 3
son. 3
sortir. 3
soudeur 3
soudure 3
soulevés. 3
souriants, 3
sous-sol 3
sous. 3
souvenirs 3
spectaculaire 3
spen@@ 3
spir@@ 3
spirale 3
sport@@ 3
spot@@ 3
squelette 3
ssel 3
stap@@ 3
station-service 3
stationnée. 3
stationnés 3
statues 3
stop@@ 3
strobes 3
structures 3
stunt. 3
stylo. 3
stérile. 3
submergée 3
substance 3
suis 3
suit. 3
suivant 3
suivent. 3
supermarché. 3
supervision 3
supérieur 3
surface. 3
suspen@@ 3
suspendus. 3
sy@@ 3
sym@@ 3
tablette 3
tain@@ 3
tait 3
talon 3
tank@@ 3
tant 3
tapissé. 3
tarte 3
taureaux. 3
taxi. 3
technicien 3
technique 3
technique. 3
tenait 3
tenu 3
tenue, 3
terminal 3
termine 3
teste 3
texte. 3
tha@@ 3
tige. 3
tiges 3
tirer. 3
tissé. 3
toast 3
toile. 3
tomates. 3
tombées. 3
ton 3
tondant 3
tondeuse. 3
torche. 3
tortue 3
touristes. 3
touristique 3
tourné 3
tous. 3
trace 3
traditionnelles 3
trains. 3
transporté 3
transportés 3
traversier 3
tremplin 3
tresse 3
tressés 3
treuil 3
triangle 3
triant 3
tricot, 3
tricote 3
tricycle. 3
trie 3
trin@@ 3
trol@@ 3
trombone. 3
tropicale 3
trottoirs. 3
troupe 3
trous 3
trouvant 3
trépidante 3
tter 3
ttery 3
tuer 3
tuile 3
tulipes 3
turquoise. 3
tut@@ 3
téléphoniques 3
unicycle. 3
unusu@@ 3
urbains 3
uro 3
us@@ 3
vacuum@@ 3
vaisselles. 3
veau. 3
vement 3
vendait 3
vendus 3
vent 3
versé 3
veste. 3
vice 3
vide, 3
vie. 3
vigoureusement 3
vin, 3
vin@@ 3
violets. 3
violoncelle 3
vise 3
visibles. 3
visitant 3
vitesse. 3
vitre 3
voile, 3
voilier. 3
voitures, 3
voler. 3
votre 3
voyage. 3
voyageurs 3
vro@@ 3
véhicules. 3
waff@@ 3
walk@@ 3
walkie 3
ware 3
water. 3
windo@@ 3
wir@@ 3
woo@@ 3
wrest@@ 3
xylophone. 3
yo-yo 3
zone. 3
zoo. 3
échange 3
échecs 3
échelles 3
éclabousser 3
éclaboussé 3
éclaboussée 3
éclaire 3
éclairent 3
éclairées 3
éclatant 3
éclatantes 3
écoute. 3
écureuil 3
édifice. 3
électricien 3
électriques 3
électroniques. 3
élevage 3
élevée 3
élévateur 3
élévateur. 3
énormes 3
épais 3
épaisse. 3
épinglettes 3
éponge 3
épée. 3
épées 3
épées. 3
équestre 3
étages 3
étanche 3
éteignant 3
étendant 3
étendue. 3
étendus 3
étendus, 3
étirent 3
étonne. 3
étrangement 3
étudient 3
évacue 3
éventail 3
$ 2
(ou 2
(portant 2
(un 2
,@@ 2
000 2
1. 2
100 2
13 2
14 2
2008. 2
24 2
40 2
5. 2
50 2
6. 2
63 2
A 2
A. 2
Adolescent 2
Africains 2
Airways. 2
America. 2
Amish 2
Amishe 2
Amérindiens 2
An 2
Angels 2
Apple 2
Après 2
Artiste 2
Asian 2
Asiatique 2
Attendre 2
BMW 2
Ballerina 2
Baltimore 2
Barbie. 2
Bateau 2
Belle 2
Bicyclistes 2
Big 2
Bill 2
Blond 2
Blue 2
Bon 2
British 2
Brunette 2
Bull. 2
Business 2
Bâtiment 2
Cafe. 2
Californie 2
Capris 2
Car 2
Care 2
Castro 2
Caucasiens 2
Chef 2
Chine, 2
Climber 2
Company. 2
Construction 2
Coureurs 2
DJ, 2
DS 2
Dame 2
Dane 2
Danse 2
Darth 2
Dog 2
Enrolling 2
Europe 2
Face 2
Ford 2
France. 2
Fêtes. 2
Gap. 2
Gardes 2
Greyhound 2
Groucho 2
Heineken. 2
Hello 2
Hopper 2
Houston 2
I 2
Indienne 2
Indiennes 2
Internet 2
Island. 2
Jeep 2
Jim 2
Joe's 2
John's 2
Jésus 2
Kayak 2
KitchenAid, 2
KitchenAid. 2
L'artiste 2
L'athlète 2
L'escaladeur 2
L'une 2
Lakers. 2
Las 2
LeBron 2
Lego 2
Life 2
Live 2
London 2
Londres, 2
Los 2
Louvre. 2
Love 2
Marché 2
Marine 2
Marx. 2
Michael 2
Mike 2
Mme 2
Monopoly. 2
NY 2
Needle. 2
Notre 2
Nouvel 2
O 2
Observation 2
Oh 2
Oklahoma 2
Onze 2
Orchestre 2
Orioles 2
Oxford 2
Pabst 2
Park 2
Patinage 2
Patineur 2
Penn 2
Photographes 2
Pizza 2
Pokemon. 2
Power 2
Préparer 2
Pâques. 2
Pêcheur 2
Pêcheurs 2
Radio 2
Renaissance 2
Rodgers 2
Saint-Patrick. 2
San 2
Scene 2
Sesame 2
Shop. 2
Sitting 2
Siégé 2
Skieur 2
Skieurs 2
Spectateurs 2
SpongeBob 2
Spongebob. 2
SquarePants. 2
St 2
St. 2
State 2
State. 2
Story. 2
Street 2
Street. 2
Subway 2
Sud-Est. 2
Tenant 2
Texas. 2
Thomas 2
Tim 2
Touristes 2
Toutes 2
Travailler 2
Union 2
Vegas 2
Vendeur 2
Vendeurs 2
Volkswagen 2
Walkman 2
Wonder 2
Yamaha 2
Yamaha. 2
ab 2
abaissé 2
abandonnée. 2
abdomen 2
abeille 2
abrupt 2
acceptant 2
accepte 2
accessoires 2
acclame. 2
accompagnée 2
accomplissent 2
accroche 2
accrochée 2
accrochées 2
accueille 2
accès 2
accélère 2
achalandée, 2
acharné 2
achetant 2
achèvent 2
acoustique, 2
acrobati@@ 2
acrobaties. 2
actions 2
activités, 2
ade 2
adi@@ 2
adolescentes, 2
adolescents, 2
adorable. 2
afin 2
africain, 2
africain. 2
africaines. 2
agencés 2
agente 2
agiter 2
agité 2
agricole. 2
agriculteurs 2
aidant 2
aidé 2
aidée 2
aiguilles 2
ajustent 2
ajuster 2
album 2
alignées. 2
alimentaires. 2
alimentant 2
allaitant 2
alley. 2
allumer 2
allumée 2
allumée. 2
alt@@ 2
aléatoires 2
amarré. 2
ambulance 2
amie 2
amm@@ 2
ammer 2
amoureux 2
ampoule 2
aménagée. 2
américaines 2
américains, 2
ananas 2
anciennes 2
anciennes. 2
anciens, 2
anciens. 2
ander 2
animal, 2
animéement 2
anneaux 2
annonces 2
année 2
anorak 2
antique 2
aplaudissent. 2
apparaît 2
appartenant 2
appelée 2
applaudissent 2
applaudissent. 2
appliquer 2
appliqué 2
apportent 2
apprenant 2
approa@@ 2
approchent 2
approchés 2
approprié. 2
apprécier 2
appréciée 2
appui 2
appuyant 2
aqua. 2
aquarium. 2
aquatique 2
arbustes 2
argent, 2
argent. 2
aride 2
armes. 2
armoire 2
armées 2
aro@@ 2
arriver 2
arrosant 2
arroseurs 2
arrêtent 2
arrêtent. 2
arrêtés 2
artificielle. 2
asiatiques. 2
asphaltée 2
assistants 2
assiste 2
assistent. 2
assisté 2
athlètes, 2
atmosphère. 2
attachent 2
attaquant 2
attaquent 2
attaquer 2
attendait 2
attendant. 2
attente. 2
atterri 2
atterrissage. 2
aucune 2
aurait 2
aussi. 2
autocar 2
autoroute 2
auvent 2
avant-bras 2
aventureux 2
averti 2
aveuglement 2
avire 2
aviron 2
avoisinent 2
aéronef 2
aéronef. 2
aînés 2
aînés. 2
backflip 2
bad 2
bagage 2
baie 2
baignent. 2
baigneurs 2
bains. 2
baise. 2
baisse 2
balanc 2
balançoire, 2
balançoires 2
balles. 2
ballonnier 2
bambou 2
ban 2
banane. 2
bandage 2
bandan@@ 2
bandanas 2
bande, 2
banque 2
barbelés. 2
barreau 2
barricade 2
barricades 2
barrières. 2
baskets. 2
batman. 2
battage. 2
batte 2
battent, 2
batterie 2
batteur. 2
bazar 2
beau@@ 2
beauté 2
beignets 2
belly 2
benne 2
bergers 2
berline 2
bes 2
besoin 2
besoin. 2
beurre 2
bibliothèque, 2
bicyclistes 2
bijouterie 2
bikin@@ 2
bikini. 2
billboard. 2
billes. 2
billets 2
billots. 2
biscuit 2
bistro. 2
bite. 2
bizarre. 2
bières 2
blea@@ 2
blessures. 2
blessé, 2
blessé. 2
blessée 2
bleu-vert 2
bleu-vert. 2
blond, 2
blond-@@ 2
bloquée 2
blouson 2
blue@@ 2
blé. 2
boa 2
boar@@ 2
bobine 2
bocaux 2
boeuf 2
boeuf. 2
boeufs 2
boisée, 2
bonheur 2
bonnet 2
born 2
bott@@ 2
bouchon 2
bouclage 2
bouclant 2
boucliers 2
bouclés 2
boudin 2
boulanger 2
boulangerie, 2
boules. 2
bouncy-ballet. 2
bouncy. 2
bourraient 2
bourré 2
bousculent 2
boutonnée 2
boutons. 2
bouée. 2
bowler 2
bowling, 2
boxent 2
brides@@ 2
briser 2
brisé. 2
brisée 2
britannique 2
brochures. 2
brosses. 2
brousse. 2
brunes, 2
brunettes 2
brusque. 2
bruyant 2
bruyante. 2
brûlant 2
brûle 2
bst 2
buanderie 2
buff@@ 2
bungee 2
bungee. 2
bus@@ 2
buvait 2
bâtonne 2
bâtonnet, 2
béanie 2
bébés, 2
béchet 2
béluga 2
béton, 2
bûcheur 2
c'est 2
c-@@ 2
cabane. 2
cacher 2
cachée 2
cages 2
cagoule, 2
cagoules 2
cahier 2
cahier. 2
cailloux 2
calendrier 2
calmement 2
camer@@ 2
camion-camion 2
camion-pompe. 2
camionnette 2
camionnette. 2
camions-pompiers 2
camisole 2
camouflage, 2
camper 2
caméraman. 2
caméscope 2
canadien 2
canadien. 2
canadiennes 2
canadiens. 2
canapés 2
canard. 2
cand@@ 2
canon. 2
canots, 2
capitaine 2
capte 2
capture. 2
capturé. 2
caravane 2
cargo, 2
carrelage 2
carrousel 2
cartouches 2
cas 2
casques. 2
casquettes. 2
casseroles 2
casuals 2
catamaran 2
cause. 2
cele@@ 2
celle 2
cellulaires 2
cendres. 2
centrée 2
cercles. 2
cerisiers 2
cers 2
chacune 2
chalet. 2
chameaux. 2
champagne. 2
chandail. 2
chandelles 2
chant 2
chante, 2
chargeant 2
chargement. 2
chargent 2
chargés 2
chariote 2
chassée 2
chaudes. 2
chauve-souris, 2
chef, 2
cheminée 2
chemises. 2
chercheurs 2
chevaux, 2
chevelure 2
chevet 2
cheville 2
chien-grignot 2
chiffons 2
chinois, 2
chinoises. 2
chirurgical 2
chirurgicale 2
chocolat. 2
chocolatée. 2
choeur. 2
choisir 2
choix 2
chorale 2
chur@@ 2
chèques 2
cible, 2
cibles 2
cigare, 2
cigare. 2
cigarettes. 2
cil 2
cirage 2
circuit 2
circulaire. 2
circulaires 2
cire 2
cireur. 2
ciseaux. 2
citadine 2
citron. 2
citrons 2
citrouille. 2
civils 2
cken 2
clair, 2
claires. 2
clairière 2
clairs. 2
clappe. 2
claquent 2
class@@ 2
classi@@ 2
classique, 2
classiques, 2
clique 2
cloison 2
clos 2
close@@ 2
clous 2
clowns, 2
clé 2
clé. 2
coasteur 2
coco. 2
coeur 2
coiffe 2
coiffeur 2
coiffures 2
coin, 2
colis 2
colle 2
collecte 2
collier. 2
colliers. 2
colline, 2
collision 2
collègue. 2
collégial 2
coloniale 2
colonne. 2
colorant 2
colorent 2
combats 2
comique. 2
commandant 2
commander 2
commander. 2
commence. 2
commencer. 2
commercial, 2
commun, 2
communautaire 2
commune. 2
communique 2
communiquent 2
commémoratif 2
commémorative 2
compagnie. 2
compartiment 2
complets 2
complexe. 2
composées 2
compteur 2
compétence 2
compétitifs 2
concurrents, 2
conductrice 2
conduire. 2
conduit. 2
confiance 2
confortablement 2
conférences. 2
conférencière 2
congelé 2
connaître 2
console 2
construite 2
consulte 2
consultent 2
contenant. 2
contenu. 2
contingent 2
contraption. 2
conversations 2
conversent. 2
conçu 2
copie 2
copine 2
coquillages 2
cordon 2
cordon. 2
cordons 2
cornemuseur 2
cornemuseurs 2
cornes 2
corporelle 2
costumes, 2
coteau. 2
cou, 2
couchage 2
coucher. 2
couches. 2
couchés 2
couloir. 2
coupé. 2
cour, 2
courbé. 2
courent. 2
courer 2
coureurs, 2
courge 2
courroie 2
couru 2
coussin, 2
cousu 2
couteau, 2
couteaux 2
couturière 2
couvercles 2
couvert, 2
coéquipiers. 2
crabes 2
creuser 2
crevettes. 2
criant. 2
cricket, 2
crocodile 2
croisement. 2
croissance 2
croisée 2
croisées 2
croisées, 2
croisés 2
crue 2
crânes 2
créature 2
créé 2
cture 2
cue 2
cuir, 2
cuisinait 2
cuisinière, 2
cuisson. 2
cuite. 2
cuites 2
cultivent 2
cur, 2
cuve 2
cyclable 2
cyclent 2
cyclistes. 2
cyclothécaire 2
cygne. 2
cygnes 2
câble. 2
célébration 2
céréales. 2
cône. 2
côtière 2
côté, 2
d'Africains 2
d'Amérique. 2
d'Asiatiques 2
d'Elmo 2
d'Espagne 2
d'Halloween. 2
d'Indiens 2
d'Oakland 2
d'accueil. 2
d'acheter 2
d'acheteurs 2
d'acier 2
d'affaires, 2
d'affichage 2
d'agilité. 2
d'ailes 2
d'algues 2
d'algues. 2
d'alimentation. 2
d'aller 2
d'amusement 2
d'ange 2
d'ange, 2
d'ange. 2
d'anges 2
d'animal. 2
d'anneau 2
d'antan 2
d'appui 2
d'arachides. 2
d'arcade 2
d'armes 2
d'arrosage 2
d'arrêt. 2
d'articles. 2
d'artifice. 2
d'ascenseur. 2
d'aspirateur. 2
d'assouplissement 2
d'atelier. 2
d'athlètes 2
d'attaque 2
d'atterrir 2
d'auto 2
d'autobus, 2
d'automne 2
d'autre. 2
d'avertissement. 2
d'avion, 2
d'avion. 2
d'effectuer 2
d'elles 2
d'emballage. 2
d'enfant. 2
d'ensemble 2
d'entrer 2
d'entrée 2
d'escalier. 2
d'essai 2
d'essai. 2
d'essayer 2
d'exercice. 2
d'exposition 2
d'hanger 2
d'herbe, 2
d'homme. 2
d'huile. 2
d'hôpital 2
d'hôtel. 2
d'intéressant. 2
d'objets 2
d'objets. 2
d'obstacle 2
d'oeuvre 2
d'oeuvres 2
d'offre 2
d'opération 2
d'or, 2
d'ordinateurs. 2
d'oreille 2
d'oreilles. 2
d'outils. 2
d'usine 2
d'écharpes 2
d'éclairage 2
d'écoliers 2
d'écoute. 2
d'égout. 2
d'élevage 2
d'éléphants 2
d'émeute, 2
d'énormes 2
d'épée 2
d'érable 2
d'étoffe 2
d'étoile 2
d'études 2
d'étudier 2
dactylographiant 2
dalles 2
dame. 2
dandelion. 2
danseurs, 2
demandent 2
demi-cercle 2
demi-mur 2
demi-pipe 2
dent 2
dentiste 2
descendent. 2
descente. 2
desserts 2
devises 2
devoirs. 2
devons 2
didgeridoo 2
die@@ 2
difficile 2
difficile. 2
différente 2
différente. 2
différentes, 2
différents, 2
différents. 2
dimanche 2
dindons 2
diners 2
diplôme 2
diplômé 2
diplômé. 2
directeur 2
diriger 2
dirigée 2
dirt-bike 2
discothèque. 2
discuter. 2
disputée 2
distingue 2
distribuant 2
distribuer 2
distributeur 2
divers. 2
diverses. 2
document. 2
documentation. 2
donc 2
dormi 2
dormir 2
dormir. 2
doré. 2
dorée 2
dorés 2
douce 2
douceur. 2
douche. 2
douleur 2
doux. 2
drag@@ 2
dragon. 2
drainage 2
drainage. 2
drapeau, 2
drapée 2
dread@@ 2
dreads 2
droit, 2
droit. 2
drôle. 2
drôles. 2
dul@@ 2
dur@@ 2
dut@@ 2
dy@@ 2
débarrasser 2
décharge. 2
déchargeant 2
déchargement 2
déchargé 2
décollage 2
décombres. 2
décor 2
décoratif 2
décoration 2
décorations. 2
décoratives 2
décors 2
découvre 2
dédale 2
défend 2
défendent 2
défenseur. 2
défenseurs 2
défenseurs. 2
défi 2
déjà 2
délabrée 2
délabrée. 2
délabrés 2
délicieux 2
démanteler 2
démonstration. 2
démontre 2
département 2
dépasser 2
déposés 2
dérangeant. 2
dérive 2
déserte 2
détail 2
détails 2
détergent 2
détourne 2
dînent 2
dôme. 2
d’un 2
d’une 2
eau, 2
effectuant 2
effrayée. 2
eh@@ 2
ein@@ 2
eine@@ 2
elt 2
embouteillée. 2
empilant 2
emporte 2
emporter 2
ena 2
encaissant 2
encercle 2
enchantés 2
enchaîné 2
enchevêtrées 2
enchevêtrés 2
endommagée 2
endommagée. 2
ene 2
enflammée 2
enfoncer 2
enfoncée. 2
enfoncés 2
enfoncés. 2
enfouie 2
enfouie. 2
engrenage 2
enlevant 2
enlever 2
enlèvent 2
enneigé, 2
enneigée, 2
enrobes 2
enrouler 2
enseigné 2
ental 2
entamer 2
entran@@ 2
entraîneurs 2
entraîné 2
entre@@ 2
entreprise. 2
entrepôt 2
entri@@ 2
envahi 2
envahie 2
envelopper 2
enveloppes 2
environs 2
envolé 2
ern@@ 2
escal@@ 2
escalada 2
escalader 2
escargot. 2
escarpé 2
escortent 2
escortée 2
espace. 2
espagnols 2
estomac. 2
ethnies 2
ethniques. 2
ev@@ 2
even@@ 2
examens 2
examiné 2
excavateur 2
excitées 2
excursion 2
exerce 2
explore 2
explorer 2
expose 2
exposition. 2
expériences 2
expérimenté 2
extraire 2
extrémités 2
extrême 2
fabriquent 2
face, 2
fait. 2
faite 2
faites 2
falaise, 2
falaises 2
familles 2
fan. 2
farine 2
farine, 2
fatigue 2
fatiguée 2
faune 2
fausses 2
fauteuil, 2
façonner 2
fendelle 2
fermement 2
ferraille 2
festif. 2
feu, 2
feuillage. 2
ffe 2
ficelle 2
fidèles 2
fierté 2
figurines 2
file. 2
film@@ 2
filme. 2
fini@@ 2
finit 2
fixant 2
fixation 2
fixent 2
fixé 2
fixée 2
fièrement 2
flag. 2
flag@@ 2
flambants 2
flanelle 2
fleurerie. 2
fleurie. 2
fleuve. 2
flops 2
florals. 2
flottante. 2
flottantes. 2
flottants 2
flous 2
fluant 2
fluorescent 2
fluorescents 2
fléchette 2
fléchette. 2
flûte. 2
flûtes 2
fonctionner 2
fonctions 2
foncés. 2
fontaine, 2
fontaines. 2
forestier 2
foreur 2
foreur. 2
forge 2
forge. 2
forme. 2
formes 2
formé 2
fort. 2
fortement 2
fortune. 2
fosse. 2
fossé 2
foue. 2
fouet. 2
fougères. 2
foulard. 2
fourche 2
fourchette 2
fourchette. 2
foyer. 2
frais, 2
fraises 2
franchissent 2
français. 2
française 2
frapper. 2
frappés 2
fraîches. 2
frei@@ 2
frire. 2
frisbe@@ 2
frisbee, 2
frites 2
froides. 2
frottit 2
fruits, 2
frustré. 2
frères 2
ful@@ 2
fument 2
fumer. 2
fumier 2
fusil, 2
fusils. 2
fusée 2
félicite 2
fêtes. 2
fût 2
gagne 2
gagne. 2
galerie. 2
gall@@ 2
gardiens 2
garni 2
garées. 2
gaz. 2
geh@@ 2
gel 2
gelé 2
gelée. 2
gement 2
gen 2
geri@@ 2
gestuant 2
giclée 2
girouette. 2
git@@ 2
glacière 2
glacière. 2
glisseuse 2
go-kart 2
go-kart. 2
go-karts 2
goatee, 2
golf, 2
golfeurs. 2
gonflable, 2
gonflables. 2
gonflé 2
gonflés 2
gorge. 2
gos 2
gouttelettes 2
gouvernement. 2
graffit@@ 2
graines. 2
graminées 2
grand-mère 2
grand-père 2
grande, 2
grange. 2
grappes 2
gras@@ 2
grass. 2
gratter 2
grenade 2
grenaille. 2
grenouille. 2
griffe 2
griffes. 2
grill, 2
grillade 2
grille-pain 2
grilles 2
grillés. 2
grimaçant 2
grince 2
grises, 2
grotte. 2
guerre. 2
guerrier 2
gueule 2
guide. 2
guident 2
guitares. 2
gâteaux, 2
gâteries. 2
géants, 2
géisha 2
habillées, 2
habillés, 2
habitants 2
hachette 2
hameçonne 2
hanche. 2
hanches. 2
handicapé 2
hard@@ 2
harmonie 2
haut-parleur. 2
hauts. 2
head. 2
hei@@ 2
herbes. 2
herbée 2
herd 2
heureuse, 2
heureuse. 2
heureuses 2
hijab 2
hipsters 2
historique 2
historiques. 2
hivernale 2
hoops. 2
hopscotch. 2
horloge. 2
hors. 2
hotdog. 2
hout 2
hug@@ 2
hula-hoops 2
huttes. 2
hy@@ 2
hydr@@ 2
hélices 2
hélios 2
héron 2
hôpital, 2
hôtel 2
identifiée 2
iler 2
illuminée 2
illustrant 2
images. 2
imitation 2
imprimée 2
imprimés 2
incendies 2
inclinaison 2
inclinées 2
inconnue 2
indienne, 2
indienne. 2
indigène 2
indiquant 2
industrielle 2
inform@@ 2
informations 2
informatique. 2
informel 2
informelle 2
inférieure 2
inférieures 2
ington 2
inhabituelle. 2
inhabituels 2
inoxydable. 2
inspecteurs 2
installation 2
installent 2
installé 2
installée 2
instructeurs 2
instructions. 2
interagit 2
interroge 2
interviewe 2
interviewée 2
intrigué 2
intéressant. 2
intéressante. 2
intéressantes. 2
intéresse. 2
intérêt. 2
invisible 2
invisible. 2
invol@@ 2
irrité 2
irts 2
is@@ 2
islamique 2
isolée 2
j'ai 2
janiteur 2
jazz 2
jetant 2
jetée, 2
jeudi 2
jogging, 2
jolie. 2
jolis 2
jongler 2
jonglerie 2
jonglerie. 2
jouatrice 2
jouet, 2
journalistes 2
joyeuses 2
juge 2
jugent. 2
juges. 2
juif 2
jusqu'aux 2
ke-@@ 2
kets 2
kickboxer 2
kickboxing, 2
kickboxing. 2
kicker 2
kimon@@ 2
kiosque. 2
klein 2
ku@@ 2
l'Afrique 2
l'Est 2
l'Halloween. 2
l'Iowa 2
l'abri 2
l'accent 2
l'accompagne 2
l'achat, 2
l'acier. 2
l'activité 2
l'affection 2
l'agrippe. 2
l'aiguille. 2
l'alopeur, 2
l'ancienne 2
l'approche. 2
l'argile 2
l'argile. 2
l'arrière, 2
l'arène 2
l'ascension 2
l'asphalte. 2
l'assaut 2
l'assiette. 2
l'aube 2
l'auditoire. 2
l'aveugle, 2
l'enseigne 2
l'entourent. 2
l'entretien 2
l'envers, 2
l'escalade 2
l'essence 2
l'extrême 2
l'harmonique 2
l'harmonique. 2
l'hôtel. 2
l'immeuble. 2
l'impression 2
l'information 2
l'obscurité, 2
l'observe, 2
l'oeuvre 2
l'oeuvre. 2
l'oiseau 2
l'or 2
l'ordre 2
l'ouest, 2
l'utilisation 2
l'échafaudage. 2
l'échec. 2
l'écoutent. 2
l'écran. 2
l'écrit 2
l'élagage 2
l'électricité. 2
l'épaule, 2
l'épicerie 2
l'étang. 2
l'évier. 2
l'événement 2
labor 2
labradoodle 2
lacets 2
laissant 2
laisse, 2
laissent 2
laisser 2
laissé 2
laiton. 2
lampe. 2
lancée 2
lanternes. 2
lapse 2
laptop. 2
large. 2
larmes 2
latino-américain 2
lavabo 2
lavande 2
lave-fenêtres 2
lave-linge 2
lave-vaisselle 2
lecture. 2
lentilles 2
letes 2
lettre 2
levées 2
levées. 2
liberté 2
liberté. 2
librairie 2
librairie. 2
libère 2
ligue, 2
limo 2
limon 2
ling@@ 2
lingerie 2
lingerie. 2
lisant. 2
lise. 2
lisse. 2
liste 2
lits 2
liée 2
lly 2
locks 2
locomotive 2
locomotives 2
loin. 2
long. 2
longs. 2
longues. 2
lorsqu'ils 2
los 2
loterie 2
lourd, 2
lourde. 2
lourdes. 2
lows 2
luge 2
lun@@ 2
lung 2
luttent 2
luxe 2
luxueux 2
luxuriant. 2
luxuriante. 2
léchissant 2
léger. 2
légume. 2
léopard. 2
l’air 2
mac. 2
mach@@ 2
machines. 2
magnifique. 2
maintien. 2
mal, 2
mallet 2
manche 2
manger, 2
manipule 2
manteaux. 2
manuelle 2
manuels 2
manuvrant 2
manuvre. 2
maracas 2
marchaient 2
marchandises, 2
mari. 2
mariachis 2
marie 2
marient 2
marient. 2
marine. 2
marins 2
maritime. 2
marié, 2
mariées 2
maroon. 2
marquer. 2
marquée 2
marteaux 2
martini. 2
marécageux. 2
masculins. 2
masque, 2
massage 2
masse 2
massive 2
matador 2
matraques. 2
mau@@ 2
mauvaise 2
maçonnerie. 2
meilleure 2
melon 2
menant 2
mermaide 2
messager 2
messagerie 2
meuble. 2
meubles, 2
meunier 2
meuniers 2
mi-chemin 2
microphones, 2
milieu, 2
militaire. 2
mince, 2
mine 2
mineurs 2
miniature. 2
miniatures. 2
minivane 2
minuscules 2
mir@@ 2
mode. 2
model@@ 2
modèles 2
modélisation. 2
mongol 2
monnaie 2
montagneuse. 2
montagneux 2
montait 2
monteur 2
monticule. 2
monticules 2
montre, 2
monument. 2
morte. 2
mortier 2
mosquée. 2
moteur. 2
motifs. 2
motocross. 2
motocyclistes, 2
motoporte 2
mouche 2
mouettes. 2
mouillé, 2
moule. 2
moulin 2
moulin, 2
moulin. 2
moun@@ 2
mountain. 2
mousseuse 2
moyenne, 2
multicolor 2
musclé 2
musicales. 2
musiciens, 2
musiciens. 2
mustang 2
musulmane 2
mâcher. 2
mâssant 2
mécanicien 2
mécanique. 2
médailles 2
médicaux 2
médicaux. 2
méditant 2
médiévale 2
mégaphone 2
mégaphone. 2
mélangeant 2
mélangent 2
métallique, 2
métropolitaine. 2
nager 2
nageront 2
natale. 2
naturel. 2
naturelle. 2
navette 2
navetteurs 2
navi@@ 2
neigeuse 2
neigeux, 2
neigh@@ 2
ners 2
nettoyé 2
niveaux 2
nom. 2
noms 2
nos 2
nouilles. 2
nourrir. 2
nu@@ 2
nuances 2
nues 2
nues. 2
néerlandaise 2
néon, 2
objectif. 2
objets. 2
observe. 2
observée 2
obstacles. 2
occasion 2
occupent 2
occupés. 2
oce@@ 2
oculaire 2
offi@@ 2
officielle. 2
offrent 2
oies 2
olive 2
olympi@@ 2
ombragée. 2
ong@@ 2
opinions 2
opposées. 2
orange-@@ 2
orange-rouge 2
orchestre, 2
ordinaire 2
oreiller. 2
oreillers. 2
organisent 2
organisé 2
organisée 2
oriental. 2
orientaux 2
orientées 2
ornemental. 2
ornementée 2
ornementés 2
orné. 2
ornée 2
ornée. 2
ours. 2
outf@@ 2
outils. 2
ouverts 2
pa 2
pagaie. 2
pagayage. 2
pagayeurs 2
page 2
paie 2
paillis. 2
pains 2
paires 2
pairs. 2
paisible. 2
pajam@@ 2
pajamas. 2
panache 2
panda 2
paniers. 2
panne 2
pantalons. 2
paper@@ 2
papier, 2
paquets 2
paquets, 2
parachutes 2
parachutiste. 2
paral@@ 2
parallèlement 2
parapente 2
parapluies, 2
pare-brise 2
park. 2
parks 2
parle, 2
partenaire. 2
partent 2
participants, 2
particulier, 2
partment 2
pas, 2
pas. 2
passant. 2
passionné 2
pastel. 2
pasteur 2
patiemment 2
patineurs. 2
pauvre. 2
pauvres 2
pauvreté 2
payant 2
paysager. 2
peacock 2
peacock. 2
peignoir. 2
peignoirs 2
peint, 2
peinte. 2
peintre. 2
peintres 2
peinture, 2
peintures. 2
pel 2
pelage 2
peller 2
pelleuse 2
peluche, 2
pelure 2
pente, 2
percer 2
perché 2
percussion 2
perdu 2
perforations 2
perle 2
perles. 2
perruques. 2
perçages 2
perçait 2
pesant 2
pese 2
petite, 2
pf 2
ph 2
phare. 2
pharmacie 2
photographe, 2
piano, 2
pic@@ 2
pied, 2
pieds, 2
pieu. 2
pieuvre 2
pilote. 2
pin. 2
piquer 2
piquets 2
pirates 2
pirates. 2
pistes. 2
pizzarie 2
pièces. 2
piétonnier 2
placer 2
plaid, 2
plaide, 2
plaide. 2
plaisanciers 2
planches. 2
planeurs 2
plantation 2
plateau. 2
plateforme 2
plein, 2
ples 2
pleurer. 2
pli 2
pliant 2
plie. 2
plis 2
plis. 2
pliés, 2
plongé 2
plongée, 2
plupart, 2
plutôt 2
pluvieux 2
pneus, 2
poches. 2
poignets. 2
poing. 2
poings 2
pok@@ 2
poker 2
policier. 2
polka-dots 2
pollution. 2
polo. 2
pomme, 2
pomme. 2
pommes. 2
pompe 2
pompier. 2
pompiers, 2
pompiers. 2
pompons 2
pondérale 2
poney. 2
pont, 2
porcs 2
porte-bébé 2
porte-bébé. 2
portes. 2
portée. 2
position. 2
possi@@ 2
possède 2
post-it 2
posée 2
posés 2
pot. 2
poubelles 2
pouces 2
poulet. 2
poulie 2
poupées. 2
pourrait 2
pourriez 2
poussiéreuse. 2
poutre. 2
pouvons 2
poêle 2
poêle. 2
presen@@ 2
presse. 2
pression 2
primitif. 2
princesse 2
principale 2
printemps. 2
problème 2
procession 2
produits, 2
professeur. 2
professeurs 2
professionnelle, 2
profil 2
profondément 2
programmes. 2
projection 2
projection. 2
promenade, 2
promise. 2
prononcer 2
propane 2
propos. 2
propres 2
propriétaires 2
propulsée 2
protecteurs 2
protecteurs. 2
proteste 2
protège-oreilles 2
proximité, 2
près. 2
préparait 2
préscolaire 2
présentation. 2
présentés 2
préservatifs 2
prêts. 2
ption 2
pub. 2
publicité. 2
publicités 2
puces 2
puisse 2
pulvérisateur. 2
pulvériser 2
pulvérisés 2
puzz@@ 2
pyramide 2
pâles 2
pâtisserie. 2
pâtissier 2
pâturent 2
pâté 2
péage. 2
pédalent 2
pédaler 2
pédestre 2
pélican 2
pénétrer 2
période 2
pétanque 2
pêchant 2
pêche, 2
pêcher 2
qu'au 2
quart 2
quatuor 2
quel 2
quelconque 2
questions 2
queue. 2
queues 2
quotidien. 2
quotidienne 2
qu’un 2
rabattent 2
raccordé 2
racines. 2
racquet 2
rade 2
raffiné 2
raffiné. 2
raffinée. 2
rafraîchissante 2
rafraîchissante. 2
rafraîchit 2
rafting, 2
rails. 2
raison 2
ramassé 2
ramenant 2
ramenent 2
rames. 2
randonneurs, 2
rapprochée 2
rapprochée. 2
rasage. 2
rase, 2
rasoir. 2
rassemblant 2
rassure 2
rasé 2
rayon 2
rayures, 2
rayés. 2
rebord 2
reboîte 2
rechange. 2
recouvraient 2
rectangulaire 2
recueillant 2
recueille 2
recyclage. 2
regal 2
regardaient 2
regards 2
regardé 2
regroupés 2
relaxe 2
relaxent. 2
religi@@ 2
reliure. 2
rembourrage. 2
remorquage 2
remue 2
remuer 2
rench 2
rendent 2
rendue 2
rentrent 2
rentrer 2
rentrée 2
renversant 2
renversement. 2
renversée. 2
reo@@ 2
repair@@ 2
repas, 2
repasser 2
reportage 2
repos. 2
repousse 2
reprennent 2
représentant 2
représentation. 2
représente 2
rescousse 2
restent 2
retombant 2
retrace 2
retrouve 2
revenant 2
revers. 2
reversant 2
reverse 2
revient 2
revue 2
rickshaw. 2
rickshaws 2
rideaux 2
ridicule. 2
ried 2
ring. 2
rire, 2
rireant 2
risque 2
rituelle 2
riveraine. 2
robes, 2
robes. 2
rocher, 2
rochers, 2
rocheuse, 2
roll@@ 2
rond, 2
ronde. 2
rondes. 2
roof@@ 2
rouillé. 2
roulottes. 2
roulée 2
rout@@ 2
routiers. 2
ruban. 2
rug@@ 2
ruine 2
râteau. 2
règleur 2
réaction. 2
réchauffent 2
récoltant 2
récréatif 2
réduit. 2
réel. 2
réfléchissant 2
réfrigérateur 2
réfugient 2
référence 2
référend 2
réglage 2
réjouit 2
réparateur 2
répond 2
répondent 2
résidence 2
réunit. 2
réussi 2
réussit 2
réveille 2
s'abonne 2
s'accouchant 2
s'accroupe 2
s'accroupissent 2
s'acquittent 2
s'affairent 2
s'affecte 2
s'affronte 2
s'affrontent 2
s'ajuster 2
s'alignaient 2
s'amusera 2
s'approchent. 2
s'approcher 2
s'approvisionnent 2
s'apprêtent 2
s'appuient 2
s'assemblent 2
s'assiant 2
s'assisait 2
s'assise. 2
s'assoignent 2
s'attachent 2
s'avance. 2
s'embarrasse 2
s'emparant 2
s'employant 2
s'enchaînant 2
s'enflamme. 2
s'enfonce. 2
s'enfouit 2
s'enfuient 2
s'enfuir 2
s'enfuit. 2
s'engagent 2
s'enlève 2
s'ennuie. 2
s'entourant 2
s'entraîner. 2
s'entretenant 2
s'entretenir. 2
s'exprimant 2
s'inscrit 2
s'intéresse 2
s'occupaient 2
s'occupant 2
s'échauffent 2
s'éclaboussent 2
s'écrasant 2
s'éloigne. 2
s'équats 2
s'établissent 2
s'étalait 2
s'éteint 2
s'éteint. 2
s'éternue. 2
s'étonnent 2
s'évacue 2
s'évade 2
sablonneux. 2
saboteur 2
sache 2
saigne. 2
saignent 2
sait 2
salade 2
salade. 2
sale, 2
salle, 2
salle. 2
salue 2
samurai 2
sanctuaire 2
sandale 2
sandwi@@ 2
santé. 2
sar@@ 2
sauce 2
saucisse 2
sauna. 2
saut, 2
sauteur 2
sauts. 2
sauve 2
sauver 2
sauveteurs 2
save. 2
savonne 2
saxophones 2
saxophoniste 2
scaffol@@ 2
scen@@ 2
schi@@ 2
schie@@ 2
scho@@ 2
scient 2
scientifiques 2
scolaire, 2
scout 2
scouts. 2
scriture 2
scriture. 2
scul@@ 2
sculpté. 2
secon@@ 2
secours 2
secours. 2
secs 2
secteur. 2
sections 2
secur@@ 2
seh@@ 2
sely 2
semi-cercle 2
semi-formelle 2
sens. 2
sentiers 2
seront 2
serre 2
serrent 2
serrer 2
serré 2
serveur. 2
servir. 2
servissant 2
seule. 2
seulement 2
shaw@@ 2
shop@@ 2
shots 2
shoul@@ 2
sidel@@ 2
signal 2
signaler 2
simplement 2
simultanément 2
singes. 2
singing. 2
sinueuse. 2
sirot 2
sièges. 2
skient 2
skim-boarding 2
skit 2
sle 2
soda. 2
soft@@ 2
soi. 2
soie 2
sommets 2
somnolé 2
sort. 2
sortent. 2
souche 2
soudage. 2
soudant. 2
soudent 2
soulevé. 2
soulevée 2
soulevés, 2
soulèvent 2
sourcils 2
souriante. 2
sourire, 2
souris 2
sous-marin 2
sous-marine 2
sous-marine. 2
sous-vêtements. 2
soutenu 2
souterrain. 2
spaghetti 2
spatule. 2
spectateur. 2
spectent 2
sportifs 2
spre@@ 2
ss-@@ 2
sser 2
ssig@@ 2
stade, 2
stam@@ 2
stand, 2
stand@@ 2
stange 2
station-service. 2
stationnement, 2
stationné. 2
statuaire 2
steaks. 2
stem 2
sten@@ 2
stockage. 2
ston 2
stoop. 2
stores. 2
stuff@@ 2
stun@@ 2
stéthoscope. 2
submerge 2
succès. 2
sucre 2
sueur 2
suivis 2
sung 2
superhéros 2
supervise 2
supervise. 2
supérieur, 2
supérieure. 2
sur, 2
surcharge 2
surdimensionnée 2
surfer. 2
surpeuplée. 2
surveillent. 2
sushi 2
suspendent 2
swee@@ 2
swin@@ 2
symphonie 2
syn@@ 2
synchronisée 2
sécher. 2
séchoir. 2
séjour, 2
sélection 2
sépare 2
sérieux 2
sévère 2
sévère. 2
sûr 2
s’en 2
t-shirt. 2
tableaux 2
tabourets 2
tachetée 2
tachetés 2
tactique 2
tail@@ 2
talkie. 2
tam@@ 2
tambour, 2
tamboure 2
tambourine 2
tambourines. 2
tanière 2
tapis, 2
tarifs 2
tartes 2
tasse, 2
tasse-pot. 2
tatouer 2
tatoué, 2
tatouée, 2
tatouées 2
tatoués 2
taureaux 2
te-@@ 2
teintes 2
teints 2
tele@@ 2
temple. 2
temporaire 2
temps, 2
tendus. 2
tension 2
tentative 2
terres 2
terrestres 2
terri@@ 2
terriers 2
tet 2
texte 2
the@@ 2
theat@@ 2
thé. 2
tial 2
tiendra 2
tigre. 2
tiroir 2
tisser. 2
tissera 2
tissoir. 2
tissus. 2
toilette 2
toilette. 2
toilettes 2
toit, 2
tol@@ 2
tombent. 2
toque 2
tor 2
tordue. 2
tortillas 2
tortue. 2
tou@@ 2
touchée 2
tourbillon 2
tourisme. 2
tourne-tête. 2
tournent 2
tournesol 2
tournevis 2
tournevis. 2
tournoi. 2
traditionnel. 2
traditionnels. 2
traitent 2
tramway. 2
tranches 2
tranchée. 2
transformer 2
transpirant 2
travail, 2
travailler. 2
travailleuse 2
travailleuses 2
traîneau. 2
treillis 2
trempées 2
tren@@ 2
tresses. 2
tricolore 2
tricot. 2
tricoter. 2
tricots 2
tricycles 2
trio 2
triste. 2
tromper 2
trompettes. 2
trompetteur 2
tronc. 2
tropical. 2
troupes 2
trous. 2
trousse 2
trouvaient 2
trouve. 2
trouvent. 2
tty 2
tuba 2
tumulte 2
turban. 2
turn@@ 2
turquoise, 2
tutus 2
two@@ 2
tâches. 2
télécommandé 2
télésiège 2
télésiège. 2
téléviseur 2
têtes 2
tôt 2
uch 2
uf@@ 2
ulti@@ 2
ultimate. 2
un. 2
unique. 2
uniques 2
unter 2
up. 2
urs 2
us-@@ 2
ussion 2
ustensiles 2
uta@@ 2
uvre. 2
v 2
vaches. 2
vague, 2
vagues, 2
vais 2
vapeur. 2
vaporisée 2
vari@@ 2
vase 2
vastes 2
veille 2
venir 2
vent, 2
ventre. 2
veral 2
verdoyant 2
verdoyant. 2
verdure 2
vern 2
verre, 2
verres. 2
version 2
verticales 2
verw@@ 2
viandes 2
video@@ 2
vie, 2
vieillards 2
vieux. 2
vignes. 2
village, 2
villageois 2
violoncelle. 2
visibles, 2
visiter. 2
vite. 2
vitrines. 2
vive 2
vogue 2
voient 2
vois 2
voisins 2
volaille 2
volleyeuses 2
volée. 2
vote 2
vouloir 2
vous. 2
voyages 2
voyant. 2
vrai 2
végétation 2
végétation. 2
vérifiant 2
vêtent 2
wagon. 2
wagons 2
wai@@ 2
wall. 2
wand 2
wash@@ 2
wave. 2
web@@ 2
well@@ 2
xing 2
xy@@ 2
ym@@ 2
zig@@ 2
zigzaguer 2
zip. 2
zombie. 2
zombies 2
zun@@ 2
zz@@ 2
zébré 2
zébré. 2
Équipe 2
Étudiants 2
âgées. 2
âgés. 2
éarmant 2
éarmée 2
échafaudages 2
échoué 2
éclaboussure. 2
éclairant 2
éclairantes. 2
éclairées. 2
éclairés 2
éclat 2
éclatants 2
éclectique 2
école, 2
écorce 2
écossais 2
écossaise 2
écouteurs, 2
écrasant 2
écrasé. 2
écriture 2
écrivait 2
égret 2
éjecte 2
éjecté 2
élaboré 2
élaborée 2
élaguant 2
électrique, 2
électriques. 2
élevée. 2
élevés 2
éliminer 2
éloignent 2
élégante. 2
élégants 2
élément 2
éléphant. 2
éléphants 2
élévation 2
élévée. 2
émerge 2
émerveillement 2
émission 2
énergiquement 2
énorme. 2
éparpillées. 2
éparse 2
épicerie 2
épis 2
épouse 2
épouvantable. 2
équilibrant 2
équilibrent 2
équipes, 2
équitation. 2
érigées 2
établi. 2
établis 2
établissement. 2
étage 2
étage. 2
étalait 2
étalé 2
étalée 2
étalés 2
étalés. 2
éteignent 2
éteindre 2
éteint 2
étendues, 2
étincelle 2
étiquete 2
étiqueter. 2
étirés 2
étoffes 2
étonne 2
étonnement 2
étourdissement. 2
étrangère 2
étrangères 2
étroit. 2
étroits 2
étudiante 2
étudiants, 2
étui. 2
étuvant 2
évier, 2
évite 2
événement, 2
êtes-vous? 2
île 2
"5 1
"GIGOLO" 1
"Green 1
"Guitar 1
"Kenji". 1
"The 1
"Twister" 1
"Whatever 1
#5 1
#8 1
#8. 1
$. 1
%. 1
&apos;@@ 1
'Thriller'. 1
'aurai 1
'em 1
(2 1
(7) 1
(Carol 1
(Frank 1
(environ 1
(femme) 1
(peut-être 1
(pique-nique). 1
(toutes 1
(une 1
-american 1
0095 1
08 1
10e, 1
11, 1
126 1
145 1
16 1
18-roues-roues, 1
18e 1
19, 1
1950, 1
1950. 1
2,00 1
2,52 1
2. 1
2010. 1
20e 1
21. 1
22 1
24, 1
25. 1
25e 1
27 1
28. 1
281. 1
33 1
34 1
35 1
38 1
38, 1
39 1
3D. 1
3e 1
41. 1
43 1
44 1
46, 1
49ers, 1
5003 1
53:11. 1
58 1
5K. 1
5ème. 1
60e 1
661 1
697 1
70 1
7@@ 1
80 1
80. 1
84 1
85 1
93. 1
94 1
95 1
96 1
96. 1
96e 1
= 1
A's 1
AAA. 1
ACE, 1
AIDS 1
AND 1
ARRIVO 1
AVEDA. 1
Aaron 1
Aberdeen 1
Accompagnée 1
Accordéoniste. 1
Acura 1
Adidas 1
Adirondack 1
Adobe 1
Affiche 1
Africain 1
Afrique. 1
Afro-Américains 1
Aladdin 1
Alaska. 1
Allemagne, 1
Alliance 1
Ally. 1
Alors, 1
Am 1
Amble 1
American 1
Amputé 1
Amsterdam. 1
Américain, 1
Amérique. 1
Angeles 1
Angeles, 1
Angleterre 1
Angleterre. 1
Anguilles 1
Anne 1
Apparemment 1
Applebee's 1
Application 1
Approximativement 1
Arabe 1
Ariel 1
Army 1
Arsenal 1
Asiatique, 1
Asiatiques, 1
Astro 1
AstroTurf. 1
Athlètes 1
Attrayante 1
Aucun 1
Aucune 1
Audi 1
Auto 1
Available 1
Avant 1
Avril 1
B 1
BMW. 1
BUA. 1
Ballerinas 1
Band 1
Banque 1
Barbecue 1
Barbie 1
Barney 1
Basking 1
Batman, 1
Batman. 1
Bay. 1
Beach 1
Bears 1
Beatles. 1
Beijing 1
Bellingham. 1
Benatar. 1
Berlin 1
Berlin, 1
Berlin. 1
Best 1
Bicyclette 1
Bicycliste 1
Bicyclistes, 1
Bieber. 1
Bien 1
Billy 1
Binky 1
Birmingham. 1
Blackberry 1
Blake 1
Blanc 1
Block 1
Blockbuster. 1
Blowing 1
Blue. 1
Bmx 1
Bollywood 1
Bonne 1
Book. 1
Boombox 1
Boss 1
Bouddha. 1
Boy, 1
Boye 1
Bradford's. 1
Braun 1
Brenmark 1
Brewing 1
Bridges 1
Broad 1
Broadway. 1
Bronislaw 1
Bruce 1
Bryant 1
Brésil. 1
Bubble 1
Bucks. 1
Budweiser 1
Budweiser. 1
Bug 1
Bugs 1
Bull 1
Bum 1
Bunny 1
Burberry, 1
Burger 1
Burning 1
Busch 1
Bush 1
Buster's. 1
Buy. 1
C 1
C.D. 1
CASQUE 1
CD. 1
Cabines 1
Cadillac 1
Cadre 1
Cafe 1
Cafe, 1
Café 1
Calvin 1
Campeurs 1
Canada. 1
Candy 1
Canon. 1
Canyon 1
Capitole 1
Carcassonne 1
Carhartt. 1
Cariboos 1
Carnaval 1
Carnegie 1
Caroline 1
Carreau 1
Casterol 1
Castle 1
Celtics 1
Central. 1
Centre 1
Cessez 1
Challenge 1
Challenge. 1
Chan 1
Charmante 1
Cheap 1
Cheerleaders, 1
Cheesecake 1
Chefs 1
Chelsea 1
Cher. 1
Chevaux 1
Cheveux 1
Chevrolet 1
Chevron 1
Chevy. 1
Chez 1
Chi 1
Chicago 1
Chiefs, 1
China 1
ChinaTown, 1
Chine 1
Chundre 1
Chung 1
Cigar 1
Circus 1
Circus. 1
Cirque 1
Classe 1
Classic 1
Clients 1
Clippers 1
Club. 1
Clydesdale 1
Coca-Cola. 1
Code 1
Coke 1
Coke. 1
Collecteur 1
Colombie-Britannique. 1
Comcast 1
Comment 1
Commentateurs 1
Concert 1
Concordes 1
Conference. 1
Conférence 1
Connah 1
Connie 1
Contortioniste 1
Converse 1
Corgis 1
Coréen 1
Coréens 1
Costco. 1
Couple, 1
Courser 1
Courseur 1
Crasher 1
Crates 1
Cream 1
Cristy 1
Crocs 1
Crocs. 1
Crouché 1
Cruz 1
Cuisiner 1
Cunningham 1
Cycliste 1
Cyclone 1
Cyclone, 1
Cyclothon 1
Cyranka 1
Cérémonie 1
Côté 1
D 1
DAHLAK. 1
DE 1
DEMOS, 1
DHL 1
DIEGO, 1
DIO 1
DJs 1
DMC 1
DOWN 1
DS. 1
DU 1
DVD. 1
Da 1
Dachshund 1
Dad 1
Daniels 1
Dave 1
David 1
David. 1
Day", 1
Dead. 1
Debout 1
Deep 1
Deere. 1
Deleon 1
Deli 1
Delwood. 1
Dennis 1
Derby 1
Designer 1
Diet 1
Dieu. 1
Différentes 1
Digital 1
Diner. 1
Dior 1
Disney 1
Dites-moi 1
Do, 1
Doberman 1
Dobermans 1
Dodgers 1
DollHouse. 1
Domino's 1
Dominoes. 1
Donald 1
Doo, 1
Dorado 1
Dorothy. 1
Dr 1
Dr. 1
Driver 1
Droney. 1
Du 1
Déjeuner 1
Détendre 1
EC 1
EL 1
ELOIN 1
Earth. 1
East 1
East. 1
Easy. 1
Ebay. 1
Eddies. 1
Eiffel 1
Eiffel. 1
Eik 1
El 1
Elmo, 1
Elmo. 1
Em! 1
Encerclé 1
End 1
Energizer 1
Enfin, 1
Enseigner 1
Espagne, 1
Espagne. 1
Essayer 1
Euro 1
Europe, 1
Evergreen 1
Exodus 1
Express 1
Exuma 1
F 1
FC 1
FIN 1
FROG!, 1
Factory 1
Fairway. 1
Falcons 1
Famille 1
Fargo. 1
Farmosa 1
Farms. 1
Fashioned 1
Fasteners. 1
FedEx 1
Feuille 1
Fidel 1
Finley. 1
Fire 1
Fired 1
Firefox 1
Fisher's 1
Fitness. 1
Floride. 1
Food 1
Foods 1
Force 1
Ford, 1
Forever 1
Former 1
Fort 1
Francisco 1
Francisco. 1
Free 1
Frog 1
Fruits 1
Fulton 1
GAP 1
GONTAGA. 1
GRAHAM 1
GUERRE 1
GameCube 1
Gap 1
Garde 1
Garden 1
Gardens 1
Gardez-vous 1
Gardée 1
Gators 1
Gelados 1
Genpac 1
Geography 1
Ghandi. 1
Ghostbusters 1
Giant 1
Giants 1
Gidday 1
Giorgio's. 1
Girls 1
GlamWiki. 1
Golden 1
Golden. 1
Golfeur 1
Gomez 1
Good 1
Grace 1
Grand-père, 1
Grande-Bretagne 1
Grandmas 1
Grands 1
Grant 1
Gras 1
Green 1
Greenpeace 1
Griffin, 1
Grill. 1
Grizzles 1
Grouch. 1
Guitar 1
Guitariste 1
Guy, 1
Gwan. 1
Gyro 1
H&amp;R 1
HO 1
HSBC 1
Habillé 1
Habillés 1
Hair 1
Handbook. 1
Harlem 1
Harlem, 1
Harley 1
Harrod. 1
Hart 1
Hati. 1
Haut 1
Hawkeyes 1
Head 1
Heal's. 1
Health 1
Heat 1
Hendrix 1
Here 1
Hero 1
Hero" 1
Heureusement, 1
Hilfiger. 1
Hill 1
Hippie 1
Hispaniques 1
Hmong 1
Hodo 1
Holmgren 1
Homme, 1
Hommes 1
Hook 1
House. 1
Huckabee 1
Hug 1
Hugs 1
Hulk. 1
Hunt. 1
Husband 1
Hyatt 1
I-Pod. 1
I-pad. 1
Ice 1
Ici, 1
Ikea, 1
Incredible 1
Inde 1
Individu 1
Infirmières 1
Inn. 1
Ipod 1
Iran 1
Island, 1
Isral 1
Isuzu 1
Italie, 1
Izabella, 1
Izod 1
J'espère 1
JAL 1
JP 1
Jackie 1
Jacks 1
Jackson 1
Jackson. 1
Jaguar 1
James 1
James, 1
Japon? 1
Jasmine, 1
Jazz. 1
Jenga, 1
Jermaine 1
Jet 1
Jimi 1
Jockeys 1
Joe, 1
John's. 1
Johns 1
Joker 1
Joueur 1
Journe 1
Journée 1
Juifs 1
Jumbotron. 1
Jump 1
Justin 1
KISS 1
Karlova 1
Kawasaki 1
Kawasaki. 1
Keep 1
Kennington 1
Kenya. 1
Kerry 1
Khaki 1
Kilburn. 1
Killer 1
Kills 1
King 1
King, 1
Kiosque 1
Klaus 1
Klein 1
Koffee. 1
Kok. 1
Komodo. 1
Komorowski 1
Kuthhoop. 1
Kwon 1
L'adolescent 1
L'affiche 1
L'agent 1
L'agent, 1
L'aigle 1
L'ambulance 1
L'ancien 1
L'animal 1
L'arrière 1
L'artisan 1
L'avenir 1
L'avion 1
L'eau 1
L'enseignant 1
L'enseignante 1
L'entraîneur 1
L'exposition 1
L'extérieur 1
L'homme, 1
L'hélicoptère 1
L'infirmière 1
L'intensité 1
L'économie 1
L'élève 1
L'épuisement 1
L.E.D. 1
LEGO 1
LUCKY 1
LaFayette 1
Labrador 1
Lacs 1
Lakers 1
Lampard) 1
Lancement 1
Lanceur 1
Laura 1
Lavigne 1
Leak 1
Levi's 1
Lewis, 1
Lexmark 1
Ligne 1
Lille, 1
Lincoln. 1
Liverpool 1
Living 1
Longboard 1
Longe 1
Longhorns, 1
Lorsque 1
Lou 1
Louis 1
Lounge 1
Luke, 1
Lyppens 1
L’hélicoptère 1
L’oiseau 1
M. 1
MAKE 1
MMA 1
MMA. 1
Mac. 1
MacBook. 1
Machine 1
Machinerie 1
Machu 1
Madagascar 1
Madison 1
Madrid, 1
Mae 1
Magasins 1
Magier 1
Magpie 1
Main 1
Maman 1
Mang. 1
Manger 1
Mango 1
Manque 1
Manteau 1
Manuscrits 1
Marathon 1
Mardi 1
Margarita. 1
Marine. 1
Mark 1
Marley 1
Marlins 1
Marquette 1
Marshmallow 1
Martins 1
Maruga 1
Marvel 1
Masse 1
Maternelle 1
Matt. 1
Matériau 1
Matériel 1
May. 1
Mayores 1
Mazda. 1
McCain, 1
McDonald's 1
McDonalds 1
McDonalds, 1
Mcdonald's 1
Melanie. 1
Mellon, 1
Men's 1
Mercury 1
Messi, 1
Mexicain 1
Mexique. 1
Michigan 1
Michigan. 1
Mignon 1
Militaires 1
Miller 1
Minneapolis 1
Minnesota 1
Minnesota. 1
Minny 1
Mle 1
Mobilier 1
Mohegan 1
Mon, 1
Monk 1
Monopoly 1
Monsieur 1
Monument 1
Mooring 1
Morgan. 1
Morning 1
Morse, 1
Motocyclette 1
Motocycliste 1
Mouse! 1
Moyen-Orient, 1
Moyen-Orientans 1
Mud. 1
Muraille 1
Musculaire 1
Musicien 1
Musiciens 1
Mustangs, 1
Mutual. 1
Mystère 1
N'ÉTAIT 1
NERF 1
NFL. 1
NOISE 1
NY. 1
NYPD 1
Nager 1
Nancy 1
Nathalie's 1
Nauteur 1
Negro. 1
Nescafé 1
Nesquik 1
Neuroscience 1
Nevada. 1
Nikon 1
Noble. 1
Nombre 1
Nord 1
Nottingham 1
Nouveau 1
Nouveau-Mexique, 1
Nouveau-Mexique. 1
Nouveau-né 1
Novembre 1
OBLIGATOIRE 1
OUT 1
Obama. 1
Ocean 1
Odeon". 1
Ohio 1
Oiseau 1
Old 1
Olympiens 1
Oregon. 1
Oreos 1
Orient. 1
Orignal 1
Orphans 1
Ourense, 1
Outback 1
Outdoor 1
Ow, 1
Ozzy 1
Où 1
P 1
P. 1
PADDINGTON. 1
PAS 1
PC 1
PENSKE 1
PNC. 1
PORT 1
Pacific 1
Packers 1
Paddy 1
Pain. 1
Panasonic 1
Panthers 1
Papa 1
Parasailing 1
Paris 1
Paris. 1
Pas 1
Passagers 1
Pat 1
Pee 1
Peeps. 1
Pelosi 1
Penske 1
Peoople 1
People 1
Pepper 1
Performance 1
Perla. 1
Personnel 1
Peter 1
Peterson. 1
Petronas 1
Peugeot. 1
Phoenix 1
Photojournaliste 1
Picchu. 1
Pigeon 1
Pilote 1
Pink. 1
Pioneer. 1
Pipe 1
PitBull 1
Pitcher 1
Pizza. 1
Piétons 1
Place 1
Placing 1
Playboy. 1
Plongeur 1
Polaris. 1
Police 1
Pop!Tech 1
Popcorn. 1
Pops 1
Portant 1
Portland, 1
Portrait 1
Potato 1
PowerPoint. 1
Powerpoint. 1
Premier 1
Prince. 1
Princesse 1
Prius 1
Profil 1
Profite 1
Protestants 1
Près 1
Préparé 1
Présentation 1
Pug 1
Puma 1
Pâques 1
Q 1
Qu'est-ce 1
Quattro 1
Quelque 1
Qui 1
Quinn 1
Quiznos-Subs. 1
REMORQUER 1
ROCKS. 1
RONA 1
RV 1
RVS 1
Rabobank. 1
Raclette 1
Raftes 1
Rallye 1
Ranger. 1
Ravins, 1
Rawlings 1
Regency. 1
Remise 1
Restaurant 1
Return 1
Ribbon 1
Ribbon. 1
Richardson, 1
Rider 1
Ritz 1
Robbins 1
Rock 1
Rod 1
Rodeo 1
Roller 1
RollerBlading. 1
RollerSkaters 1
Ron 1
Roosevelt 1
Rose 1
Rouleur. 1
Ruby's 1
Rue. 1
Run 1
Russell 1
Russie 1
Ryan 1
Réflexions 1
Réparer 1
Révolution 1
S 1
S. 1
SAN 1
SMU 1
SOME 1
SUV 1
SVA 1
SWATCH. 1
SXSWO 1
Saint 1
Saint-Domingue. 1
Salle 1
Sallie 1
Salut 1
Salyo 1
Samaritain 1
Samsung, 1
Samsung. 1
Santa 1
Sara's 1
Schipper. 1
Schwinn 1
Scooby 1
Scooby-Doo 1
Scout 1
Scouts 1
Screaming 1
Scène 1
Seahawks 1
Seahawkss, 1
Seattle. 1
Seaworld. 1
Segway 1
Segway, 1
Seiko. 1
Selena 1
Serena 1
Serveuse 1
Seules 1
Seuss 1
Shakespeare 1
Shell 1
Sheltie 1
Shepard 1
Shier 1
Shine 1
Shipping 1
ShoeGasm. 1
Shorts 1
Si 1
Sibérien 1
Side 1
Singer. 1
Ski. 1
Sky-Watcher 1
Slowly 1
Smiling 1
Smoothies 1
Snow 1
Snowboarder 1
Soldeurs 1
Solei 1
Sonoma. 1
Sooner 1
Sorvette 1
Soudan 1
South 1
Sox 1
Soy 1
Sparrow. 1
Spartans 1
Speedo, 1
Spiderman. 1
Sport. 1
SportsCenter 1
Spring 1
Springsteen, 1
Sprite 1
Spyder. 1
Square, 1
Square. 1
Stanford. 1
Staples 1
Star 1
Starbucks. 1
State, 1
Steakhouse. 1
Steers 1
Steph 1
Stevie 1
Stewart 1
Sting 1
Stitch. 1
Stonehurst. 1
Stones 1
Stones, 1
Store 1
Stripe, 1
Styrofoam 1
Styrofoam. 1
Subaru 1
Sugarland, 1
Suisse, 1
Sujets 1
Sun. 1
Superman 1
Surfers 1
Surfeur 1
Surplombant 1
Swan 1
Swiffer. 1
Série 1
TEAM 1
THEFACESHOP. 1
TV 1
Tab 1
Tae 1
Taiwan 1
Tambor. 1
Tannehill 1
Target. 1
Tartuffe. 1
Taxi 1
Tea. 1
Tebow 1
Temple 1
Ten 1
Terre, 1
Terrible's 1
Terrier 1
Teva 1
Texans 1
Thai 1
Thalande 1
Theatre 1
Thorn) 1
Ti 1
Tickets 1
Tigger 1
TinkerBell 1
Tireur 1
Tissus 1
To 1
Tommy 1
Tools 1
Torah. 1
Torchelle 1
Toronto 1
Touchdown! 1
Tour 1
Tourist-Info. 1
Touriste 1
Touristes, 1
Tout 1
Toy 1
Trader 1
Transporteurs 1
Travail 1
Travaillant 1
Triomphe, 1
Trottoir 1
Turquie. 1
Twister. 1
Tye. 1
U 1
UFC 1
UFC, 1
US 1
USA 1
USA, 1
UV. 1
Ugg 1
Ultimate 1
V 1
VHS 1
VTT. 1
VUS 1
VW 1
VW. 1
Vader 1
Vegas, 1
Vegas. 1
Veiller 1
Velveeta, 1
Vente 1
Verizon. 1
Vespa 1
Veuillez 1
Victoria 1
Vienne 1
Vikings 1
Villageois 1
Villagers 1
Ville 1
Vinci. 1
Vira 1
Virou. 1
Vision 1
Visé 1
Vive 1
Voice 1
Voir 1
Voirie 1
Volleyball, 1
Volvo 1
Vons 1
Votre 1
Vous, 1
Vuitton. 1
Véhicules 1
Vélo 1
WALK 1
Wader 1
Walgreens. 1
Wall 1
Wall-E. 1
Walter 1
Washington, 1
Web 1
Wee 1
Weezer 1
Wells 1
Wells, 1
Wendy's. 1
Whack 1
Wheels 1
White 1
Whole 1
Wiggles 1
Wii 1
Wii! 1
Wii. 1
Williams 1
Wine 1
Wisconsin 1
Woman 1
Women 1
World. 1
XIXe 1
YMCA 1
YMCA. 1
Yankee 1
Yankees 1
Yarmulke 1
Yongsan. 1
York, 1
Yorkie 1
Young 1
Ypoung 1
Zales 1
Zune 1
Zune. 1
a) 1
a-hole 1
abaissée 1
abaissés 1
aband@@ 1
abandon 1
abandonnent 1
abandonné 1
abattre 1
abattu 1
abattu. 1
abo@@ 1
abondant 1
abondants. 1
abri. 1
abrupte, 1
abrupts. 1
abs 1
abstrait 1
acarienne 1
acceptent 1
accident. 1
accidenté 1
accidenté. 1
accidentée. 1
acclamation 1
acclamation, 1
acclament 1
acclamer. 1
acclamée 1
acclamés 1
accompagnement 1
accompagnées 1
accompagnés 1
accomplir 1
accomplir. 1
accor@@ 1
accordions. 1
accordéon, 1
accordéoniste 1
accostade, 1
accouchant 1
accouche 1
accouché 1
accrochent 1
accumulent 1
accédant 1
achalandage. 1
acheteurs 1
acheté 1
achetés 1
achevé. 1
achevée. 1
achève 1
acier. 1
acquérant 1
acrobatie, 1
acrobaties 1
acte. 1
actif 1
action, 1
action. 1
actuellement 1
actuellement. 1
adieux 1
adjacente 1
adjoint. 1
adju@@ 1
admirer 1
admirés 1
adobe. 1
adolescent. 1
adoptée 1
adorables, 1
adorer. 1
adulte, 1
adversaire, 1
adversaires. 1
af@@ 1
affaibli 1
affaiblis 1
affaire. 1
affaires. 1
affamés. 1
affectionnellement, 1
affichait 1
affichant 1
affiché 1
affichée 1
affichés 1
afflue 1
affronte 1
affronter 1
africain-américain 1
africaine, 1
africains, 1
africains. 1
afro 1
afro-américain. 1
afro-américaine. 1
after@@ 1
agencés, 1
agglomérées. 1
aghasté. 1
agi 1
agissant 1
agit, 1
agite, 1
agitée. 1
agitées 1
agitées, 1
agités. 1
agrafeuse 1
agrandie 1
agresseur 1
agression 1
agressivement 1
agressives 1
agricoles. 1
agréables 1
aigu. 1
aile 1
aimables 1
aimante 1
aime. 1
aimerait 1
aimons 1
aires 1
airs, 1
ajoutant 1
ajoutent 1
ajouter 1
ajustée. 1
alarme. 1
alcoolisées 1
alcoolisées. 1
alie 1
aligner 1
aliment. 1
alimentaires, 1
alimente 1
aliments, 1
alimentées 1
allaite 1
allaitent 1
allant 1
allemand. 1
aller. 1
allez 1
alligator 1
allongé. 1
allongés 1
allumé 1
allumée, 1
allumées 1
allée, 1
alpagas 1
alpins 1
alter 1
alter@@ 1
altitude, 1
aluminium 1
amants 1
amarrant 1
amarrer 1
amateurs 1
ambre. 1
ambulancier 1
ambulant 1
amende 1
amie(s) 1
amies. 1
amis, 1
amish 1
amo@@ 1
amoreux 1
amour. 1
amoureux. 1
amphibiens 1
amplificateur 1
amplificateur. 1
ampoules. 1
amputes 1
amusent. 1
amusé. 1
amusée. 1
amusées 1
amusés 1
amère. 1
américain, 1
ander@@ 1
ange. 1
anglaise 1
angle, 1
angles 1
angoisse 1
anie 1
animateur 1
animés. 1
anniversaire, 1
anniversaire. 1
annoncent 1
annoncé. 1
annuel. 1
annuelle 1
ans) 1
antennes 1
anti-balles 1
anti-immigration. 1
anticipant 1
anticipation. 1
antilope 1
antique. 1
antiques 1
antiquités 1
antérieur 1
aperu 1
aperçoit 1
aperçu. 1
aplatissant 1
aplaudi 1
aplaudi. 1
apparaissant 1
appareil, 1
appareil. 1
apparence 1
appartement. 1
appartements 1
appartements. 1
appartient 1
appel. 1
appelés 1
applaudir 1
applaudissements 1
appliquent 1
appoint. 1
apposés. 1
apprenti 1
approcher. 1
approfondie 1
approvisionnements 1
appréciant 1
appréciez. 1
appréhender 1
appui-pied 1
appuie-coudes 1
appuie-pieds 1
appuyés 1
appâts 1
aprons, 1
après-midi. 1
apéritif 1
aqua, 1
arabe, 1
arabes 1
arbitres. 1
arborant 1
arbore 1
arboré. 1
arborés. 1
arbustes. 1
arbustive 1
arc-en-ciel, 1
arche. 1
archer 1
arches 1
architecturales 1
architecturaux. 1
architecture 1
archéologique. 1
archéologues 1
arcs. 1
arctique. 1
ardoise. 1
ardue. 1
area. 1
argentine 1
argentins, 1
argenté, 1
argentée, 1
argentées 1
argentés 1
argile 1
argileux. 1
aride, 1
aride. 1
arides. 1
armoire, 1
armoire. 1
armoires. 1
arms. 1
armures, 1
armé 1
armées. 1
arménien. 1
armés 1
armés. 1
aromatisée. 1
arrachement 1
arraché 1
arrangées 1
arrangés 1
arrimant 1
arrivée 1
arrivées. 1
arrivés 1
arrière-bras. 1
arrière-chef 1
arrière-corps. 1
arrière-plans 1
arrondies 1
arrosage. 1
arrosée 1
arrêtez 1
art. 1
artefact 1
article. 1
articles, 1
artificiel, 1
artificielles 1
artisanal. 1
artisanale 1
artisanale. 1
artisanaux. 1
artiste, 1
artiste. 1
artistes, 1
artistes. 1
artistiques, 1
arts. 1
artérielle 1
artérielle. 1
arène, 1
aréna. 1
ascenseur. 1
ascenseurs 1
ascension 1
asiens 1
asperges 1
aspirations 1
assainir 1
assaisonne 1
assemblée 1
assemblée. 1
assemblées. 1
assiette, 1
assiettes. 1
assistante 1
assister 1
assume 1
assurance 1
assurer 1
astronaute 1
astronautique 1
athle@@ 1
athlétique 1
athlétique. 1
athlétiques. 1
athlétisme 1
athlétisme. 1
atmosphère 1
atomique. 1
attaché. 1
attaque, 1
attaque. 1
attemp@@ 1
attendez-vous 1
attendre 1
attendu 1
attente, 1
attentif 1
attention, 1
attentive 1
atterrir. 1
atterrissant 1
atterré. 1
atteste 1
attiré 1
attractions, 1
attrait 1
atyl-atyl. 1
au-dessous 1
au-dessus. 1
aubergines 1
audacieux, 1
audio. 1
audiovisuel. 1
auditions 1
auditorium, 1
aujourd'hui. 1
auparavant 1
auquel 1
aura 1
australien 1
autel. 1
auteur 1
auto 1
autochtone. 1
autochtones, 1
autographes. 1
automne 1
automne, 1
automobile, 1
automobile. 1
automobiles 1
automobiles. 1
automobiliste 1
automobilistes 1
autorisée 1
autorisée. 1
autorisées 1
autorités 1
autour, 1
autre, 1
autrement 1
auvents 1
avalant 1
avale 1
avals 1
avancer. 1
avancé 1
avant, 1
avant-bras. 1
avant-hand 1
avançait 1
avenir 1
aventurier, 1
aventuriers 1
avenue 1
avertir 1
avertissant 1
avertissement 1
aveugle. 1
aveugles 1
aveugles, 1
avez-vous 1
aviateur 1
aviatrices. 1
avions. 1
avirent 1
avirons 1
avis 1
avoisinant, 1
avoisinant. 1
avoisinants. 1
avoisinent. 1
avons 1
avoue 1
avrovulcan.com. 1
awe. 1
aérien, 1
aérienne, 1
aérodromes 1
aérodynamique 1
aéronefsienne 1
aéroport, 1
aéroportée. 1
babushka 1
bac, 1
bac. 1
back. 1
backgammon 1
background. 1
badge, 1
badminton. 1
bagage. 1
bagages, 1
bagel 1
bagel. 1
baggie. 1
baie. 1
baies 1
baignade. 1
baigneurs. 1
baignoire, 1
bail 1
bain) 1
bain-baignoire 1
baiser. 1
baisera, 1
baiseraient 1
baissent 1
balade. 1
balades 1
balai. 1
balaie, 1
balance. 1
balanciers. 1
balançoires. 1
balayages 1
balayages. 1
balayagé 1
balayaient 1
balaye, 1
balaye. 1
balayeur 1
balayeur. 1
balayé 1
balayée 1
balcons. 1
baleine 1
balise 1
balle! 1
balle; 1
ballet, 1
ballonnière 1
ballons, 1
balm 1
bambous. 1
bananas. 1
bananes 1
bananes, 1
bancaires. 1
band. 1
bandanas, 1
bandes, 1
bandée 1
banjo, 1
banjoiste 1
banlieue. 1
bannière, 1
bannières, 1
bannières. 1
banquet 1
banquet. 1
banquets. 1
baptisés 1
bar-b-que 1
bar? 1
barbecuer 1
barbecuer. 1
barbequent 1
barberie 1
barberie. 1
barbues 1
barge 1
barista 1
barquettes 1
barre, 1
barreau. 1
barreaux 1
barret 1
barricades. 1
barricadée. 1
bas-relief 1
bases. 1
bask@@ 1
basket, 1
basket-ball; 1
basketball, 1
bassin. 1
bat. 1
bateau-pilote, 1
bateaux, 1
baton 1
battes 1
batteur, 1
battu 1
battus 1
beach. 1
beach@@ 1
beau, 1
beau. 1
beaucoup, 1
beaucoup. 1
beaux 1
bec 1
bec. 1
bed@@ 1
bei@@ 1
beige@@ 1
beiges 1
beignes 1
bel 1
belle. 1
ben 1
ben@@ 1
bene@@ 1
berceau 1
berceau. 1
bermudas 1
bernard 1
beurre. 1
bidonville. 1
biek 1
bienfaisance 1
bientôt 1
bientôt. 1
bies 1
bijouteries. 1
bikinis. 1
bill@@ 1
billard, 1
billiard 1
billot, 1
billots, 1
bingo. 1
biologique 1
biologiques 1
biplan 1
bison 1
bisons 1
bizarre, 1
blanchis 1
blanchisserie, 1
blanquettes 1
blasonnant 1
blessure 1
blessures 1
blessée. 1
blessés 1
bleu), 1
bleu-blanc 1
bleu-noir 1
bleuets. 1
bleuâtre 1
blindé 1
blindé. 1
blissette 1
bloc. 1
blocks. 1
blonde, 1
bloquant. 1
bloque, 1
bloque. 1
bloquer, 1
blues 1
blâmée 1
blé 1
bobinette 1
bobsleigh 1
bocce. 1
bodyboarder 1
boeufs, 1
boeufs. 1
boire, 1
boirea 1
boisseau 1
boisson! 1
boissons, 1
bombardent 1
bombardier 1
bombe 1
bonbon 1
bonbon. 1
bonbonnière. 1
bonbons, 1
bongoiste 1
bonheur, 1
bonheur. 1
bonneterie 1
bonneterie, 1
bonnets 1
bons 1
boo 1
boogie, 1
boot 1
bora@@ 1
borader 1
bord, 1
bordant 1
borde 1
borderline 1
bords 1
borne. 1
bornes 1
botte, 1
bottle. 1
bou@@ 1
boucher. 1
boucherie. 1
bouchons 1
bouchons. 1
bouclier. 1
bouclé 1
bouclé, 1
bouclées 1
bouddhiste 1
bouddhistes 1
boues 1
bouffée 1
bougie. 1
bouilloire. 1
bouillonnante 1
bouillons 1
boule. 1
boules, 1
boulevard. 1
bouleversé. 1
bouncy 1
bouncy-ballet 1
bouquet. 1
bouquets 1
bourgeons. 1
bourra 1
bourre 1
bourrelet 1
bourrelet, 1
bousculer 1
bousculé 1
bousculés 1
boussole 1
boussoleur 1
bout? 1
bouteille, 1
bouton. 1
boutonner 1
boutonnière 1
boutons, 1
bovins 1
bovins. 1
boxant 1
boxer. 1
boxers 1
boxers. 1
boxeuses 1
bracelet. 1
braces 1
brasserie 1
bratwursts 1
braun 1
bravoure. 1
breakdancer 1
breakdancing. 1
breeze 1
bref. 1
bretelles 1
bretelles, 1
brevetée 1
brillant, 1
brillantes 1
brillantes. 1
brio. 1
brique, 1
briquet 1
briquettes 1
bris 1
brisant 1
brisent 1
brisée, 1
brisée. 1
brisées. 1
britannique. 1
britanniques 1
brochures 1
brocoli 1
brocoli. 1
brodée 1
bronzage 1
bronze. 1
brosse. 1
brosses 1
brossoir 1
brouillé 1
brouillée 1
brouillées 1
brouillés 1
broussaille 1
broussailles 1
brousse 1
brousse, 1
brown@@ 1
brownies. 1
broyant 1
bruit 1
brulee 1
brume. 1
brun@@ 1
brunette, 1
brunâtres 1
brunâtres, 1
brut 1
brutalité 1
bruyant. 1
bruyants 1
bruyants, 1
brésilien. 1
brésilienne 1
brésilienne. 1
brûlé 1
bt 1
bub@@ 1
buck@@ 1
budget. 1
budgets 1
buffet. 1
buffle 1
bug. 1
buggies 1
buggy. 1
building. 1
buildings. 1
bulldo@@ 1
bulldozers 1
bulletin 1
bumper 1
bundt. 1
bureaucratie. 1
burgundy. 1
burka 1
burkas 1
burqa 1
burrito. 1
burritos. 1
bus, 1
buset 1
bustard 1
butchers 1
butin 1
butter@@ 1
buvant. 1
by-@@ 1
bâche, 1
bâches 1
bâches. 1
bâtonnete 1
bâtonnete. 1
bâtonnier 1
bâtonniers 1
bâtons, 1
béagle 1
bécasses, 1
béchet. 1
béige 1
bélier 1
béliers 1
béliers, 1
béliers. 1
bénévole 1
bénévole. 1
béquilles, 1
béquilles. 1
bête. 1
bûche 1
bûcherons 1
cabine. 1
cabines. 1
cachait 1
cacti 1
cactus. 1
caddie 1
cadeaux, 1
cadillac 1
cafetière. 1
café-bar. 1
café? 1
caféine. 1
cafétéria. 1
cage, 1
cages. 1
cagoule. 1
cahiers 1
caisse. 1
caisses. 1
caissier. 1
caissière 1
cal. 1
calculer 1
californien 1
calisthenique 1
calligraphie 1
calmar. 1
calme, 1
calmer. 1
calques 1
calzone. 1
camaraderie 1
camera-phone. 1
camion-cantine 1
camion-charrette. 1
camion-déchargeur 1
camion-fourgonnette. 1
camion-pompe 1
camion-pompier, 1
camionner 1
camions-pompiers. 1
camions. 1
camisoles 1
camouflé, 1
camouflée 1
camouflés, 1
camouflés. 1
camp, 1
campait 1
camper. 1
camping, 1
campus 1
campus. 1
caméra; 1
caméras, 1
caméscope. 1
canadienne 1
canapés, 1
cancer 1
canister. 1
canne, 1
cannes. 1
canons. 1
canopies 1
canot, 1
canots. 1
caoutchouc, 1
cap, 1
cape, 1
capitaine, 1
capitale 1
cappuccinos. 1
capri 1
capris 1
capter 1
captivé. 1
capturé 1
capturés. 1
capuchon. 1
carabiner 1
caravane. 1
carburant 1
carcasse 1
cargaison. 1
cargaisons. 1
caricatures 1
carnaval, 1
carnet 1
carnet, 1
carnet. 1
carnets. 1
caroling. 1
carotte. 1
carottes 1
carre 1
carrelage. 1
carreunt 1
carré 1
carré. 1
carrées. 1
cars. 1
cartons 1
cartouche 1
cartouche. 1
cascade 1
casier 1
castor 1
casual. 1
casualement 1
casuals. 1
catacombe. 1
cated 1
cats 1
cauc@@ 1
caucasiennes, 1
caucasiens 1
cause, 1
caverne 1
cavernes. 1
cela 1
cellulaires, 1
cellulaires. 1
cellule 1
cellules 1
celui-ci 1
celui-ci. 1
cendre 1
cendre. 1
centipede 1
central. 1
centrale 1
centurion 1
cerces 1
cercle; 1
cercueil 1
cercueils 1
cerfs-volants 1
cerise 1
cerise. 1
cerises 1
certificat 1
certificats. 1
certifié 1
ces, 1
cessez 1
ceux 1
cgt 1
chabots 1
chacune. 1
chal@@ 1
chalet 1
chaleureusement 1
chaleureux. 1
chalk@@ 1
chalut 1
cham@@ 1
chambre, 1
chambres 1
champignon 1
champignons 1
champignons. 1
championnat 1
champs, 1
chance 1
chandails. 1
chandelle. 1
chane. 1
chanel 1
change 1
changeant 1
changement 1
changer 1
chanson, 1
chansons 1
chant. 1
chantait 1
chantant, 1
chantent. 1
chanteur, 1
chanteurs, 1
chanteuse, 1
chantons 1
chants 1
chants. 1
chanté 1
chaotique 1
chaparral 1
char. 1
charades 1
charbons 1
charbons. 1
chargent. 1
chargeur 1
chariots. 1
charpente 1
charpentier 1
charrette, 1
charrue 1
charrue. 1
charrues 1
charte. 1
chasers 1
chasse. 1
chasser. 1
chasseur 1
chasseur. 1
chassés 1
chatons, 1
chatons. 1
chats. 1
chaude, 1
chauds 1
chauds. 1
chauffant, 1
chauffants 1
chauffe 1
chauffent 1
chauffeur 1
chaume 1
chausset 1
chausson 1
chaussons. 1
chaussure, 1
chaussée, 1
chauve, 1
chauve-souris. 1
chauves-souris 1
che 1
checker@@ 1
cheerleaders. 1
chef-d'uvre 1
chef-d'uvre. 1
chefe 1
chefs, 1
chel@@ 1
chemins 1
chemins. 1
cheminée, 1
chenilles 1
cheque 1
cheque. 1
cherokee 1
chers. 1
chevalier. 1
chevauchant 1
chevauchement 1
chevauchement. 1
chevauchent 1
cheveu 1
cheville. 1
chevilles 1
chevilles. 1
chevron 1
chiens-grignotes 1
chiens-linéaires 1
chiens-ovins 1
chiffon. 1
chiffons. 1
children. 1
chili 1
chili. 1
chimie 1
chimie; 1
chimique 1
chimique. 1
chine 1
chine. 1
chine@@ 1
chinois-américains 1
chinoise 1
chinoise, 1
chinoise. 1
chiots. 1
chirurgical, 1
chirurgicales 1
chirurgicales. 1
chirurgicaux. 1
chirurgien 1
choc. 1
choeur 1
choisie. 1
choquant. 1
choquantes. 1
choqué 1
chor 1
chorale. 1
chorégraphie. 1
chorégraphique. 1
chou 1
chouette 1
chrétien, 1
chs 1
cht 1
chun 1
chur. 1
churs 1
chute. 1
chuté 1
châles 1
châssis 1
châtaigniers 1
châteaux 1
cident 1
ciel, 1
cigares. 1
cigarette, 1
cigerette 1
cimentier 1
cimentée 1
cimetière 1
cingt 1
cinq. 1
cinéma. 1
circuits 1
circuits. 1
circule. 1
cireur, 1
cisailler 1
cisco-pelleuse, 1
cisco-pelleuse. 1
ciseaux, 1
cisela 1
citerne. 1
citoyen 1
citronnes 1
citronnettes, 1
citronneur 1
citronniers 1
citronniers. 1
citrons. 1
civile. 1
cket 1
claire, 1
claires 1
clairsemée. 1
claquant. 1
claquent. 1
clarinette. 1
clarinettes 1
clarté. 1
classes. 1
claviers 1
claviers. 1
claviériste 1
cleats, 1
cleavage 1
clefs 1
clenchit 1
clenchée 1
clergé 1
clergés 1
clients, 1
clientèle. 1
clignotant. 1
clignotent 1
climat 1
climatisation 1
climb@@ 1
clime 1
cloche 1
cloche. 1
clocher 1
cloches 1
cloison. 1
clou. 1
clou@@ 1
clown, 1
clubs 1
clés. 1
clôturiers 1
clôturé, 1
clôturé. 1
clôturés 1
co-chanteur 1
co-chanteur, 1
cochon 1
cochon. 1
cock@@ 1
cocker 1
cocktails 1
coffret 1
coiffant 1
coiffeuse 1
coiffeuse. 1
coincé 1
coincée 1
coke 1
coke. 1
cola. 1
colibri. 1
colis, 1
collage 1
collapsibles 1
collectibles. 1
collectif 1
collective. 1
collectivement 1
collègues, 1
collées 1
collégial. 1
collégiale 1
collégiaux 1
collés 1
coloful 1
colon 1
colorant. 1
colorier 1
coloris. 1
colorise 1
colorissaient 1
combattant. 1
combattants. 1
combattre 1
combe 1
combien 1
combinant 1
combiné 1
combler 1
comestible 1
comestibles. 1
comique 1
commande. 1
commandent 1
commandent. 1
commandes. 1
commandos 1
commencent 1
commencent. 1
commerce 1
commerce. 1
commerciale 1
commercialiser. 1
commerçant. 1
communautaire. 1
communauté 1
communauté. 1
communiquer 1
commutation. 1
commémoratif. 1
compactes 1
complet. 1
complexes. 1
compliquée, 1
complète 1
complètement, 1
compléter 1
comportant 1
comportent 1
comprendre 1
comptant 1
comptoir, 1
comptoirs 1
comptoirs. 1
compétences 1
compétitif, 1
compétitive 1
compétitive. 1
conc@@ 1
concasseurs 1
concassées. 1
concentrait 1
concentrent 1
concentrée 1
concentrés, 1
concepts 1
concernant 1
concessionnaire 1
concierge 1
concombre 1
concombres 1
concre@@ 1
concurrence. 1
concurrent 1
concurrentes 1
condiments 1
condiments. 1
conditions. 1
conducteur, 1
conducteur. 1
conducteurs 1
conduisent 1
conduite. 1
conduites 1
conduites, 1
conduits 1
confessionnel 1
confettis. 1
confitures 1
confondue, 1
confort 1
confortable. 1
conforts 1
confronté 1
confus 1
confus, 1
confusion 1
confusion. 1
confédérés 1
conférence, 1
conférences 1
congo. 1
congrès. 1
congrégation 1
congrégation. 1
congélateur. 1
conifère 1
conifères 1
conique 1
connaissance 1
connaissances 1
connexion 1
connu 1
connue 1
consacrée 1
conseil 1
conseillers 1
conseils 1
conserve 1
consigné. 1
consiste 1
consolant 1
consoles 1
consommant 1
consommateurs 1
consomment 1
consterné 1
construire. 1
construisant 1
construit. 1
construite, 1
construits 1
consultant 1
contact 1
contact. 1
contemporain. 1
contenants 1
content. 1
contentement 1
contestant 1
contestantes 1
contestée 1
continue 1
continuent 1
contra@@ 1
contrainte 1
contravention 1
contrecur 1
contreforts 1
contreplaqué 1
contreplaqué. 1
convaincre 1
convention. 1
conventionnel 1
convers 1
conversant 1
conversation, 1
conversations. 1
conversent 1
converser. 1
conviction. 1
convient. 1
convoyeur. 1
conçu. 1
conçue 1
cool. 1
cools 1
copier 1
copies 1
copilote. 1
copine. 1
coquillages. 1
coquille 1
corbeau 1
cordage. 1
corduroy 1
corgi 1
corgie 1
corndogs 1
cornemuse, 1
cornemuses, 1
cornemuses. 1
cornes. 1
corporation 1
corporel 1
corporelles 1
corporels 1
corral 1
corral, 1
correcte. 1
correctement, 1
correctement. 1
correspond 1
corsage 1
corset 1
coréen 1
cosmétiques 1
cosplay 1
costa-ricien, 1
costument 1
cote 1
coteaux 1
couchage, 1
couchage. 1
couchait 1
couchait. 1
couché, 1
coudes 1
coudes. 1
couleur, 1
couleurs, 1
coulissant. 1
countr@@ 1
coupable 1
coupaient 1
coupe. 1
couper. 1
coupeur. 1
coupure. 1
coupé 1
coupée. 1
coupées. 1
courant, 1
courant. 1
courbe. 1
coure. 1
courer. 1
coureurs. 1
courge. 1
courir, 1
couronnes, 1
couronnée 1
courrier 1
courrier. 1
courroies 1
courses. 1
courtes, 1
cousut. 1
couturière. 1
couvercle. 1
couverte. 1
couverture, 1
couvrir 1
couvrira 1
cow-boy. 1
cow@@ 1
cowboys. 1
cowgirls 1
coéquipiers, 1
coûteux 1
coûteux) 1
crabe. 1
cracher 1
craftzine. 1
craignant 1
crampé 1
crapaud 1
craquelin 1
craquelins. 1
craquée 1
crate 1
cravat 1
crayola 1
crayola. 1
crayons, 1
creuser. 1
creusé 1
creux 1
creux. 1
crevasse 1
crevettes 1
crie, 1
crient. 1
crier. 1
crime. 1
cristal, 1
cristal. 1
cristaux, 1
critiquer 1
crochet 1
crochet. 1
crochetant. 1
crochets. 1
crocodile. 1
crocs 1
croisent 1
croisière 1
croissant 1
croisé 1
croit 1
crooswalk 1
croquant 1
croquet 1
croquis. 1
crouchant, 1
crouchant. 1
crouchent 1
croupion 1
croupit. 1
croustille 1
crowd. 1
crue. 1
crues 1
crustacé 1
crâniens 1
crème, 1
crèmes 1
créateur 1
créatif. 1
créatifs 1
créativité. 1
crédit 1
crémeuse 1
créée 1
créée, 1
créés 1
crêpe 1
crêpes. 1
cueillant 1
cueillent 1
cueillit 1
cuillerée 1
cuillères 1
cuillères. 1
cuire. 1
cuirs 1
cuisent 1
cuisinent 1
cuisinent. 1
cuisiner. 1
cuisinier. 1
cuisse 1
cuisse, 1
cuite 1
cuits 1
cul 1
culinaire 1
culinaires 1
culottes 1
cultiver 1
culture 1
culture. 1
culturel 1
culturel. 1
culturelle. 1
cultures. 1
curieusement 1
curling 1
curling. 1
curs 1
cuvette 1
cyclable. 1
cyclomoteur, 1
cyclomoteurs, 1
cyclothécaires 1
cyclothéliateur 1
cylindre 1
cylindres 1
câblage. 1
câble, 1
câbler 1
câbles. 1
cèdent 1
célèbre. 1
célèbres 1
célébrant 1
célébrations 1
célébrer. 1
célébrités. 1
célébré 1
céréale. 1
cérémonie, 1
cérémoniels. 1
cône, 1
cônes. 1
côte, 1
côtes 1
d' 1
d'Aeropostale 1
d'Africains-Américains 1
d'Alaska 1
d'Anaheim. 1
d'Angeles. 1
d'Animaniacs 1
d'Aspy 1
d'Atlanta 1
d'Atlanta. 1
d'Aurora 1
d'Autochtones 1
d'Elton 1
d'Espider-Man. 1
d'Europe 1
d'Habitat 1
d'Inde 1
d'Insectman. 1
d'Obama 1
d'Oceanside. 1
d'Ohio. 1
d'Orient 1
d'Orient, 1
d'Oscar 1
d'Oxford 1
d'abeilles 1
d'abord, 1
d'abronie 1
d'accident. 1
d'accrocher 1
d'achat 1
d'acheteurs. 1
d'acrobatir 1
d'acteurs 1
d'action. 1
d'activités 1
d'activités. 1
d'actrices 1
d'adolescence 1
d'adolescents. 1
d'adoption 1
d'affiches. 1
d'agility. 1
d'agriculteurs 1
d'agriculteurs, 1
d'aide. 1
d'aider 1
d'aigle 1
d'alerte. 1
d'aligator 1
d'aligner 1
d'allumettes, 1
d'alpinisme 1
d'alpinistes 1
d'amarrer 1
d'amener 1
d'amélioration 1
d'améliorations 1
d'aménagement 1
d'ananas 1
d'ananas. 1
d'anciennes 1
d'anciens 1
d'angle 1
d'antiquités. 1
d'apologie 1
d'appareils 1
d'appartement 1
d'appartements; 1
d'appeler 1
d'appoint. 1
d'appuie-tête 1
d'aquarium 1
d'aquarium. 1
d'araignées 1
d'arbustes 1
d'arcade. 1
d'archéologues 1
d'argenterie 1
d'argile, 1
d'armes. 1
d'arriver 1
d'arrosage. 1
d'articles, 1
d'artifices 1
d'artisanat, 1
d'artiste 1
d'artiste. 1
d'ascenser 1
d'ascenseur 1
d'asiatiques 1
d'aspirateur 1
d'assemblage. 1
d'assemblée 1
d'assujettir 1
d'astronaute 1
d'attache, 1
d'attache. 1
d'attacher 1
d'atteindre 1
d'attentes 1
d'atterrir. 1
d'atterrissage. 1
d'attirer 1
d'attraper 1
d'au 1
d'autochtones 1
d'autoroute 1
d'autres, 1
d'avancer 1
d'avertissement 1
d'aviateur 1
d'aviron, 1
d'avirons 1
d'aéronef. 1
d'aéroport. 1
d'aînés 1
d'eaumelon 1
d'eaux. 1
d'elfe 1
d'elle, 1
d'elles-mêmes 1
d'embarquer 1
d'empanadas. 1
d'emploi 1
d'employés 1
d'endurance 1
d'enfant 1
d'engins. 1
d'enregistrement 1
d'enthousiasme 1
d'entreposage. 1
d'entrepreneurs. 1
d'entreprises 1
d'envol 1
d'escalader. 1
d'escaliers, 1
d'essai, 1
d'essence 1
d'essence. 1
d'ethnies 1
d'examiner 1
d'excitation. 1
d'exciting 1
d'exercer 1
d'exercice, 1
d'exercices 1
d'experts 1
d'experts, 1
d'explorer 1
d'expositions 1
d'extraire 1
d'herbes, 1
d'histoire. 1
d'histoires 1
d'histoires. 1
d'honneur, 1
d'honneur. 1
d'horloge 1
d'horloge. 1
d'horreur 1
d'horrible. 1
d'hugs 1
d'huile 1
d'hula. 1
d'humour 1
d'hydrocarbures. 1
d'héritage 1
d'hôtel 1
d'hôtel, 1
d'hôtes 1
d'identité 1
d'image 1
d'immeubles 1
d'importance 1
d'incense. 1
d'indiens 1
d'infirmité. 1
d'infirmières. 1
d'information 1
d'information. 1
d'informatique 1
d'ingrédient. 1
d'inspiration 1
d'instructions. 1
d'interagir 1
d'intercepter 1
d'interdiction 1
d'intéressant 1
d'intérieur 1
d'intérieurs 1
d'invités. 1
d'obscurité. 1
d'observation. 1
d'obstacles 1
d'occasion. 1
d'octopus 1
d'oeil 1
d'oeil. 1
d'oeuf. 1
d'oliviers 1
d'ollie, 1
d'optique 1
d'opérations 1
d'orang-utan. 1
d'orange, 1
d'orange. 1
d'oranges, 1
d'oranges. 1
d'orchestre 1
d'ordinateur, 1
d'ordinateurs, 1
d'oreiller 1
d'oreillers. 1
d'organes 1
d'origine, 1
d'orignal. 1
d'ornement 1
d'os 1
d'os. 1
d'ours, 1
d'ours. 1
d'outil 1
d'outils, 1
d'ouverture 1
d'ouvertures 1
d'oval 1
d'oxygène 1
d'oxygène. 1
d'quai 1
d'unicef, 1
d'unicef. 1
d'université. 1
d'urgence, 1
d'urgence. 1
d'usine. 1
d'utensiles. 1
d'uvres 1
d'État 1
d'État. 1
d'ânes 1
d'ébriété. 1
d'échantillonnage 1
d'échapper 1
d'échauds 1
d'échecs 1
d'échecs. 1
d'échelles 1
d'éclair 1
d'éclairage. 1
d'école, 1
d'écoles 1
d'écrans 1
d'écrans, 1
d'écrasement 1
d'écrire 1
d'égouts 1
d'élagage 1
d'électricité 1
d'électronique. 1
d'élevage. 1
d'élèves. 1
d'éléphant 1
d'éléphant, 1
d'éléphant. 1
d'émeute. 1
d'émeutes 1
d'épiceries. 1
d'épingles, 1
d'équations 1
d'équilibre 1
d'équipe, 1
d'équipement. 1
d'équipements 1
d'équitation. 1
d'érable. 1
d'érection. 1
d'étain. 1
d'étanchéité 1
d'éternuement 1
d'étoffe. 1
d'étoile. 1
d'étoiles 1
d'étourdissement 1
d'étourdissement, 1
d'étranges 1
d'étudiants. 1
d'évasion 1
d'éviter 1
dachshund 1
dachshunds 1
dalmatien 1
dalmatins 1
dalme 1
dame, 1
dames 1
dandelions. 1
danger. 1
dangereuse 1
dangereusement 1
dans. 1
dansant, 1
dansante 1
dansante. 1
dansantes 1
danse3. 1
dansent, 1
danser, 1
danseuses, 1
danseuses. 1
dashiki 1
date 1
dauphins 1
day. 1
dbiteurs 1
dealer 1
debout) 1
dehors, 1
del 1
deli. 1
delicatessen. 1
demandons 1
demeure 1
demi-chemise 1
demi-nués 1
denim. 1
dense 1
densité 1
dentaire 1
dentaire. 1
dentelle 1
dentiste. 1
dents, 1
deo 1
dern 1
derniers 1
des@@ 1
descendante 1
descendants 1
descende 1
descendu 1
descendue 1
description 1
designer. 1
dess@@ 1
desserts. 1
dessinée. 1
dessous, 1
dest 1
deux. 1
devenir 1
devez 1
devient 1
devrais 1
diable 1
diables, 1
diagnostic 1
diagramme 1
diagrammes 1
diamants 1
diaporama 1
diapositive 1
dictionnaire 1
diesel. 1
diet 1
dieu 1
differ@@ 1
difficultés, 1
diffusion 1
différences. 1
différent 1
différent. 1
diligence 1
dindon 1
dindons. 1
dingy 1
dinosaure 1
dinosaures. 1
dionyque 1
diplôme. 1
diplômés 1
directes 1
directeur. 1
directions, 1
dirige. 1
dirigent. 1
dirigés 1
dirk. 1
dirtbike 1
dis 1
disant 1
disc 1
discus. 1
discutant. 1
discuté. 1
disent 1
dishdashas 1
disparue 1
disponibles. 1
dispositifs 1
disposition 1
disposés 1
disputant 1
disque, 1
disque. 1
dissimuler 1
distances 1
distinctes, 1
distrait. 1
distraits 1
distributeurs 1
dit. 1
diversifiée. 1
diverti. 1
divertis 1
divertissement 1
divertissement, 1
divertissement. 1
divertissent. 1
divertit. 1
diviser 1
divisée 1
dix 1
dix. 1
djs 1
do. 1
documentation 1
documente 1
documentent 1
documents, 1
doigte 1
doivent 1
dollar 1
dollars 1
domestique 1
domestique. 1
dominante 1
domination 1
domine 1
dominos. 1
dominés 1
dommages 1
donal@@ 1
donnez 1
donnée 1
donnée. 1
dons 1
dons. 1
doo-rags 1
dorm 1
dormance 1
dorme, 1
dorment, 1
dormi. 1
dorée. 1
dorées 1
dorées. 1
dossiers. 1
dotée 1
double. 1
doublée 1
douce. 1
doucement 1
doucement. 1
douches 1
douille 1
douloureux 1
douteux 1
doux 1
douze 1
drag. 1
dragster 1
dragster. 1
drain. 1
drapeaux, 1
draping 1
drapière 1
draps 1
drapé 1
dressant 1
dribbler 1
drogue 1
droites 1
droits 1
dt 1
duelle 1
duels 1
dulcimer. 1
dump@@ 1
dumpsters 1
dunce 1
dunk. 1
dure. 1
durement 1
durera 1
durs. 1
duvet, 1
déballant 1
débarqué 1
débarrassant 1
débarrassent 1
débarrassés 1
débat 1
débit 1
débordante. 1
débordement 1
débordée. 1
débris, 1
débroussaillant 1
débroussaille 1
débuter 1
déchargent 1
décharger 1
déchargés 1
déchiquetent 1
déchiqueter 1
déchirant 1
déchire 1
déchirent 1
déchiré 1
déchiré. 1
déchirée 1
décider 1
décision 1
décision. 1
déclare 1
déclaré 1
déco. 1
décollage. 1
décolle, 1
décoller 1
décoller. 1
déconcertée. 1
décontracté 1
décontractée, 1
décorant 1
décorateur 1
décoratives. 1
décorent 1
décoré. 1
décorées 1
décorés. 1
découpant 1
découpent 1
découpés. 1
découvert. 1
découverte 1
découvrant 1
découvrir 1
décrire 1
décrivant 1
défaire 1
défait, 1
défectueuse. 1
défend. 1
défendu 1
défense 1
défensive(s) 1
défie 1
défilent. 1
défilé, 1
défilés 1
déflatée 1
déflorée. 1
déformée, 1
dégonflée 1
dégustation 1
dégustent 1
dégât. 1
déjeuner, 1
déjûne 1
délabré 1
délabré; 1
délabrées 1
délabrées. 1
délice 1
délicieuse 1
délicieuses 1
démange 1
démantelées 1
démarcation. 1
démoli. 1
démolit 1
démolé. 1
démonte 1
déménage 1
déménagement. 1
déneige 1
déneigement. 1
dénudées, 1
dénudées. 1
dépannage 1
dépannage. 1
dépanneur 1
dépassés 1
dépaysé 1
déplacée. 1
déplacés. 1
déplaisant. 1
déplaisante. 1
déplaçant 1
dépliant 1
déployé. 1
déployés. 1
dépotoir. 1
dépourvue 1
déprimantement 1
dérangeant 1
dérives 1
déroulait 1
déroulant. 1
déroulent 1
dés 1
déserte, 1
désertique. 1
déserts 1
désespérément 1
désintéressé 1
désolé 1
désolée. 1
désécouler 1
détache 1
détacher 1
détail) 1
détail. 1
détaillée. 1
détails. 1
détecteur 1
détendre. 1
détendu 1
détendue, 1
détente 1
détente. 1
déterminé 1
déterminée 1
détresse 1
détresse, 1
détruite. 1
détérioration 1
détérioration. 1
détériore 1
dévasté 1
dévasté. 1
dévastée 1
développe 1
déverrouilla 1
déverrouillant 1
déversant 1
déversement 1
déversé 1
déversés 1
dévouement 1
déçu 1
déçue 1
déçues 1
dîners 1
dû 1
dûment 1
d’aborder 1
d’aluminium. 1
d’enfants 1
d’enfilage 1
d’environ 1
eReader. 1
eXXXotica 1
effacer 1
effectuer 1
effort 1
effrayant 1
effrayant. 1
effrayé 1
effrayé, 1
effrayée 1
eg@@ 1
eine 1
einer 1
eins 1
elect@@ 1
elephants. 1
elf 1
elle-même. 1
eller 1
elles-mêmes 1
elles-mêmes. 1
em. 1
emballage. 1
emballages 1
emballant 1
emballé 1
emballés 1
emballés. 1
embarquant 1
embarque 1
embarquement 1
emblazone 1
emblème. 1
emblématique 1
embrassement 1
embrassé 1
emmener 1
emmené 1
empanadas 1
empile 1
empilée 1
emploi 1
employée 1
emprunté 1
empêche 1
encadre 1
encastré, 1
encastré. 1
encastrée 1
enceinte! 1
enceinte. 1
encerclée 1
encerclés. 1
enchanté. 1
enchantées 1
enchaînée 1
enchaînées, 1
enchères 1
enclenchent 1
enclenchés 1
enclos 1
enclos. 1
encombrent 1
encombrée, 1
encombrées. 1
encombrés, 1
encombrés. 1
encore. 1
encouragés 1
encre 1
encreuset. 1
encreux 1
endommagé. 1
endommagés 1
endommagés. 1
endroit, 1
endroits. 1
enfance 1
enfantine, 1
enferme 1
enferment 1
enfermées 1
enfilant 1
enfilent 1
enflamme 1
enflammé. 1
enflammées. 1
enflammés 1
enfoncent 1
enfoncé. 1
enfoncée, 1
enfoncées 1
enfoncées, 1
enfoncées. 1
enfoncés, 1
engageons 1
engenoui 1
engenouie 1
engin. 1
englobe 1
engraissant 1
engrenage. 1
engrissant 1
enleve 1
enlevés 1
enneige. 1
enneigés, 1
enneigés. 1
ennuyé 1
enough 1
enregistrant 1
enregistre. 1
enregistreuse 1
enrobement 1
enrober 1
enrobé. 1
enrochement, 1
enroulant 1
enroulent 1
enroulé. 1
enroulée. 1
enroulés. 1
enseignants 1
enseigne. 1
enseignée 1
ensoleillement, 1
ensoleillée, 1
entame 1
entend 1
entendent 1
entendre 1
enterrent 1
enterrée 1
enterrés 1
enth@@ 1
enthousiastement 1
entier 1
entier, 1
entier. 1
entiers, 1
entonnoir 1
entourage, 1
entourage. 1
entourait 1
entoure. 1
entourent. 1
entrainer 1
entrant. 1
entrave 1
entravent 1
entraîne. 1
entraînement. 1
entraîneurs. 1
entraînée. 1
entraînées 1
entreposé. 1
entrepreneur 1
entreprises. 1
entretenu. 1
entretenus 1
entretiennent 1
entrevue 1
entrée. 1
entrées. 1
enveloppant 1
enveloppées 1
environnant 1
envisage 1
envol 1
envoyant 1
envoyer 1
erer 1
erie 1
errands 1
ert 1
escalade, 1
escaladière, 1
escaladées 1
escalier, 1
escapade 1
escarpé. 1
escarpée 1
escarpée. 1
escarpés 1
escorte-piggyback 1
escortés 1
escrime. 1
espaces 1
espadrille 1
espoir. 1
espresso. 1
esprit. 1
espèce 1
espèces 1
espère 1
espèrent 1
essayait 1
essayent 1
essayé 1
essen 1
essence. 1
essentielle 1
essuyant 1
est. 1
establi@@ 1
estivale. 1
et, 1
eth@@ 1
ethnique. 1
ett@@ 1
eu 1
eu@@ 1
eurent 1
euro 1
euro@@ 1
européenne 1
européenne. 1
européens 1
euros". 1
euros. 1
ever@@ 1
exact 1
exagéré. 1
examen. 1
examinaient 1
examinait 1
excentricement 1
excentrics 1
excitant 1
excitant, 1
excitation 1
excité. 1
excitée 1
excitée. 1
excitées. 1
excités. 1
excursion. 1
excédentaire 1
exemplaires 1
exemple. 1
exer@@ 1
exercice! 1
exercice. 1
exibit 1
exotique 1
exotiques, 1
exploiter 1
explorera 1
explose 1
explosent, 1
exposition, 1
expositions. 1
exposée. 1
exposés 1
express. 1
exprime 1
expriment 1
expédiant 1
expédition 1
expérimente 1
extensible. 1
extensions 1
extraordinaires. 1
extravagant. 1
extrémité. 1
extrême, 1
extrême. 1
exuberant 1
exécuter. 1
exécutera 1
fabri@@ 1
fabrique. 1
fabriqué. 1
fabriqués 1
fac@@ 1
face-off. 1
facial. 1
faciales 1
facture 1
faiblie 1
faim 1
faire. 1
faite. 1
falaises. 1
falsifiées. 1
famili@@ 1
familial. 1
familiales 1
familier 1
fanaux, 1
fanfare. 1
fanny-pak 1
fantaisie 1
fantaisie. 1
farine. 1
fatiguer 1
fatigues 1
fauche 1
fauché. 1
fauconnaise 1
fausse 1
faut 1
faute. 1
fauteuil. 1
fauve 1
faux. 1
faveur 1
façade. 1
façonne 1
feder@@ 1
feet. 1
femelle, 1
femelle. 1
femme! 1
femme) 1
fend 1
fendre 1
fenêtres, 1
fermant 1
ferme, 1
fermentation. 1
fermer 1
fermeture 1
fermé, 1
fermée 1
fermées 1
fern 1
ferrées, 1
fervents 1
fesse 1
fesses 1
festivals 1
festivités 1
feuillu. 1
feuillue 1
feux. 1
fez 1
ffee 1
ffer@@ 1
fiancés 1
ficelle. 1
ficelles 1
field. 1
fierté. 1
figurant 1
figurine 1
filer. 1
filete 1
filetent 1
filets. 1
fileur 1
fillette. 1
filmage 1
filmant 1
films 1
films. 1
filmé 1
filmée 1
filtre 1
finale. 1
financement. 1
fine. 1
finesse 1
fini 1
finies 1
finir 1
finis 1
fins. 1
fissures 1
fixes, 1
fixes. 1
fière. 1
fièrement. 1
flacons 1
flambant. 1
flamboyante 1
flamboyantement 1
flamboyants 1
flambé 1
flamingos 1
flammes. 1
flan@@ 1
flanelle, 1
flanquant 1
flanquent 1
flash 1
flau@@ 1
fleur, 1
fleurette 1
fleurette. 1
fleuri, 1
fleuri. 1
fleurie, 1
fleuries. 1
fleuris 1
fleuris. 1
fleurissent 1
fleuriste 1
flexible 1
flinging 1
floats, 1
floaty 1
floppy 1
floraison. 1
floral. 1
florals 1
florals, 1
floraux 1
florescent 1
flottaison 1
flottaison, 1
flottaison. 1
flotter. 1
flou, 1
flou. 1
floues. 1
fluide 1
fluvant 1
fluvial 1
flâne 1
flèche, 1
fléchage 1
fléche. 1
fléchettes. 1
fléchi 1
fléchie 1
fléchira 1
fléchissant 1
flûtiste 1
foi 1
foli@@ 1
folique 1
fon@@ 1
fonce 1
fonctionnaire. 1
fonctionnaires 1
fonctionnaires. 1
fonctionnement 1
foncée. 1
foncées, 1
foncées. 1
fond, 1
fondante. 1
fondation 1
fondation. 1
fondations 1
fonderie. 1
fonds. 1
fondue. 1
fonte, 1
foosball 1
football; 1
footballeur 1
footed 1
forage 1
forant 1
force. 1
forcer 1
fore 1
forest. 1
forestière 1
forestières, 1
foreuse 1
forgeuse 1
formalités. 1
formation. 1
formel. 1
formelle 1
formée 1
formée. 1
fortune 1
fossé. 1
foudre 1
fougère 1
fougères 1
fouillant 1
fouille 1
fouille. 1
fouillent 1
fouilles. 1
fouillée 1
foulard, 1
fountain. 1
four, 1
fourchette, 1
fourgon 1
fournaise 1
fournaise. 1
fournit 1
fourrure. 1
foutre 1
fracassé. 1
fracturant 1
fracture 1
fracturé 1
fracturé, 1
fracturée. 1
fragile 1
franc-hors-terre 1
franchement 1
franchir 1
franchir. 1
franchissant 1
franchissant. 1
franchissement 1
franges. 1
français 1
française. 1
frappante 1
frappez 1
frappée 1
fraîche, 1
fraîches 1
freestyle 1
freestyle. 1
friendly 1
frileux 1
frileux. 1
frisbeen 1
frisbees 1
frites. 1
frits 1
froid! 1
froides 1
frolicant. 1
fromages 1
frontal. 1
frottantes. 1
frottent 1
fruit. 1
fruiterie 1
frustré, 1
frère. 1
fréquenté 1
fréquentée 1
ftale 1
fted 1
fu. 1
fuchsia 1
fuient 1
fuite. 1
fumble. 1
fumeur». 1
fumigènes 1
fumé. 1
funérailles 1
fureur 1
furieusement 1
furocieuse 1
fusion. 1
fuyaient. 1
fuyant 1
fédora, 1
fée 1
fée, 1
félicitent. 1
féliciter 1
félin. 1
féminin. 1
féminine, 1
féminine. 1
féminins 1
féroce 1
fût. 1
fûts 1
ga 1
gabarit 1
gadgets. 1
gagné 1
gagnés 1
galets 1
galle 1
gallon 1
gallons. 1
gallope 1
gallopent 1
galoches, 1
gamme. 1
gao 1
garage, 1
garages. 1
garbanzo 1
garde-balcon 1
garde-corps. 1
garde-côtes 1
garde-passerelle 1
garde-secours 1
gardent 1
garderie. 1
garderobe 1
gardes-rails. 1
gardez-vous 1
gardien. 1
gardiens. 1
gardé. 1
gardée 1
gardés 1
garniture. 1
garnitures 1
garnitures. 1
gars. 1
garé. 1
garés. 1
gas@@ 1
gatin 1
gatteur 1
gaufres 1
gazelle 1
gazeuses, 1
gazeuses. 1
gazole 1
gazonné 1
gazonné, 1
gazéifiée 1
gear. 1
gel@@ 1
gelé. 1
gelée 1
gelée, 1
gelés. 1
gendarme 1
gender 1
geno@@ 1
genou, 1
gentils 1
gentilshommes 1
geraniums. 1
gerbil 1
geste. 1
gestion 1
gestue 1
gestuelle. 1
geyser 1
gi 1
gical 1
gicleurs 1
gicleurs. 1
giclée. 1
gigantesque 1
gigantic 1
giggling 1
gingembre 1
gingembre. 1
gingham 1
gir@@ 1
girafe 1
giron. 1
gitane 1
gitans 1
givre 1
glaces 1
glacier 1
glacières 1
glacé, 1
glacée, 1
glacées 1
gladiateur 1
glamour. 1
glaçage 1
glaçon 1
glaçure. 1
glissade 1
glissade. 1
glissantes 1
glissantes, 1
glisse-pente. 1
glissent. 1
glisser, 1
glissoire, 1
glissoire. 1
glissé 1
globe. 1
globules 1
gloutit 1
gnu 1
go-cart 1
go-carte 1
go-carte. 1
go-carts 1
goate 1
gog 1
golden@@ 1
gondola 1
gonflage. 1
gonflait 1
gonflent 1
gorilla 1
gothique 1
goudron 1
goutte-goutte 1
gouttes 1
gouvernement 1
gouverneur 1
goélands. 1
gracieuseté 1
graff@@ 1
graffitis, 1
graffitti 1
graffité 1
graffitée. 1
grafitti 1
grain 1
grains. 1
graminées. 1
grand-mère. 1
grand-mères 1
grand. 1
grande. 1
grands, 1
grands-parents 1
grands-parents. 1
granules. 1
graphique, 1
graphique. 1
grappe 1
gratifications. 1
gratte-ciel 1
gratte-ciel. 1
gratteur 1
gratuit 1
gratuitement 1
gratuitement. 1
gratuits 1
gratuits. 1
gratuit». 1
grave 1
gravité 1
gray@@ 1
grenade. 1
grenaille 1
grenier 1
griefs 1
griffes 1
grignot 1
grillage. 1
grille-grille. 1
grillent. 1
grillé 1
grillé. 1
grimaçant. 1
grimpant 1
grimper 1
grimpé 1
grincent 1
grincit. 1
grind 1
grinçant, 1
grinçante 1
gris-vert 1
grises. 1
grisâtre 1
grizzli 1
gros. 1
grottes 1
grottes. 1
gru@@ 1
grue, 1
gt 1
gue 1
guerrier, 1
guichet. 1
guidage 1
guidant 1
guider 1
guider. 1
guidon 1
guidons 1
guitar@@ 1
guitares, 1
guitariste. 1
guitaristes, 1
gul@@ 1
gur@@ 1
gut 1
guère 1
guérison. 1
gym, 1
gymnase, 1
gymnastes 1
gymnastic 1
gymnastiques. 1
gyro 1
gyro. 1
gâteaux. 1
gâter 1
gâteries 1
gèle 1
gère. 1
géantes. 1
géants 1
géants. 1
géishas 1
génie 1
génocide 1
générales 1
génératrice 1
géographique 1
gérante 1
gérer 1
gérée 1
gêne! 1
hab@@ 1
habile 1
habiles 1
habille 1
habille-né 1
habillent 1
habillé. 1
habillée. 1
habitation. 1
hachée 1
hachée. 1
haies 1
haies. 1
haine 1
haineux 1
hall, 1
haltérophilie. 1
halway 1
hamburger. 1
hamburgers. 1
hameau. 1
hameçon. 1
hammèrent 1
hanches 1
hand. 1
handball 1
hangar, 1
haricots. 1
harmoni@@ 1
harmonie. 1
harmonieux 1
harmonique 1
harnais, 1
hart 1
hausse 1
haut-cas 1
haut-parleur 1
haut-parleurs 1
haut-parleurs, 1
haut-parleurs. 1
haute, 1
hautement 1
hautes. 1
hauts, 1
havre 1
hawaen 1
hawaen. 1
hawaenne, 1
hawaenne. 1
hawaens 1
hawai@@ 1
hay. 1
helemt 1
helm 1
helment 1
helmet, 1
helmet. 1
helpful. 1
her. 1
herbe, 1
herbée. 1
heure 1
heure. 1
heureusement 1
heureusement. 1
heureuses. 1
heureux. 1
heurte. 1
heurter. 1
heurté 1
hibou, 1
hijab, 1
hill@@ 1
him. 1
hindi 1
hindou 1
hip 1
hip. 1
hippie 1
hippies 1
hipster 1
hispaniques 1
hiver, 1
hivernal. 1
hivernaux 1
hl 1
hm@@ 1
hockeyeur 1
hocky 1
hole. 1
homard 1
homosexuels 1
honda 1
honneur 1
honorer 1
honorés 1
honteuse 1
honteux. 1
hoodies 1
hoop, 1
hooping. 1
horaire 1
horizontal, 1
horizontal. 1
horizontales 1
horloge 1
horns 1
hors-bord. 1
hors-caméra. 1
hortons 1
hospit@@ 1
hospitalisé 1
huard. 1
huardent 1
hue 1
hula-hoop. 1
hula. 1
humain. 1
humains 1
humains. 1
humanode 1
humble 1
humide, 1
hummer 1
humoristique. 1
humour 1
humvee 1
hungrig. 1
hurlant 1
huskie 1
huskys 1
huélée. 1
hydraulique. 1
hydrauliques 1
hygiénique 1
hygiénique. 1
hâte. 1
hâtent 1
hébergé 1
hébreu. 1
hélice. 1
hélicoptère. 1
hélicoptères 1
héro 1
hêtre. 1
hôte 1
i-phone. 1
iMac. 1
iPad. 1
iPhone 1
iPod 1
ici! 1
ici. 1
icres 1
icône 1
icône. 1
identifie 1
identifié. 1
identifiée. 1
identique 1
identique. 1
identité, 1
idiot. 1
idéal 1
idée 1
ig 1
igloo, 1
igloo. 1
illuminat 1
illuminé 1
illustration 1
illustrations 1
illustre 1
ima@@ 1
immobile 1
immobilier. 1
immédiat. 1
impassiblement 1
impatiemment 1
impatients 1
impatients. 1
impeach 1
implique 1
impliqués 1
important 1
important. 1
importante, 1
importe 1
impressionnants. 1
impressionner 1
imprime 1
imprimés. 1
improvisé 1
improvisé. 1
improvisée 1
impuissant, 1
inamicals 1
incarcérés 1
incendie, 1
incertaine 1
incident. 1
inclinable. 1
incliné. 1
incohérents 1
inconnu 1
inconnue. 1
incroyable 1
incroyablement 1
incroyables. 1
incubateur 1
index 1
index. 1
indian@@ 1
indice. 1
indien. 1
indigo. 1
indigène, 1
indique 1
individuel. 1
individuelles. 1
individus 1
individus, 1
indu@@ 1
industrie. 1
industriel 1
industriel, 1
industriels 1
infections, 1
infirmiers 1
informatique 1
informatiques 1
informel. 1
infraction 1
ing-@@ 1
ingénieux 1
inhabituel, 1
inhalant 1
inhospitalier. 1
inidentifiable. 1
inju@@ 1
innocent 1
inondation 1
inondé 1
inondé. 1
inondée. 1
inquiet 1
inquiets, 1
inquiétude 1
inscription 1
inscriptions 1
inscrites. 1
insectes 1
insigne 1
insolente 1
inspecter 1
inspecteur 1
inspection, 1
inspi@@ 1
installant 1
installation. 1
installations. 1
installées 1
installés 1
instant 1
instructeur. 1
instructrice. 1
insulaire 1
intelligente. 1
intense. 1
intensement 1
intentionnellement). 1
inter 1
interactifs 1
interdisant 1
intermédiaire 1
internationale 1
internationaux 1
internationaux. 1
interpellent 1
interprétation 1
interrogé 1
interrupteur 1
intervenants 1
intervenir 1
intervention 1
interview 1
interviewer 1
interviewé. 1
interviewées 1
interviewés, 1
intestin 1
intime 1
intime. 1
intimité 1
intraveineuse. 1
intéressants, 1
intéressants. 1
intéressent. 1
intéressé. 1
intéressées 1
intéressés. 1
intérieure, 1
intérieurs. 1
intérêt 1
invention. 1
inverse, 1
inverse. 1
invité 1
invitée 1
invités. 1
inégal 1
irisque. 1
irlandaise. 1
irritée. 1
irt 1
isle 1
israéliens 1
it. 1
italien 1
italien. 1
italiennes 1
itten 1
ivre 1
jade 1
jalon 1
jambe, 1
jambes, 1
jambon. 1
japonais, 1
japonaise. 1
jardinent 1
jardiner, 1
jardiner. 1
jardinier 1
jardins 1
jaune-auto, 1
jaune-noir, 1
jaune-vert 1
javelin. 1
jazz. 1
jersey, 1
jetait 1
jets 1
jette. 1
jeté 1
jeune) 1
jeunesse 1
jeux, 1
jockey, 1
jockey. 1
jodhpurs 1
jogge. 1
joggent 1
joggers 1
joggers. 1
jogne 1
jogs. 1
joie! 1
joignant 1
joigne 1
joignent 1
joking 1
joli. 1
jolies, 1
jonction 1
jonga. 1
jonglant 1
jonglent 1
jonglers 1
jongleur 1
jonque 1
jouant, 1
jouantment 1
joue, 1
jouer, 1
jouera 1
joueur, 1
joueurs, 1
joueurs. 1
jouir 1
jouir. 1
jouissant. 1
jour, 1
jour-là. 1
journal, 1
journalistes, 1
journalistes. 1
jours 1
joute 1
jouée 1
jouée. 1
jubilatrice 1
jubilé 1
jubilée 1
jubilées 1
jug 1
jugant 1
juge-arbitre, 1
juge-arbitre. 1
jugeur 1
jugeurs 1
juggling. 1
jugs 1
jugés 1
juifs 1
juillet 1
juive 1
juive. 1
jukebox. 1
jumeau 1
jumeaux 1
jumeaux, 1
jumelle 1
jumelée 1
jumpos 1
jung@@ 1
jupes. 1
jury 1
jus, 1
justice 1
juté 1
k-9 1
kababs 1
kabob 1
kabobs. 1
kaki 1
kal@@ 1
kaléidoscope. 1
kan@@ 1
kangourou. 1
karaoké 1
karaoké. 1
karate, 1
kasse 1
kayak, 1
kayak. 1
kayakent 1
kayakistes, 1
kazoo 1
kenn@@ 1
ket 1
ketchup 1
kettle 1
khaki. 1
khakis, 1
khakis. 1
kill 1
kilomètre 1
kilomètres 1
kilt, 1
kilte 1
kimono, 1
kimonos, 1
kins 1
kiosques. 1
kis 1
kiss. 1
kite@@ 1
ko 1
kor@@ 1
korn 1
kra@@ 1
kuk 1
kung 1
kwon 1
kényenne 1
kéta 1
l'A.S.C.U.B.A. 1
l'AMC. 1
l'Afrique, 1
l'Arc 1
l'Arche 1
l'Est. 1
l'ICE 1
l'Inde. 1
l'Italie. 1
l'OU 1
l'Ohio 1
l'Oklahoma 1
l'Ouest 1
l'Ours 1
l'UNICEF. 1
l'UTEP 1
l'UW. 1
l'Unicef. 1
l'abattage. 1
l'abriter 1
l'abîme 1
l'accident 1
l'accident. 1
l'accompagne. 1
l'accompagnement 1
l'accouchement. 1
l'accroche 1
l'accrochent. 1
l'acide 1
l'action. 1
l'addition 1
l'adversaire. 1
l'afficher. 1
l'affrontement. 1
l'agent 1
l'aider. 1
l'ail. 1
l'aime 1
l'aise. 1
l'ajustement 1
l'alphabet 1
l'alphabétisation 1
l'aluminium, 1
l'ambiance. 1
l'ami. 1
l'amour 1
l'amusement. 1
l'animal 1
l'animal. 1
l'anneau 1
l'année 1
l'année. 1
l'aplaudissent. 1
l'appareil, 1
l'apparition 1
l'appartement 1
l'appel. 1
l'apprenez. 1
l'appui 1
l'apron 1
l'après-midi 1
l'apéritif. 1
l'araignée 1
l'arbitre. 1
l'arc 1
l'architecture 1
l'argenterie. 1
l'arme 1
l'armée, 1
l'arrimage. 1
l'arrière-bras 1
l'arrière-cour 1
l'arrière-cour, 1
l'arrière-seat 1
l'arrêt. 1
l'artisanat. 1
l'artiste. 1
l'arène, 1
l'aréna 1
l'ascenseur 1
l'asiatique. 1
l'asphalte 1
l'assainissement 1
l'assemblage. 1
l'assiette 1
l'assiette, 1
l'assouffle 1
l'assujettir. 1
l'atmosphère 1
l'attaque 1
l'attaque. 1
l'attendaient. 1
l'atterrissage 1
l'aube. 1
l'audience 1
l'autel 1
l'autobus, 1
l'autoroute, 1
l'avait 1
l'avance 1
l'avantage 1
l'avantage. 1
l'avenir. 1
l'avertit. 1
l'aveugle. 1
l'avoir 1
l'aérodrome. 1
l'aéroport, 1
l'aérosol 1
l'effort 1
l'egde 1
l'emballage 1
l'embarcation 1
l'embarcation. 1
l'emblème 1
l'emporte. 1
l'emprise 1
l'enceinte. 1
l'encercle. 1
l'enfance 1
l'enfoncement 1
l'entendent. 1
l'entraîne 1
l'entraînement 1
l'entrepôt. 1
l'entretien. 1
l'escalade. 1
l'escaladière. 1
l'escalier, 1
l'espadon 1
l'espresso 1
l'esprit. 1
l'essai 1
l'estomac 1
l'examen 1
l'examen. 1
l'examine. 1
l'examinent. 1
l'examiner. 1
l'excavation 1
l'excellence 1
l'excitation 1
l'exemple 1
l'exercice. 1
l'exposition. 1
l'expression 1
l'glise. 1
l'hache 1
l'heure. 1
l'hiver 1
l'humanité. 1
l'hydrogène. 1
l'hélice 1
l'hélicoptère 1
l'hôpital 1
l'hôpital, 1
l'hôpital. 1
l'identification 1
l'ignore. 1
l'immigration. 1
l'impact 1
l'incense. 1
l'infieldeur 1
l'information. 1
l'inning 1
l'innocence 1
l'inspiration. 1
l'instar 1
l'instructeur 1
l'instructeur. 1
l'instrument. 1
l'interprétation. 1
l'intersection 1
l'invité. 1
l'objectif 1
l'observation. 1
l'occupant 1
l'oeil 1
l'ombre, 1
l'ont 1
l'opposé 1
l'oppression 1
l'or. 1
l'orage 1
l'orange. 1
l'orchestre 1
l'ordinateur, 1
l'orgue 1
l'oriente 1
l'os 1
l'ouverture. 1
l'ouvrage. 1
l'tat 1
l'unicycle 1
l'unisson, 1
l'unisson. 1
l'université 1
l'urinal 1
l'urinal. 1
l'usage 1
l'usine 1
l'usine, 1
l'utilise 1
l'uvre 1
l'uvre, 1
l'Église 1
l'âne 1
l'éblouissement 1
l'ébranle. 1
l'échafaudage 1
l'échantillonnage 1
l'écharpe 1
l'échelle. 1
l'écho. 1
l'éclipse 1
l'écoutent 1
l'écrit. 1
l'écriture 1
l'écriture. 1
l'édifice 1
l'électronique. 1
l'élevant 1
l'émission 1
l'énergie 1
l'énorme 1
l'épingle. 1
l'épreuve 1
l'épée. 1
l'équilibre 1
l'équipage 1
l'équipe. 1
l'équipement. 1
l'équitation 1
l'érosion 1
l'établissement 1
l'étage, 1
l'étage. 1
l'étagère 1
l'étalage 1
l'étang 1
l'étiqueter 1
l'étiquette 1
l'étonnement 1
l'étonnement. 1
l'étranger 1
l'été 1
l'étête 1
l'évaporant 1
l'événement. 1
labor@@ 1
lage 1
lagune 1
laineur 1
laissait 1
laissez-passer 1
laissée 1
lait. 1
laitue 1
laitue. 1
lama. 1
lamas 1
lamelles 1
lamp@@ 1
lampadaire, 1
lampadaire. 1
lampes 1
lance. 1
lancer, 1
lances 1
lancé. 1
lancée. 1
lancées 1
langues 1
lapin, 1
lapin. 1
lapins, 1
lapins. 1
lared 1
large, 1
larges 1
largués. 1
laser. 1
lassoage 1
lassoer 1
lassos. 1
latin 1
latine 1
latine. 1
latino 1
latino-américain. 1
latino-américains. 1
latinos 1
latérale. 1
laugh@@ 1
lavage. 1
lavagent 1
lave-auto 1
lave-fenêtre 1
lave-linge. 1
lave-shampoo 1
lave. 1
laveur 1
laveuse. 1
lavée. 1
lavées 1
lavés 1
lay-up 1
layup 1
leader 1
leané 1
leis, 1
lemonade 1
lemonade. 1
lent 1
lent. 1
lentille. 1
lesbiennes 1
lettres. 1
levage 1
leçon 1
liasse 1
libellée 1
liberté, 1
libre-débarquement. 1
librement. 1
libéré 1
lie@@ 1
lien 1
lieux. 1
lignes. 1
lil@@ 1
limbo 1
limite 1
limo. 1
limonaises 1
linge 1
lingeries 1
linges. 1
linéaire 1
lion. 1
lionne 1
liqueur 1
liquide. 1
liquides 1
lisait 1
lisent, 1
lisent. 1
lisières 1
lissaient 1
lisses 1
litière 1
litière. 1
lits. 1
litt@@ 1
littoral 1
littéraire 1
livraison 1
livrer. 1
livres, 1
liège 1
liège. 1
liés 1
lk@@ 1
lli@@ 1
lly@@ 1
lob@@ 1
local, 1
locale 1
locale, 1
localité. 1
location, 1
locomotive. 1
logement. 1
logements 1
logo. 1
logos 1
loi 1
lointaine 1
lointaines. 1
loisir, 1
loisirs 1
loisirs. 1
lollipop 1
lollipop. 1
lollipops. 1
long, 1
longtemps 1
longue, 1
longue. 1
longuesrobes, 1
longueur 1
longueurs 1
loose, 1
lorsqu'elle 1
lot. 1
loterie. 1
lotissement 1
louer. 1
louisiana 1
loupe 1
lourde, 1
lourdes 1
lourds, 1
lourds. 1
lubrifie 1
ludique 1
luge. 1
lui) 1
lui-même. 1
lulle 1
lumineuses. 1
lumineux; 1
lune 1
lungi, 1
luth 1
lutte, 1
lutteur. 1
luxe, 1
luxueuse 1
luxuriante 1
là, 1
lâche 1
lâche, 1
lâche. 1
lâches 1
lâché 1
lève, 1
lève. 1
lèvre. 1
lèvres, 1
léchée 1
léctron. 1
légers 1
légumes, 1
légère. 1
légèrement. 1
lésés 1
lévite 1
lézard 1
lézard. 1
lézards 1
l’Oklahoma 1
l’arrière 1
l’autre 1
l’eau. 1
l’herbe. 1
l’horizon. 1
l’océan 1
l’un 1
l’équipe 1
m&amp;h 1
macbook. 1
mache 1
machette 1
machette. 1
macquée 1
magasinage. 1
magasiner 1
magasins, 1
magicien 1
magique 1
magique. 1
magnifier 1
magnifiquement 1
maigre 1
maigres, 1
maillage. 1
mains; 1
maintient 1
maisons, 1
maisons. 1
maitrisée 1
majestueusement 1
majestueuses 1
majeur. 1
majorette 1
malade. 1
malheureuse 1
malheureuse. 1
malheureuses, 1
malheureux, 1
malheureux. 1
malveillants 1
mama 1
man-@@ 1
manchons 1
manette 1
mange, 1
mangeaient 1
mangent, 1
maniant 1
maniement 1
manier 1
manifestant 1
manifestants. 1
manifestation, 1
manifestent 1
manipuler 1
manière, 1
mann@@ 1
mannequin. 1
mannequine 1
manoeuvre 1
manquante 1
manquantes 1
manquent, 1
manteaux, 1
mantis 1
manuel 1
manuel. 1
manuscrite 1
manuvrent 1
manuvres. 1
maquillage, 1
marchand. 1
marchandise 1
marchands. 1
marchante 1
marcher, 1
marchette 1
mariachi 1
marie. 1
marier 1
marier, 1
marines. 1
marionne. 1
marionnete 1
marionnettes 1
marionnettes. 1
maritimes 1
mariée, 1
marketplace. 1
marlboro 1
maroon, 1
marquages 1
marque, 1
marquent 1
marqué. 1
marqués 1
marrons 1
marrons. 1
marshal 1
marshal. 1
marteau, 1
martir 1
marécage. 1
marécageuse 1
marécageuse. 1
mas, 1
mas-grain. 1
mascara. 1
masque. 1
masqué. 1
masquée 1
masses 1
masses. 1
massif. 1
massifs. 1
massive. 1
mastice 1
mat. 1
matelassé 1
matelassée, 1
matelassée. 1
matelot 1
mathématiques 1
mathématiques. 1
matinal. 1
matinée 1
matraque. 1
matraques 1
matures 1
matériau 1
matériaux 1
matériaux. 1
matériel, 1
mauvaise! 1
mauve 1
mauves 1
maximiser 1
maîtres 1
maîtresse 1
maîtriser 1
mc@@ 1
med-evil. 1
mediante. 1
melon. 1
melons, 1
melons. 1
members. 1
membre. 1
mendant 1
mendiant. 1
mendier 1
mendit 1
mener 1
menorah 1
ment@@ 1
menthe 1
menton 1
menuiserie 1
menuisier 1
menées 1
mercerie 1
mermaid 1
mermaid, 1
merveilleux. 1
mesure. 1
mesurent 1
mesures 1
mesuré 1
mettrons 1
meubles. 1
meuler. 1
meurtre. 1
mexicaines 1
mexicains 1
mexicains, 1
mi-chemin. 1
mi-course. 1
mi-nuit. 1
mi-sentence. 1
mia 1
micros. 1
microscopes. 1
midi. 1
miel. 1
milieux 1
milit@@ 1
militaires. 1
milliers 1
milliers. 1
mime 1
mime. 1
mince. 1
minces, 1
minerai 1
mines. 1
mini 1
mini-fourgonnette 1
mini-fourgonnette. 1
mini-jupes 1
mini-or 1
mini-robes 1
minifourgonnette 1
minigolf, 1
minigolf. 1
ministère 1
minuscules. 1
mire, 1
mire. 1
miroirs 1
mission 1
mitrailleuse, 1
mitten 1
mittens 1
mixage 1
mixte 1
mixtes 1
mixtes. 1
mmen@@ 1
mmer@@ 1
mn 1
mobiles 1
mobiles. 1
mobilité 1
moche 1
mockingbird 1
mode, 1
moderne, 1
modi@@ 1
modifiant 1
modifie 1
modèle, 1
modèle. 1
modèles. 1
modérément 1
mohawk, 1
mohawk. 1
moi 1
moin. 1
moines. 1
mois 1
moisissures 1
moitiés 1
molle 1
moller 1
molles 1
mom's 1
moments. 1
mon, 1
mondial 1
mondiale. 1
monit@@ 1
moniteurs 1
monnaie. 1
monoboard 1
monopole 1
monopole, 1
monstre 1
montage 1
montage. 1
montagnes, 1
montrait 1
montres 1
montée. 1
moppe 1
morceaux. 1
mordent 1
mordent. 1
mordu 1
mort 1
morte, 1
morts. 1
mosaque 1
mosaque, 1
mosaque. 1
mosquée 1
motocross, 1
motocrosse 1
motocycle 1
motocycles 1
motocyclettes, 1
motocycliste, 1
motocyclistes. 1
motomarine. 1
motoporte. 1
motorcycles. 1
motori@@ 1
motorisé 1
motorisés 1
motoroute. 1
motosport 1
motrices 1
mots. 1
mou. 1
mouche. 1
moudre 1
mouflon 1
mouillage. 1
mouiller 1
mouillées. 1
moulures 1
mourra 1
mousie. 1
mousse. 1
moustache, 1
moustaches 1
moustaches, 1
moustaché 1
moustaché, 1
moustiquaire. 1
moustiquaires 1
moustiques 1
mouvement, 1
mouvement; 1
moyen. 1
moyens 1
mp3. 1
mugs. 1
mules. 1
mulet, 1
mulet. 1
mulets 1
multi-générations 1
multicolore, 1
multicolores, 1
multiethniques 1
multimédia. 1
multitude 1
municipal. 1
mur@@ 1
murs, 1
muscle 1
musi@@ 1
musicale. 1
musicales 1
musicals. 1
musicaux 1
musulman 1
mut@@ 1
mutuel 1
mutuellement. 1
myes. 1
mystérieux 1
mâchent 1
mâchera 1
mât, 1
mènent. 1
mènera 1
méandre 1
mécanicien. 1
mécaniques 1
mécaniques. 1
mécontent 1
médaille 1
médaillons 1
médaillé 1
médatative. 1
médecins. 1
médian 1
médiane 1
médias 1
médias. 1
médiatique 1
médical, 1
médicale 1
médicale. 1
médicales 1
médicales. 1
médicaments 1
médiocre 1
médite. 1
méditer. 1
médiéval 1
médiéval. 1
médiévale. 1
médiévaux 1
médiévaux. 1
méfier 1
mélangeur. 1
mélangées. 1
ménagers 1
mérite 1
méritée. 1
métallurgie. 1
méticuleusement 1
métiers. 1
métropole 1
métropolitaine 1
mêlant 1
même. 1
mûre. 1
n'aime 1
n'empêche 1
n'entendent 1
n'y 1
n'écoute 1
nage, 1
nageaient 1
nageent 1
nageoires 1
nageur, 1
nageuses 1
nah 1
nain 1
nain, 1
naines 1
naissain. 1
naissance 1
nan 1
nanny 1
napa. 1
narines. 1
nascar 1
natation. 1
nation 1
nationalité 1
nationaux 1
nations 1
naturel 1
nautique. 1
nautiques 1
naval. 1
naviguer 1
navires 1
nea@@ 1
neh@@ 1
neigeur 1
neigeuse. 1
nerf. 1
nerveux 1
nettoyer. 1
nettoyé. 1
nettoyée 1
neu@@ 1
neuf, 1
neutre 1
ni 1
nichante 1
nichante. 1
nid 1
nidifiée. 1
ninja 1
ninja. 1
ninjas 1
nis 1
niveau, 1
niveaux. 1
niveler 1
niveler. 1
noircée 1
noix. 1
nombre, 1
nombreux. 1
nommée 1
nommés 1
noms. 1
non, 1
noodle 1
nordique 1
normal 1
normaux 1
not@@ 1
notamment 1
note. 1
nourrissant 1
nourrisson 1
nouveauté. 1
nouvel 1
nouvelle, 1
noué. 1
novice 1
nu, 1
nu. 1
nuageuse 1
nue, 1
numer@@ 1
numérisant. 1
numérotées. 1
numérotés 1
numérotés, 1
nuque 1
nylons 1
né 1
nécessaire, 1
nécessaires 1
nécessaires. 1
négociant 1
objet, 1
obligé 1
obnoxieusement 1
obscur 1
obscur. 1
obscurci 1
obscurcies. 1
obscène 1
observant. 1
observateurs) 1
observateurs, 1
observateurs. 1
observé 1
observées 1
observés 1
obsta@@ 1
obstacle, 1
obèse 1
occasion. 1
occidental. 1
occidentale 1
occidentaux. 1
occultant 1
occulte 1
occupant 1
occupants 1
occupés 1
oculaires. 1
océanique, 1
od@@ 1
oeufs, 1
oeufs. 1
oeuvre. 1
offen@@ 1
offensif 1
offert 1
offertes 1
officiel, 1
officiel. 1
officielles, 1
officielles. 1
officiels 1
officiels, 1
officier. 1
offrant 1
offrir 1
oies. 1
oignon 1
oignons 1
oiseau, 1
olive, 1
olive. 1
olivier. 1
ollie 1
ollie. 1
olympiques, 1
ombre. 1
ombreuses, 1
ondulés 1
ondulés, 1
ongle 1
ongle. 1
onne 1
ont. 1
op-@@ 1
oph@@ 1
opinion 1
opportun. 1
opposante 1
opposée, 1
opposées, 1
opposés, 1
opèrent 1
opérant 1
opérateurs 1
opération. 1
opérer 1
or, 1
or-@@ 1
oran@@ 1
orange), 1
oranges, 1
orateur. 1
orateurs 1
ordinaires 1
ordinateurs, 1
ordinateurs. 1
ordonnances. 1
oreille 1
organe 1
organisation 1
organisme 1
organiste 1
organisé. 1
organisées. 1
orientales 1
orientent 1
orignal 1
orn@@ 1
ornement. 1
ornemental 1
ornementée, 1
ornés 1
orques 1
orteil 1
ory 1
otaries 1
ourdou 1
ourson. 1
outdoors. 1
outfiel@@ 1
outfut 1
ouvertes. 1
ouverture. 1
ouvertures 1
ouvreant 1
ouvrière 1
ovales 1
ovin 1
ow 1
oxfords 1
pacifiant 1
pacificateur, 1
paddy 1
pagayer 1
pagayés 1
paiement 1
paiement. 1
paient 1
paintball. 1
paisible 1
paler 1
palme 1
palourdes 1
palourdes. 1
pan. 1
pancake 1
pancakes! 1
pancarte 1
panda. 1
panneaux, 1
pannette 1
panoramique. 1
pantalon. 1
pantalons, 1
pantoufle 1
papa 1
papasan 1
pape 1
papillons. 1
paque 1
paquet. 1
para-olympiens 1
parachutant 1
parachutant, 1
parachutes, 1
parachutes. 1
parade, 1
parakite 1
parallèles, 1
paralympiques 1
paralysée 1
paramédical 1
parasailing. 1
parasaillier 1
paraskieur 1
parasols, 1
parc; 1
parcouru 1
parcouru. 1
parcs. 1
pare-chocs. 1
pare-feu. 1
pare-soleil 1
parent. 1
parfaite 1
parfum 1
parfums. 1
paris 1
parkour 1
parlait. 1
parlant, 1
parole 1
paroles 1
parquet 1
parrainée 1
parrot 1
part, 1
partagé 1
partenaire 1
partenaires. 1
parti 1
partielle, 1
parties. 1
partition. 1
passager. 1
passagers, 1
passagère 1
passagères 1
passaient 1
passant, 1
passants, 1
passes, 1
passionnant 1
passionné, 1
passionnés 1
passé, 1
passée 1
passées 1
passées. 1
pastel 1
pasteur. 1
paternité 1
patience. 1
patiente 1
patiente. 1
patientement 1
patients 1
patin. 1
patinagelant 1
patinant. 1
patinent. 1
patineure 1
patineuses 1
patineuses, 1
pating 1
patinoires 1
patinoires, 1
patins, 1
patiné. 1
patio, 1
patriote 1
patriotes 1
patriotique, 1
patriotiques 1
patriotisme 1
patron. 1
pattes, 1
pause-feu 1
pauses 1
pauvreté. 1
pavant 1
paver 1
pavillon 1
pavèrent 1
pavée, 1
pavées 1
pavées. 1
pavés 1
payer 1
pays, 1
paysagers 1
paysan 1
paysans 1
peach. 1
peacock, 1
peaux 1
peaux. 1
peewee 1
peignant 1
peindre. 1
peine. 1
peinent 1
peints, 1
peinvent 1
pelant 1
pelleter 1
pelouses 1
pelue 1
penchés 1
pend 1
pendées 1
penguin 1
penny. 1
pensent 1
penser 1
pensive 1
pensée 1
pentes 1
pentes. 1
percant 1
perche, 1
perche. 1
perchoire. 1
percé 1
percées. 1
percés 1
perdant 1
perdre 1
perdre. 1
perdu, 1
perdu. 1
perdus 1
perform@@ 1
performan@@ 1
permanent 1
permet 1
permette 1
permis 1
perméant 1
perplexe 1
perroquet 1
perruques 1
personnage. 1
personnel. 1
personnels. 1
perspirant 1
perusal 1
pesaient 1
petit-enfant. 1
petit-fils 1
petits. 1
petri 1
peu. 1
peuple 1
peuple. 1
peuples, 1
peuplé. 1
peuplée 1
peur. 1
peut-être, 1
peut. 1
phares 1
pharmacien 1
phoque 1
photographes. 1
photographiant 1
photographiant. 1
photographie, 1
photographient. 1
photographier. 1
photographies 1
photographiées 1
photothèque. 1
physiquement 1
physiquement. 1
pian@@ 1
pianiste 1
pianiste. 1
pic, 1
pidgin. 1
pierres? 1
pierreuse. 1
pieu 1
pieu, 1
pieuvre. 1
pig@@ 1
pilon 1
pilotage. 1
pilotant 1
pilotent 1
piloter 1
pilotes. 1
pinata, 1
pinceau. 1
pinceaux. 1
pincer 1
pinces. 1
pincière. 1
ping-pong. 1
pinguin 1
pinguin. 1
pink-@@ 1
pink@@ 1
pionnière 1
pique-nique, 1
pique-niquent 1
piquetait 1
piqueur 1
pirate. 1
pitbull 1
pitch. 1
pitcher. 1
[...]
