. 1939
a 1755
in 932
ein 707
, 663
einem 470
the 368
eine 335
on 322
auf 313
und 304
mit 292
mann 281
man 277
and 256
einer 254
is 254
der 240
die 224
of 215
with 212
an 186
are 134
frau 133
einen 130
two 129
zwei 127
woman 124
im 121
at 105
people 102
junge 100
boy 94
to 91
sitting 90
wearing 88
young 87
mädchen 86
white 83
dem 81
shirt 80
black 79
sitzt 79
steht 78
das 72
girl 72
his 72
standing 70
dog 69
vor 69
zu 68
red 67
hund 66
von 66
while 61
hemd 60
männer 56
playing 55
men 54
sich 54
person 52
little 50
roten 50
green 49
während 49
hält 48
down 45
straße 45
blue 44
eines 43
her 43
spielt 43
holding 42
durch 41
front 41
water 41
am 40
drei 40
three 40
trägt 40
den 39
hat 39
neben 39
large 38
personen 38
sitzen 38
walking 38
for 37
ist 37
street 37
weißen 37
group 36
beach 35
one 35
through 35
ball 34
kind 34
outside 34
park 34
aus 33
by 33
child 33
gruppe 33
hand 33
strand 33
stehen 32
um 32
up 32
wasser 32
freien 31
near 31
blickt 30
brown 30
from 30
into 30
looking 30
springt 30
women 30
leute 29
nähe 29
yellow 29
baby 28
entlang 28
kleines 28
über 28
out 27
pool 27
blauen 26
geht 26
grünen 26
kinder 26
spielen 26
-@@ 25
children 25
etwas 25
frauen 25
hosen 25
jungen 25
behind 24
jumping 24
working 24
field 23
jacket 23
next 23
rennt 23
schwarzen 23
another 22
großen 22
jacke 22
junger 22
oberteil 22
paar 22
sand 22
small 22
some 22
as 21
bench 21
fahrrad 21
fährt 21
hinter 21
restaurant 21
shorts 21
&apos;s 20
bei 20
e@@ 20
menschen 20
nach 20
table 20
mehrere 19
riding 19
sie 19
their 19
around 18
bank 18
be@@ 18
girls 18
gras 18
grass 18
macht 18
off 18
s 18
sein 18
sidewalk 18
snow 18
tisch 18
an@@ 17
er 17
ge@@ 17
gehen 17
hut 17
kleiner 17
road 17
sind 17
stands 17
building 16
dressed 16
für 16
hintergrund 16
kleinen 16
running 16
several 16
together 16
top 16
train 16
anderen 15
background 15
bike 15
boys 15
camera 15
e 15
face 15
gelben 15
jeans 15
kamera 15
over 15
sits 15
stand 15
arbeiten 14
arbeitet 14
car 14
dogs 14
essen 14
food 14
orange 14
rock 14
schnee 14
smiling 14
wooden 14
zusammen 14
a@@ 13
b@@ 13
crowd 13
dress 13
ers 13
four 13
has 13
hoch 13
k@@ 13
looks 13
machen 13
old 13
pants 13
re@@ 13
schwarzer 13
swimming 13
te 13
that 13
them 13
air 12
bicycle 12
boat 12
city 12
des 12
eating 12
feld 12
gebäude 12
gitarre 12
guitar 12
him 12
hunde 12
lächelt 12
orangefarbenen 12
s@@ 12
sch@@ 12
t-shirt 12
t@@ 12
ten 12
toy 12
unter 12
weißer 12
workers 12
about 11
andere 11
arm 11
asian 11
back 11
baseball 11
boot 11
construction 11
es 11
f@@ 11
five 11
glasses 11
guy 11
hair 11
holds 11
jumps 11
kitchen 11
la@@ 11
liegt 11
menschenmenge 11
schwarz 11
seine 11
seinem 11
sit 11
t 11
taking 11
team 11
vier 11
wall 11
zug 11
&quot; 10
ab@@ 10
along 10
area 10
boden 10
brille 10
couple 10
fahren 10
female 10
g 10
gehweg 10
gesicht 10
hands 10
i@@ 10
ihm 10
ihre 10
in@@ 10
ins 10
it 10
its 10
kleine 10
lady 10
or 10
other 10
pink 10
rennen 10
sehen 10
sieht 10
vorbei 10
waiting 10
watching 10
wie 10
zusieht 10
älterer 10
als 9
anzug 9
auto 9
be 9
bikini 9
blicken 9
braunen 9
bus 9
chair 9
colorful 9
de 9
de@@ 9
er@@ 9
führt 9
fünf 9
g@@ 9
gen 9
grassy 9
große 9
haaren 9
halten 9
herum 9
horse 9
ihr 9
instrument 9
kids 9
klettert 9
male 9
picture 9
play 9
posieren 9
reading 9
rides 9
schwarze 9
schwimmbecken 9
seiner 9
soccer 9
something 9
spielzeug 9
talking 9
tragen 9
under 9
walk 9
walks 9
warten 9
window 9
z@@ 9
2 8
am@@ 8
arbeiter 8
auf@@ 8
ba@@ 8
bereiten 8
brauner 8
dame 8
day 8
dock 8
elderly 8
familie 8
family 8
fenster 8
führen 8
ges 8
gray 8
ground 8
hanging 8
hats 8
hill 8
holz@@ 8
hügel 8
isst 8
kleinkind 8
luft 8
m 8
many 8
middle 8
outfit 8
performing 8
pferd 8
rope 8
runs 8
schläft 8
seinen 8
side 8
stadt 8
suit 8
ter 8
tree 8
uniform 8
using 8
ver@@ 8
very 8
viele 8
watches 8
wiese 8
wird 8
across 7
baum 7
beside 7
bühne 7
cap 7
climbing 7
cross 7
denen 7
di@@ 7
doing 7
ds 7
en 7
ende 7
grill 7
großes 7
hand@@ 7
ice 7
ihren 7
kid 7
kleid 7
kleidung 7
küche 7
laying 7
liest 7
light 7
lo@@ 7
long 7
läuft 7
night 7
o@@ 7
obst 7
ocean 7
oder 7
preparing 7
ps 7
ra@@ 7
safety 7
schwarzem 7
sehr 7
sen@@ 7
sign 7
stage 7
stellt 7
they 7
ti@@ 7
truck 7
ts 7
ung 7
vest 7
vests 7
vor@@ 7
wand 7
weißes 7
werden 7
work 7
( 6
) 6
ab 6
above 6
alter 6
asiatischer 6
bauarbeiter 6
beautiful 6
bi@@ 6
big 6
bild 6
board 6
body 6
bowling 6
busy 6
bürgersteig 6
cafe 6
catch 6
colored 6
couch 6
covered 6
cu@@ 6
d@@ 6
darauf 6
decke 6
ding 6
do@@ 6
en@@ 6
fahrzeug 6
fangen 6
fußball 6
game 6
ge 6
ger 6
getting 6
gibt 6
h@@ 6
hammer 6
having 6
hemden 6
hikers 6
ihnen 6
ihrer 6
kindern 6
kniet 6
kurzen 6
li@@ 6
line 6
ling 6
look 6
ly 6
mar@@ 6
market 6
me@@ 6
mitte 6
mouth 6
männliche 6
nacktem 6
oben 6
oberkörper 6
on@@ 6
painting 6
pi@@ 6
platform 6
police 6
posing 6
purple 6
ready 6
ride 6
rotem 6
sche 6
schwarz-weißer 6
schönen 6
seil 6
setting 6
skateboard 6
so@@ 6
station 6
stock 6
striped 6
stuhl 6
tall 6
tan 6
tasche 6
te@@ 6
tennis 6
there 6
u@@ 6
ur@@ 6
w@@ 6
wagen 6
wanderer 6
wasser@@ 6
we@@ 6
weg 6
weiße 6
wo 6
zusehen 6
adult 5
after 5
all 5
alte 5
american 5
anderer 5
apron 5
asiatische 5
b 5
bag 5
beim 5
being 5
bereitet 5
blanket 5
blond 5
blond-hair 5
blonden 5
bo@@ 5
break 5
bright 5
cake 5
car@@ 5
ch 5
co@@ 5
concrete 5
cooking 5
counter 5
dabei 5
dirt 5
driving 5
during 5
ed 5
einander 5
einige 5
em 5
enjoy 5
erten 5
facing 5
fish 5
flag 5
floor 5
fruit 5
full 5
gear 5
gekleidet 5
geländer 5
gg@@ 5
grillen 5
grün 5
grünem 5
haar 5
hard 5
haus 5
helmet 5
her@@ 5
hoch@@ 5
hände 5
hängen 5
ihrem 5
ing 5
jemand 5
k 5
ke 5
ken 5
laughing 5
leiter 5
like 5
loh@@ 5
lots 5
m@@ 5
maul 5
mehr@@ 5
mi@@ 5
motorrad 5
music 5
mütze 5
older 5
open 5
others 5
outdoor 5
outdoors 5
p 5
pa@@ 5
pause 5
pfad 5
playground 5
plays 5
pp@@ 5
public 5
pulling 5
pullover 5
purse 5
pushing 5
rei@@ 5
reihe 5
reitet 5
ro@@ 5
rocks 5
rolling 5
room 5
rücken 5
schi@@ 5
schild 5
schutzwe@@ 5
schürze 5
shirts 5
singing 5
skifahrer 5
sleeping 5
spielplatz 5
spricht 5
springen 5
statue 5
sten 5
stone 5
surrounded 5
sweater 5
swim 5
swing 5
ta@@ 5
take 5
tank 5
teenage 5
this 5
toddler 5
track 5
trees 5
um@@ 5
un@@ 5
v@@ 5
versucht 5
vielen 5
voller 5
zeigt 5
zieht 5
zu@@ 5
ü@@ 5
adults 4
african 4
al 4
al@@ 4
app@@ 4
ar 4
ar@@ 4
arbeit 4
arms 4
arts 4
asleep 4
away 4
bahn 4
balloon 4
balloons 4
bar 4
barbecue 4
bart 4
bedeckt 4
bedient 4
beer 4
beige 4
bereit 4
beton@@ 4
betrachtet 4
bikes 4
bin@@ 4
bird 4
blauem 4
blauer 4
blonde 4
blowing 4
book 4
bowlingkugel 4
bridge 4
brush 4
brücke 4
bu@@ 4
buch 4
bä@@ 4
bäumen 4
c@@ 4
carrying 4
ck 4
cken 4
class 4
cleaning 4
climbs 4
clothes 4
cor@@ 4
crowded 4
cup 4
d 4
dach 4
dark 4
der@@ 4
diese 4
dirty 4
display 4
distance 4
does 4
e-@@ 4
each 4
el@@ 4
electric 4
ell@@ 4
elt 4
end 4
enden 4
erwachsener 4
ex@@ 4
eye 4
fahrrad@@ 4
fe@@ 4
felsen 4
ferne 4
fla@@ 4
flagge 4
flo@@ 4
fluss 4
foto 4
ganz 4
geben 4
gebäuden 4
gelbes 4
genießt 4
gestreiften 4
get 4
getränk 4
gewässer 4
gleis 4
goalie 4
grauen 4
greift 4
grilling 4
großer 4
grüne 4
gut 4
guys 4
h 4
ha@@ 4
handstand 4
head 4
helm 4
helmets 4
high 4
ho@@ 4
hocke 4
hockey 4
hole 4
hose 4
house 4
händen 4
hölzernen 4
j@@ 4
ke@@ 4
kneeling 4
kopf 4
kreuz 4
l 4
leaps 4
leuten 4
liche 4
lin@@ 4
lit 4
loch 4
machine 4
malt 4
mannes 4
markt 4
martial 4
maschine 4
meer 4
metal 4
metall@@ 4
multicolored 4
mutter 4
nacht 4
nose 4
ob 4
object 4
objekt 4
ons 4
operation 4
or@@ 4
overall 4
overalls 4
overlooking 4
pan 4
parked 4
past 4
path 4
pe@@ 4
per 4
pfanne 4
pile 4
plastic 4
platz 4
player 4
prepare 4
pro@@ 4
rad@@ 4
reaching 4
reden 4
river 4
rosa 4
run 4
scene 4
sch 4
schaukel 4
schen 4
schneidet 4
schuhe 4
schutzhelm 4
schw@@ 4
schwimmbad 4
sechs 4
see 4
selling 4
sen 4
set 4
shirtless 4
shoes 4
singt 4
six 4
skulptur 4
slo@@ 4
smiles 4
someone 4
sprechen 4
spring 4
stapel 4
stein 4
stein@@ 4
steinen 4
steps 4
stick 4
store 4
straw 4
streckt 4
städtische 4
subway 4
tag 4
tasse 4
teenager 4
ten@@ 4
ter@@ 4
theke 4
these 4
throwing 4
ting 4
tongue 4
tor 4
tritt 4
trying 4
u-bahn 4
ul@@ 4
umgeben 4
umgebung 4
unten 4
unterhalten 4
urban 4
ure 4
various 4
vendor 4
wa@@ 4
wake@@ 4
wald 4
watch 4
weißem 4
wet 4
who 4
wi@@ 4
wirft 4
wood 4
woods 4
y 4
zaun 4
zelt 4
zunge 4
zwischen 4
überqueren 4
&apos; 3
advertisement 3
alle 3
alley 3
arbeit@@ 3
arran@@ 3
atv 3
au@@ 3
audience 3
augen@@ 3
ausge@@ 3
bade@@ 3
barfuß 3
baseballkappe 3
baut 3
beam 3
bearded 3
bed 3
befinden 3
beg@@ 3
beide 3
belebten 3
benutzt 3
ber 3
bereich 3
bestehende 3
bett 3
between 3
bewegt 3
bicycles 3
bier 3
bikers 3
binoculars 3
blasen 3
blau 3
both 3
bottle 3
braunes 3
brunette 3
bs 3
bubbles 3
bucket 3
buildings 3
bushes 3
bö@@ 3
ca@@ 3
cal@@ 3
candles 3
carriage 3
ce 3
cellphone 3
ch@@ 3
che 3
chefs 3
chen 3
cht 3
cke 3
cker 3
cking 3
clean 3
clothing 3
coffee 3
concert 3
conversation 3
costume 3
covering 3
cream 3
ct@@ 3
cting 3
cutting 3
da@@ 3
dance 3
dancing 3
dass 3
davor 3
ders 3
desert 3
dis@@ 3
diving 3
do 3
draußen 3
dri@@ 3
drink 3
du@@ 3
duck 3
ei@@ 3
eimer 3
ein@@ 3
einkauf@@ 3
einkaufszentrum 3
eis 3
eis@@ 3
ent 3
ered 3
ern 3
erwachsene 3
erwachsenen 3
ery 3
ette 3
factory 3
fahr@@ 3
fahrer 3
fahrrädern 3
farbenen 3
farbener 3
farbenfrohen 3
farbige 3
felswand 3
fence 3
few 3
fischen 3
fixing 3
flasche 3
flie@@ 3
flip 3
flower 3
freunden 3
friends 3
fro@@ 3
fuß@@ 3
ga@@ 3
gan@@ 3
garden 3
gebäudes 3
gegenüber 3
gekleidete 3
gel@@ 3
gelbe 3
gelber 3
gemälde 3
genießen 3
gentleman 3
gerade 3
gerät 3
gerüst 3
gieren 3
giving 3
go 3
goggles 3
golf 3
grills 3
gro@@ 3
gt 3
haben 3
hall 3
halle 3
hamburger 3
handtasche 3
handy 3
haufen 3
heraus 3
herd 3
herr 3
herunter 3
hin 3
hinauf 3
hinten 3
hinter@@ 3
hinunter 3
hochzeit@@ 3
hohen 3
holz 3
holzbank 3
hängt 3
ihn 3
individuals 3
inflatable 3
inside 3
it@@ 3
jemandem 3
ju@@ 3
juggling 3
jumpsuit 3
junges 3
ka@@ 3
kaffee 3
kar@@ 3
karate 3
ker 3
kerzen 3
kicking 3
kie 3
kissing 3
klettern 3
kommt 3
konzert 3
kostüm 3
kra@@ 3
ku@@ 3
kuchen 3
kunft 3
kunststoff@@ 3
kurz 3
ky 3
kämpfen 3
köche 3
küchen@@ 3
lab 3
lacht 3
ladder 3
lake 3
land 3
lang@@ 3
langen 3
laufen 3
le 3
le@@ 3
left 3
ler 3
lesen 3
lich 3
liches 3
lies 3
lkw 3
luftball@@ 3
making 3
mat 3
mauer 3
meal 3
mel@@ 3
menschengruppe 3
microphone 3
mischer 3
mitarbeiter 3
miteinander 3
mitten 3
mixing 3
mm@@ 3
mo@@ 3
mobile 3
mon@@ 3
mor@@ 3
mother 3
ms 3
musik 3
männlicher 3
mützen 3
n 3
nase 3
ne 3
nehmen 3
neon 3
ni@@ 3
nimmt 3
no 3
offenen 3
ohne 3
oli@@ 3
operating 3
ori@@ 3
ot@@ 3
p@@ 3
paddeln 3
paper 3
park@@ 3
part@@ 3
pass 3
perform 3
photo 3
piece 3
plattform 3
polizei@@ 3
pond 3
pose 3
poses 3
posiert 3
pot 3
protective 3
publikum 3
pullunder 3
r 3
race 3
radfahrer 3
raum 3
rea@@ 3
reaches 3
read 3
reflective 3
reinigt 3
restaurant@@ 3
richtung 3
right 3
ring 3
roller 3
rosafarbenen 3
rote 3
rutsche 3
rutscht 3
rä@@ 3
rührt 3
sa@@ 3
sale 3
scaffolding 3
scheint 3
schiebt 3
schlagen 3
schlauch 3
schlitten 3
schlägt 3
schmutzigen 3
schneebedeckten 3
schutzhelmen 3
schwebt 3
schwimm@@ 3
schwimmt 3
sculpture 3
se@@ 3
seen 3
sewing 3
she 3
shed 3
shi@@ 3
showing 3
shows 3
si@@ 3
skateboarder 3
skiers 3
sled 3
sleeps 3
slide 3
sliding 3
smo@@ 3
some@@ 3
sonne 3
sonnen@@ 3
sonnenbrille 3
sp@@ 3
spiel 3
spiel@@ 3
spon@@ 3
spor@@ 3
ss@@ 3
st@@ 3
stack 3
stahl@@ 3
staircase 3
ste 3
stea@@ 3
steel 3
stop 3
stove 3
strands 3
straßen 3
stroh@@ 3
städtischen 3
su@@ 3
sucht 3
sun 3
sunglasses 3
tal@@ 3
talk 3
tanzt 3
ted 3
teil 3
tent 3
th@@ 3
topf 3
tracks 3
tractor 3
traditional 3
traktor 3
treppe 3
trinkt 3
tro@@ 3
tru@@ 3
trunks 3
tten 3
tz@@ 3
underwater 3
ungs@@ 3
unter@@ 3
unterwegs 3
vehicle 3
verkauft 3
video 3
vogel 3
vollen 3
wal@@ 3
walk@@ 3
wedding 3
weibliche 3
weiß 3
werbung 3
weste 3
westen 3
which 3
wn 3
wobei 3
wohn@@ 3
works 3
wüste 3
y@@ 3
yel@@ 3
ying 3
younger 3
zeit@@ 3
zubereitet 3
zug@@ 3
zum 3
zur 3
zusammen@@ 3
zöpfen 3
ße 3
ä@@ 3
ältere 3
über@@ 3
- 2
-like 2
12 2
3 2
5 2
; 2
aber 2
accordion 2
act 2
afroamerikanische 2
against 2
akkordeon 2
all@@ 2
almost 2
also 2
alten 2
amerikanischen 2
among 2
anderes 2
ange@@ 2
ani@@ 2
anlage 2
ansieht 2
anti@@ 2
apartment 2
approaching 2
arbeitskleidung 2
ari@@ 2
ars 2
arti@@ 2
ary 2
assem@@ 2
at@@ 2
ated 2
ath 2
ating 2
ation 2
ats 2
attire 2
auch 2
aufs 2
aufzu@@ 2
augen 2
aus@@ 2
ausflug 2
aussieht 2
auto@@ 2
baby@@ 2
back@@ 2
backpack 2
backwards 2
badeanzug 2
badeho@@ 2
badehose 2
bahnsteig 2
bal@@ 2
bald 2
balken 2
banjo 2
bar@@ 2
barefoot 2
baren 2
barrel 2
baseball@@ 2
bathing 2
baum@@ 2
baumstamm 2
baustelle 2
bauwerk 2
bb@@ 2
becken 2
bedienen 2
behälter 2
beigefarbenen 2
bel@@ 2
belebte 2
below 2
belts 2
beobachten 2
ber@@ 2
berg 2
bergen 2
beton 2
beugt 2
beverage 2
bicycling 2
bicyclists 2
bil@@ 2
bis 2
bl@@ 2
black@@ 2
blaue 2
blick 2
blo@@ 2
blocks 2
blond-haired 2
blondes 2
blumen 2
blumen@@ 2
bluse 2
bläst 2
blü@@ 2
boarding 2
boards 2
boats 2
bon@@ 2
book@@ 2
booten 2
booth 2
boots 2
bord@@ 2
boulder 2
bowl 2
boxes 2
bra@@ 2
braun-weißer 2
braune 2
braut 2
bre@@ 2
bread 2
brett 2
brick 2
bricks 2
bride 2
brief@@ 2
brightly 2
bringt 2
bro@@ 2
broch@@ 2
brot 2
brunnen 2
brünette 2
bst 2
bt 2
bubble 2
bunte 2
bur@@ 2
but 2
bürste 2
büschen 2
café 2
cam@@ 2
cane 2
canyon 2
caps 2
card 2
carnival 2
carries 2
carry 2
cart 2
carts 2
catches 2
ces 2
chainsaw 2
chalk 2
che@@ 2
check 2
cheering 2
cher 2
ches 2
chs 2
chte 2
chteten 2
circle 2
ck@@ 2
cker@@ 2
ckt 2
ckten 2
ckter 2
cle@@ 2
cliff 2
closeup 2
coat 2
color 2
com@@ 2
coming 2
companion 2
competition 2
comple@@ 2
computer 2
computerbildschirm 2
cook 2
costumes 2
country 2
cow 2
cra@@ 2
cre@@ 2
cro@@ 2
crossing 2
crouches 2
crying 2
curb 2
customers 2
da 2
dar@@ 2
daran 2
daumen 2
dazu 2
dd@@ 2
ded 2
denim 2
dessen 2
device 2
dieser 2
dieses 2
different 2
dig@@ 2
dining 2
direction 2
dish 2
diskutieren 2
doll 2
door 2
dor 2
dra@@ 2
drawing 2
dreadlocks 2
dreht 2
drinking 2
drinks 2
driver 2
drums 2
dunkel@@ 2
dunklen 2
durch@@ 2
dut@@ 2
dy 2
eben@@ 2
edge 2
eh@@ 2
eingezäunten 2
eini@@ 2
einzelner 2
eisenbahn@@ 2
eisk@@ 2
elabo@@ 2
elektro@@ 2
eln 2
eltern 2
employees 2
empty 2
ence 2
end@@ 2
ender 2
enjoying 2
enjoys 2
ent@@ 2
ente 2
entlang@@ 2
ere 2
erin 2
ert 2
et 2
ets 2
experiment 2
eyes 2
fa@@ 2
fahnen 2
fahrräder 2
fahrt 2
fahrzeuge 2
fal@@ 2
fan@@ 2
fancy 2
farben 2
farbenfroher 2
farm 2
fast 2
feath@@ 2
feder@@ 2
feiern 2
fen@@ 2
fenced 2
fer 2
fernglas 2
fest 2
feuert 2
feuerwehrleute 2
fighting 2
filled 2
fin@@ 2
fire 2
firefighters 2
fisch 2
fische 2
fisherman 2
fishing 2
fl@@ 2
flags 2
flauschiger 2
fleisch 2
flipping 2
flowers 2
flying 2
fläche 2
flügeln 2
folding 2
foot@@ 2
form@@ 2
formation 2
fotografiert 2
fountain 2
four@@ 2
fr@@ 2
frisbee 2
frisbee-scheibe 2
fruits 2
ften 2
fun@@ 2
fußball@@ 2
fußballspieler 2
fäl@@ 2
fängt 2
gam@@ 2
gar@@ 2
garb 2
garten 2
gathering 2
gebiet 2
geblümten 2
gebunden 2
gegnerischen 2
gehalten 2
gekleideter 2
gekleidetes 2
gelb 2
geld 2
gelegt 2
gelen@@ 2
geländewagen 2
gemäl@@ 2
gentlemen 2
ger@@ 2
geri@@ 2
gers 2
gesehen 2
gesen@@ 2
gh@@ 2
ging 2
give 2
gives 2
gla@@ 2
glass 2
gleich 2
gleichzeitig 2
gloves 2
glä@@ 2
gläser 2
glücklich 2
goal 2
going 2
gol@@ 2
gr@@ 2
graffiti 2
gras@@ 2
grauem 2
grillt 2
grün-@@ 2
grün@@ 2
grünes 2
gs 2
gu@@ 2
gummi@@ 2
gym 2
gymnast 2
gürteln 2
haare 2
hal@@ 2
hang 2
happily 2
happy 2
har@@ 2
hau@@ 2
he 2
he@@ 2
hea@@ 2
head@@ 2
heavy 2
heben 2
hebt 2
held 2
hell 2
hellbraunen 2
hellen 2
helmen 2
herren 2
hi@@ 2
high-@@ 2
hilft 2
hills 2
himself 2
hinein 2
hinunter@@ 2
hit 2
hocker 2
hockey@@ 2
hold 2
horn 2
horses 2
hospital 2
hotdogs 2
hotel 2
hrt 2
hu@@ 2
hugging 2
hunde@@ 2
hunden 2
hänge@@ 2
hüte 2
hüten 2
hütte 2
i 2
ian 2
iert 2
igen 2
ihres 2
il@@ 2
iner 2
ini@@ 2
ining 2
intersection 2
irgend@@ 2
jackett 2
jersey 2
jogging 2
joggt 2
john 2
jong@@ 2
jongliert 2
joy 2
jüngerer 2
kampfsport 2
kante 2
karat@@ 2
karierten 2
karte 2
karten@@ 2
kauft 2
kehrt 2
kel 2
kettensäge 2
khaki 2
khakifarbenen 2
ki@@ 2
kil@@ 2
kilt 2
kindes 2
kl@@ 2
klappstuhl 2
klasse 2
klein@@ 2
kletterer 2
kneels 2
kno@@ 2
ko@@ 2
kochen 2
kocht 2
kom@@ 2
kommen 2
komp@@ 2
kostümen 2
kre@@ 2
kreis 2
kreuzung 2
kt 2
kten 2
kuh 2
kunden 2
können 2
küsst 2
l@@ 2
labra@@ 2
lachen 2
laden 2
lan@@ 2
lane 2
langem 2
lap 2
laptop 2
laptops 2
lauf@@ 2
lawn 2
leash 2
ledge 2
leeren 2
lege@@ 2
legs 2
lei@@ 2
leine 2
len 2
lerin 2
lernt 2
les 2
leuchtenden 2
lights 2
linie 2
log 2
lt 2
luftballon 2
luftballons 2
lächeln 2
lächelnde 2
lö@@ 2
löffel 2
ma@@ 2
machinery 2
magazine 2
mahlzeit 2
makeup 2
males 2
mall 2
mannschaft 2
mantel 2
map 2
marble 2
mari@@ 2
mascara 2
mat@@ 2
match 2
matte 2
mcdonald 2
meat 2
menge 2
ment@@ 2
messy 2
mikrophon 2
miniat@@ 2
misch@@ 2
mobil@@ 2
money 2
motorbike 2
motorcycle 2
motorroller 2
mountain 2
mountains 2
moves 2
moving 2
much 2
mund 2
museum 2
musli@@ 2
männliches 2
na@@ 2
nach@@ 2
nachts 2
nahaufnahme 2
napping 2
nature 2
neon@@ 2
new 2
newspaper 2
ney 2
nice 2
nicht 2
number 2
nähmaschine 2
officers 2
ol@@ 2
op-@@ 2
oping 2
opposing 2
order 2
ous 2
oven 2
paddles 2
paddling 2
paint@@ 2
pan@@ 2
papier 2
parade 2
parkbank 2
passagiere 2
passengers 2
peace 2
ped 2
pen@@ 2
pes 2
pferde 2
pfosten 2
pfütze 2
ph@@ 2
phone 2
picks 2
pictures 2
pigtails 2
pin@@ 2
pins 2
pinsel 2
pl@@ 2
plaid 2
plain 2
planscht 2
plaza 2
po@@ 2
poles 2
poli@@ 2
pony 2
pouring 2
pped 2
ppen 2
practicing 2
pre@@ 2
prepares 2
presenting 2
pri@@ 2
prin@@ 2
progra@@ 2
project 2
projekt 2
propan@@ 2
pul@@ 2
pulled 2
puppe 2
puppet 2
puts 2
q 2
rad 2
rail 2
railing 2
railroad 2
ran@@ 2
range 2
rasen 2
rast 2
rate 2
reads 2
ren@@ 2
repairs 2
reparat@@ 2
resting 2
ribbon 2
rie@@ 2
rocky 2
rodeo 2
rolle 2
rooftop 2
rot 2
rot-@@ 2
rot-weiß-@@ 2
roter 2
rubber 2
rucksack 2
rückwärts 2
sam 2
sam@@ 2
same 2
sammelt 2
sandalen 2
sandals 2
saugt 2
sausa@@ 2
saw 2
scarf 2
scending 2
schal 2
schatten 2
schaukelt 2
schieben 2
schiff 2
schild@@ 2
schlafen@@ 2
schlafend 2
schlange 2
schlucht 2
schlä@@ 2
schläger 2
schoß 2
schubkarre 2
schultern 2
schutz 2
schwarz-@@ 2
schwarz-weißen 2
schwarzes 2
schür@@ 2
scooter 2
scra@@ 2
se 2
sea@@ 2
seated 2
security 2
see@@ 2
seems 2
seil@@ 2
seines 2
sem 2
sh 2
shade 2
she@@ 2
ship 2
shop 2
shoulder 2
shoulders 2
silly 2
silver 2
sion 2
site 2
sized 2
sk@@ 2
skateboard-@@ 2
ske@@ 2
skirt 2
sla@@ 2
slacks 2
sle@@ 2
sm@@ 2
snow@@ 2
snowboard 2
snowy 2
so 2
softball 2
sohn 2
sol@@ 2
son 2
son@@ 2
sonnigen 2
sor@@ 2
spa@@ 2
spat@@ 2
spazieren 2
spe@@ 2
spee@@ 2
speer 2
speisen 2
spieler 2
splashing 2
spo@@ 2
spoon 2
sport@@ 2
sportwagen 2
spread 2
sprinkl@@ 2
sprung@@ 2
squ@@ 2
squatting 2
stadium 2
stall 2
statu@@ 2
steigen 2
steigt 2
stellung 2
ster 2
sti@@ 2
stin 2
stirn@@ 2
stool 2
stra@@ 2
straßen@@ 2
straßenrand 2
strecke 2
streut 2
stro@@ 2
stroll 2
stroller 2
structure 2
stuck 2
studying 2
stufen 2
stü@@ 2
stütz@@ 2
sun@@ 2
sunny 2
sweatshirt 2
sweeping 2
swinging 2
system 2
tables 2
tagsüber 2
takes 2
talent 2
tanz 2
tanzen 2
tattoo 2
taucher@@ 2
teaching 2
tei@@ 2
teig 2
teil@@ 2
telefon 2
tennisball 2
terrier 2
tes 2
themselves 2
ther 2
things 2
tie 2
tied 2
tief@@ 2
ties 2
tile 2
tires 2
to@@ 2
tops 2
tor@@ 2
toward 2
towards 2
toys 2
tradition@@ 2
trail 2
trainer 2
training 2
trampolin 2
trampoline 2
trav@@ 2
trick 2
tries 2
trikot 2
trinken 2
trommeln 2
tt@@ 2
tte 2
tunnel 2
typ 2
typen 2
tz 2
tür 2
ug@@ 2
ula 2
umge@@ 2
unbefestigten 2
ung@@ 2
unge@@ 2
ungen 2
ur 2
uren 2
ut@@ 2
utsche 2
van 2
ve 2
ven 2
veranda 2
verkauf@@ 2
verkaufen 2
verkäufer 2
verschneiten 2
versuchen 2
vi@@ 2
viel 2
viel@@ 2
vier@@ 2
view 2
vil 2
violettem 2
volkswagen 2
vom 2
vorne 2
wait 2
wald@@ 2
waldgebiet 2
wan@@ 2
wandern 2
wange 2
war@@ 2
wards 2
wartet 2
wat@@ 2
waves 2
way 2
wed 2
weibli@@ 2
weint 2
welcome 2
werfen 2
wetsuit 2
wettkampf 2
wheel 2
wheelbarrow 2
wheeler 2
where 2
wind@@ 2
wischt 2
without 2
wooded 2
wor@@ 2
worker 2
x 2
y-@@ 2
ze 2
ze@@ 2
zeitung 2
zer@@ 2
zeug 2
zi@@ 2
ziegel 2
ziegel@@ 2
ziehen 2
zieren 2
zoo 2
zuschauern 2
zwei@@ 2
zäh@@ 2
ßen 2
äh@@ 2
ähn@@ 2
är@@ 2
öffentlichen 2
örtlichen 2
&amp; 1
-colored 1
0 1
3@@ 1
: 1
a-@@ 1
abendessen 1
abends 1
abge@@ 1
acht 1
achterbahn 1
acoustic 1
action 1
ad@@ 1
adjusting 1
adjusts 1
african-american 1
afrikanischen 1
afrikanischer 1
afro@@ 1
ak@@ 1
akusti@@ 1
ali@@ 1
allein 1
ally 1
alone 1
altmodi@@ 1
amerikanische 1
amerikanisches 1
amongst 1
amount 1
amp 1
ampel 1
amusement 1
and@@ 1
ange 1
angebo@@ 1
angel 1
angel@@ 1
angezogen 1
anhänger 1
animals 1
ans 1
ansammlung 1
ant 1
anweisungen 1
anzu@@ 1
appears 1
approa@@ 1
aprons 1
arbeiter@@ 1
arbeits@@ 1
arcade 1
are@@ 1
arme 1
armen 1
arri@@ 1
art 1
artist 1
artwork 1
arzt 1
asia 1
asien 1
ast 1
ate 1
ater 1
aters 1
ath@@ 1
athle@@ 1
athlete 1
athletes 1
ati@@ 1
atop 1
att@@ 1
attempt 1
atten@@ 1
attractive 1
attraktive 1
aufblasbare 1
aufblasbaren 1
aufen 1
aufga@@ 1
aufge@@ 1
aufgeregt 1
aufgestellt 1
aufzug 1
ausgebreite@@ 1
ausgestellt 1
ausgestre@@ 1
ausgestreckt 1
ausrüstung 1
ausseh@@ 1
aussehen 1
aussehendes 1
ausstellung 1
autos 1
außen 1
bach 1
backflip 1
backpacks 1
backs 1
bad 1
badeanzügen 1
bagger 1
balance 1
balcony 1
balkon 1
ballet 1
ballet@@ 1
ballons 1
balls 1
bam@@ 1
bamboo 1
ban@@ 1
bands 1
barbe@@ 1
barefooted 1
barri@@ 1
baseballfeld 1
baskets 1
bat 1
bath 1
batter 1
bau@@ 1
bauarbeiten 1
bauarbeiter@@ 1
bauen 1
bauernmarkt 1
bea@@ 1
bear 1
beard 1
bedeck@@ 1
befahren@@ 1
befindet 1
beguta@@ 1
beiden 1
beieinander 1
bein 1
beine 1
beinen 1
bekleideter 1
bekleidung 1
bekommt 1
bel 1
beleuchteten 1
ben 1
ben@@ 1
benches 1
bending 1
bends 1
benen 1
bent 1
benutzen 1
bere@@ 1
berg@@ 1
berge 1
bers 1
beschäftigt 1
bespritzt 1
besu@@ 1
bet@@ 1
betrachten 1
betreten 1
bett@@ 1
bewegung 1
bier@@ 1
bigen 1
biking 1
bikini-@@ 1
bilder 1
billard 1
billboard 1
bindet 1
bir@@ 1
birthday 1
blaues 1
ble 1
bled 1
blei@@ 1
bles 1
bli@@ 1
blond@@ 1
blondem 1
blouse 1
bluejeans 1
blume 1
bly 1
blätter 1
blättern 1
blöcken 1
boardwalk 1
bockenden 1
bogen 1
books 1
booths 1
bor 1
boss 1
botto@@ 1
bow@@ 1
bowlingbahn 1
branches 1
brandung 1
brauen 1
braun 1
braun-schwarzer 1
braunem 1
braunhaarige 1
brea@@ 1
breakdance 1
breakdancing 1
brettspiel 1
brillen 1
broken 1
brot@@ 1
brown-haired 1
brushing 1
brä@@ 1
brüne@@ 1
buch@@ 1
bucking 1
buil@@ 1
bun@@ 1
bunch 1
bunt 1
bunten 1
burgunder@@ 1
burgundy 1
burning 1
bush 1
bushaltestelle 1
busses 1
but@@ 1
buy 1
buying 1
by-@@ 1
bälle 1
bändern 1
bänken 1
bär@@ 1
bäume 1
bü@@ 1
bücher 1
bücher@@ 1
bürger@@ 1
büro@@ 1
bürstet 1
c 1
c-@@ 1
camer@@ 1
camp 1
camping 1
can 1
candy 1
cans 1
cap@@ 1
carpet 1
cars 1
case 1
cast 1
castle 1
cat 1
catching 1
caught 1
ced 1
ceiling 1
cel@@ 1
celebrating 1
cello 1
cement 1
center 1
cess 1
chairs 1
chan@@ 1
chases 1
chasing 1
ched 1
cheek 1
cheer@@ 1
chen@@ 1
cher@@ 1
chern 1
chicken 1
chinese 1
chinesischen 1
ching 1
chop@@ 1
chopping 1
christmas 1
cht@@ 1
chte@@ 1
chten 1
chter 1
chtet 1
chts 1
chtung 1
church 1
cident 1
cigarette 1
cing 1
cir@@ 1
ckchen 1
cked 1
ckigen 1
cks 1
cla@@ 1
clapping 1
clar@@ 1
classic 1
clay 1
cleans 1
cli@@ 1
clim@@ 1
climb 1
climber 1
clouds 1
clown 1
clowns 1
club 1
clut@@ 1
cluttered 1
coa@@ 1
coach 1
coaster 1
col@@ 1
cold 1
collar 1
colle@@ 1
comm@@ 1
communi@@ 1
compete 1
con@@ 1
conne@@ 1
cons@@ 1
constru@@ 1
contain@@ 1
container 1
control 1
converse 1
conversing 1
coo@@ 1
cool@@ 1
coun@@ 1
cour@@ 1
course 1
courtyard 1
covers 1
cowbo@@ 1
cowboy 1
crane 1
craw@@ 1
creating 1
crew 1
cries 1
crosswalk 1
crou@@ 1
cru@@ 1
cted 1
ction 1
ctor 1
cul@@ 1
cular 1
cur@@ 1
customer 1
cut 1
cuts 1
cy 1
cyclist 1
dahinter 1
damen 1
dancers 1
dances 1
dark-haired 1
darkened 1
ddy 1
debris 1
deck@@ 1
decorations 1
deep 1
dekorati@@ 1
del 1
deln 1
demonstra@@ 1
derby 1
dern 1
dge 1
dia@@ 1
dicken 1
dies 1
dig 1
dinge 1
dinner 1
dinosau@@ 1
dinosauri@@ 1
dire@@ 1
directions 1
discussing 1
discussion 1
dive 1
diver 1
doctor 1
donkey 1
doors 1
dor@@ 1
dosen 1
down@@ 1
drei@@ 1
dresses 1
dro@@ 1
dru@@ 1
druck 1
drü@@ 1
drückt 1
dt 1
du 1
dum@@ 1
dunkelten 1
dunkler 1
dusk 1
dusty 1
dä@@ 1
dämmerung 1
ea@@ 1
ear 1
ear@@ 1
eats 1
ed@@ 1
edly 1
eds 1
egt 1
ehnt 1
ei 1
eight 1
eil 1
eine@@ 1
eing 1
eingang 1
einge@@ 1
einiger 1
einkaufen 1
einkaufswagen 1
einrad 1
einzel@@ 1
eisen@@ 1
either 1
ele@@ 1
elefanten 1
elektrischen 1
elephant 1
elev@@ 1
elf 1
elling 1
elmo 1
eln@@ 1
em@@ 1
emergency 1
ene 1
engine 1
entfernen 1
entfernt 1
entlanggeht 1
entrance 1
equipment 1
er-@@ 1
erd@@ 1
erdhügel 1
erer 1
erhält 1
erhö@@ 1
erle@@ 1
ern@@ 1
erreichen 1
ers@@ 1
ertes 1
es@@ 1
escalator 1
esel 1
ess@@ 1
essens@@ 1
esstisch 1
et@@ 1
evening 1
exam@@ 1
examines 1
excited 1
exhibit 1
experi@@ 1
extre@@ 1
f 1
fabri@@ 1
faces 1
facial 1
fack@@ 1
fahne 1
fahrenden 1
fahrradfahrer 1
fahrradhelm 1
fake 1
fall 1
fall@@ 1
fallen 1
falling 1
far@@ 1
farb@@ 1
farbe 1
farbene 1
farbenes 1
farbi@@ 1
farbigen 1
farmer 1
farmers 1
fashioned 1
fass@@ 1
fasst 1
fasz@@ 1
fat 1
father 1
fecht@@ 1
feet 1
fel@@ 1
feld@@ 1
feldweg 1
fels 1
fels@@ 1
felsk@@ 1
felsvorsprung 1
fen 1
fencing 1
fenster@@ 1
fer@@ 1
fern@@ 1
fertig@@ 1
festhält 1
feu@@ 1
ff@@ 1
ffer@@ 1
fight 1
figur 1
figure 1
fil@@ 1
finden 1
fingern 1
fingers 1
fire@@ 1
fisch@@ 1
fischer 1
flachen 1
fle@@ 1
flei@@ 1
fli@@ 1
fliegen 1
fliegt 1
flip-flops 1
flipflops 1
floating 1
floral 1
flowered 1
fluffy 1
flugzeug 1
flur 1
fluss@@ 1
fo@@ 1
foliage 1
football 1
footed 1
for@@ 1
foreground 1
forested 1
formen 1
fotos 1
fra@@ 1
frame 1
fre@@ 1
free@@ 1
frei@@ 1
freizeit@@ 1
freude 1
freund 1
fri@@ 1
friend 1
frozen 1
fter 1
fts 1
ful 1
fun 1
fußballdress 1
fußballspiel 1
fußboden 1
fußgängerübergang 1
führer 1
füllt 1
füßen 1
g-@@ 1
garage 1
garbage 1
gardening 1
garten@@ 1
gas 1
gas@@ 1
gate 1
gather 1
gathered 1
gazing 1
geburtsta@@ 1
gebü@@ 1
gefahren 1
gefle@@ 1
gefroren@@ 1
gefär@@ 1
gefüllt 1
gegen 1
gegend 1
gehende 1
gehsteig 1
gehö@@ 1
gehör@@ 1
gekleideten 1
gela@@ 1
gelb-@@ 1
gelb@@ 1
geldbörse 1
gele@@ 1
gelehnt 1
gelände@@ 1
gem 1
gemüse 1
gend 1
genen 1
gepark@@ 1
geparkt 1
geparkten 1
gepflasterten 1
gepfle@@ 1
gepäck 1
gericht 1
gern 1
gerä@@ 1
gerü@@ 1
gesch@@ 1
geschi@@ 1
geschirr 1
geschrie@@ 1
geschäfts 1
gesi@@ 1
gesichts@@ 1
gesp@@ 1
gestreiftem 1
getränke 1
gewi@@ 1
gewin@@ 1
geworfen 1
gezogen 1
ght 1
ghtly 1
giant 1
giert 1
gießt 1
gin@@ 1
gitarren@@ 1
glas 1
glas@@ 1
glatz@@ 1
glatzköpfiger 1
gle 1
gleichen 1
gleisen 1
gli@@ 1
glück@@ 1
gn@@ 1
goes 1
gold 1
golf@@ 1
golfball 1
gon 1
graben 1
grasbewachsenen 1
grau-@@ 1
graue 1
gravel 1
gri@@ 1
grill@@ 1
grimassen 1
groups 1
groß@@ 1
grube 1
grä@@ 1
grö@@ 1
größeren 1
grüner 1
gten 1
guard 1
guitar@@ 1
gymnasti@@ 1
gymnastics 1
gäste 1
haar@@ 1
haariger 1
haariges 1
had 1
halsband 1
ham@@ 1
hammock 1
han@@ 1
handrail 1
handschuhe 1
handschuhen 1
harness 1
haus@@ 1
hauses 1
haut 1
have 1
hawai@@ 1
hawaiian 1
heading 1
heads 1
heav@@ 1
hei@@ 1
heit 1
helicopter 1
hell@@ 1
hellblauen 1
helme 1
helping 1
helps 1
hemd@@ 1
heraush@@ 1
heraushängender 1
herkunft 1
herumstehen 1
highchair 1
hiker 1
hiking 1
himmel 1
hin@@ 1
hinderni@@ 1
hinterher 1
hits 1
hn@@ 1
hnen 1
hochstuhl 1
hochzu@@ 1
hock@@ 1
hof 1
hohe 1
hohem 1
hohes 1
home 1
hoo@@ 1
hood 1
hooded 1
hoodie 1
hoop 1
horizon 1
horizont 1
hosenträgern 1
hou@@ 1
houses 1
how 1
hren 1
hubschrauber 1
huge 1
huhn 1
hunder@@ 1
hur@@ 1
händchen 1
hängematte 1
höhe 1
höl@@ 1
hölzer@@ 1
hü@@ 1
hübschen 1
i-@@ 1
ich 1
ie@@ 1
ier@@ 1
ies 1
ige 1
il 1
ilen 1
ilt 1
im@@ 1
imbi@@ 1
imbiss@@ 1
indian 1
indian@@ 1
indischer 1
indoor 1
infant 1
ing-@@ 1
ings 1
ings@@ 1
injured 1
innen 1
innen@@ 1
inspe@@ 1
inst 1
instrumenten 1
instruments 1
intently 1
inter@@ 1
intervie@@ 1
ird 1
iron 1
irs 1
irt 1
island 1
ite 1
items 1
iten 1
itä@@ 1
ja@@ 1
jack@@ 1
jacken 1
jackets 1
jahrmarkt@@ 1
japanese 1
japanischen 1
je@@ 1
jean 1
jean@@ 1
jeans@@ 1
jeansjacke 1
jewel@@ 1
job 1
joggen 1
jogs 1
jubelt 1
jugendlicher 1
jugg@@ 1
jump 1
jungle 1
just 1
jüngeren 1
ka 1
kajak 1
kal@@ 1
kalten 1
kamera@@ 1
kampf 1
kampf@@ 1
kampfsport@@ 1
kani@@ 1
kappe 1
kapu@@ 1
kaput@@ 1
kapuzen@@ 1
karate@@ 1
kariertem 1
karren 1
kartons 1
karussell 1
katze 1
kayak 1
ked 1
keit 1
kellner 1
ker@@ 1
kerl 1
keyboard 1
kick 1
kicks 1
kickt 1
kin 1
kin@@ 1
kinder@@ 1
kirche 1
kisten 1
kla@@ 1
klar@@ 1
klat@@ 1
kle@@ 1
kleide@@ 1
kleidern 1
klein 1
kleinkinder 1
kletter@@ 1
kn@@ 1
knall@@ 1
knee-@@ 1
knie@@ 1
knit 1
knö@@ 1
koch 1
kollegen 1
kommuni@@ 1
kon@@ 1
kontrolle 1
konzentriert 1
kopfschmuck 1
kopft@@ 1
krabbelt 1
kran 1
kranken@@ 1
krankenhaus 1
krawatte 1
krei@@ 1
krie@@ 1
kräfte 1
krö@@ 1
ks 1
kti@@ 1
kul@@ 1
kunde 1
kunststück 1
kunststücke 1
kunstwerke 1
kur@@ 1
kurze 1
kä@@ 1
käfi@@ 1
kämpft 1
köpfen 1
köpfi@@ 1
körben 1
körper 1
kü@@ 1
kümmern 1
kümmert 1
künst@@ 1
kür@@ 1
labeled 1
labor 1
laden@@ 1
ladens 1
ladies 1
lage 1
land@@ 1
landing 1
lange 1
lar 1
lassen 1
lastwagen 1
late 1
lau@@ 1
laub 1
lays 1
leading 1
leaning 1
leans 1
leap 1
learning 1
leg 1
legt 1
lehnen 1
lehnt 1
lehr@@ 1
leit@@ 1
lern 1
lers 1
letter@@ 1
leu@@ 1
leucht@@ 1
leuchten@@ 1
leuchtend 1
ley 1
lichem 1
lichen 1
licher 1
lie@@ 1
lied 1
lieferwagen 1
liegen 1
liegende 1
lier@@ 1
lift 1
ligh@@ 1
lighted 1
lila@@ 1
lined 1
lings 1
linken 1
links 1
lion 1
lippen@@ 1
listening 1
living 1
lk@@ 1
ll@@ 1
lling 1
load 1
loading 1
local 1
located 1
lone 1
long-haired 1
loo@@ 1
los 1
lot 1
lou@@ 1
loun@@ 1
lounging 1
low 1
ls 1
luggage 1
lung 1
lush 1
lying 1
lächelnder 1
lächelndes 1
län@@ 1
lässt 1
made 1
magazines 1
mahl@@ 1
main 1
maintenance 1
maj@@ 1
make@@ 1
makes 1
mal 1
mal@@ 1
maler 1
man@@ 1
maneu@@ 1
march 1
marketplace 1
marktplatz 1
maschinen 1
mascot 1
masken 1
maskottchen 1
masks 1
mast 1
may 1
me 1
mea@@ 1
meadow 1
medi@@ 1
meer@@ 1
meeres 1
mehreren 1
mehrfarbigen 1
member 1
menschenansammlung 1
ments 1
mes 1
mexican 1
mexikani@@ 1
mic 1
microscope 1
middle-aged 1
mikrofon 1
mikroskop 1
military 1
militärangehöri@@ 1
min@@ 1
ming 1
mirror 1
mischen 1
mischt 1
mit@@ 1
mitglied 1
mitt 1
mittel@@ 1
mittleren 1
mmen 1
mom 1
monitor 1
morning 1
motocross 1
motocross-@@ 1
motor 1
motor@@ 1
motorhaube 1
motorradfahrer 1
motorräder 1
mound 1
mouths 1
move 1
mp@@ 1
mpe@@ 1
mud 1
multi@@ 1
multiple 1
mural 1
musi@@ 1
musical 1
musician 1
musiker 1
musikinstrument 1
mut@@ 1
my 1
mädchen@@ 1
männ@@ 1
männern 1
männlichen 1
müll 1
mülleimer 1
mülltonne 1
n@@ 1
nachbar@@ 1
nachdem 1
narrow 1
nass 1
nassem 1
nassen 1
nasser 1
natur 1
natur@@ 1
ne@@ 1
nearby 1
nebel 1
neigh@@ 1
nen 1
nerin 1
ners 1
net 1
nets 1
netz 1
netze 1
neue 1
neuen 1
no@@ 1
not 1
noten@@ 1
ns 1
nt 1
nu@@ 1
nude 1
numerous 1
nummer 1
nurses 1
nächsten 1
nächt@@ 1
nähert 1
näht 1
observe 1
observes 1
obstacle 1
od 1
odd 1
ofen 1
off-@@ 1
offenem 1
office 1
officer 1
ohr@@ 1
ol 1
ols 1
onen 1
ones 1
oni@@ 1
onlookers 1
onto 1
op@@ 1
opening 1
operates 1
oran@@ 1
ord@@ 1
orned 1
ors 1
ot 1
outfits 1
ozeans 1
p-@@ 1
pack 1
packen 1
packing 1
paddelt 1
paint 1
painted 1
painter 1
pair 1
pale 1
paperwork 1
papier@@ 1
parent 1
parents 1
parking 1
parkplatz 1
parks 1
part 1
parti@@ 1
participating 1
passes 1
patch 1
pathway 1
patrons 1
paved 1
pe 1
pel@@ 1
per@@ 1
performs 1
pers 1
pers@@ 1
person@@ 1
personengruppe 1
pet 1
pf 1
pf@@ 1
pfan@@ 1
pfe 1
pfer 1
pfer@@ 1
pferdeschwanz 1
pflanzen 1
phones 1
pic@@ 1
pick 1
pick@@ 1
pickni@@ 1
picknick@@ 1
picnic 1
pier 1
pilot 1
ping 1
piste 1
pit 1
pit@@ 1
placed 1
plane 1
plant 1
plastik@@ 1
plat@@ 1
plate 1
platt@@ 1
platz@@ 1
play@@ 1
players 1
pol@@ 1
pole 1
polizist 1
polizisten 1
ponytail 1
porch 1
positi@@ 1
position 1
pow@@ 1
pper 1
ppi@@ 1
pra@@ 1
print 1
prints 1
promenade 1
prun@@ 1
prä@@ 1
präsentiert 1
prü@@ 1
pt@@ 1
pu@@ 1
puddle 1
pull 1
pullovern 1
pulls 1
pump@@ 1
puppies 1
push 1
putting 1
putzt 1
qu@@ 1
que 1
quickly 1
r@@ 1
racers 1
rahmen 1
rai@@ 1
railings 1
rainbow 1
raised 1
raises 1
ramp 1
rand 1
rande 1
rapids 1
rau@@ 1
re 1
recht 1
rechten 1
rechts 1
red-hair 1
red-haired 1
red@@ 1
redhead 1
reflection 1
reflektier@@ 1
reg@@ 1
regal 1
regen@@ 1
regi@@ 1
reicht 1
reifen 1
reifen@@ 1
reinigen 1
reiten 1
rekla@@ 1
reklame@@ 1
rennfahrer 1
reparieren 1
repariert 1
res 1
rest 1
restaurants 1
ri@@ 1
richten 1
richtet 1
rickshaw 1
rider 1
riesige 1
rikscha 1
rink 1
river@@ 1
road@@ 1
rohr 1
roll@@ 1
rollstuhl 1
rollt 1
ron@@ 1
roof 1
ropes 1
rosa-@@ 1
rosa@@ 1
rosafarbene 1
rot@@ 1
rotes 1
rothaarige 1
rothaariger 1
rothaariges 1
routine 1
row 1
rowing 1
rub@@ 1
rubs 1
rucksäcken 1
rudert 1
rum 1
run@@ 1
runner 1
rush 1
rustic 1
rying 1
rädern 1
rö@@ 1
s-@@ 1
saal 1
sachen 1
salto 1
sammeln 1
san@@ 1
sandburg 1
sandhügel 1
sandigen 1
sandwich 1
sandy 1
satz 1
sauber 1
says 1
sbe@@ 1
scarves 1
scha@@ 1
schale 1
schar@@ 1
schau@@ 1
schaufel 1
schaufeln 1
schaufelt 1
schaufenster 1
schaum@@ 1
schaut 1
sche@@ 1
schei@@ 1
scheibe 1
schenkt 1
scher 1
schienen 1
schla@@ 1
schlag@@ 1
schlauch@@ 1
schlendern 1
schlendert 1
schlie@@ 1
schmi@@ 1
schmutzi@@ 1
schne@@ 1
schnee@@ 1
schneeanzug 1
schneiden 1
schneit 1
schnitt 1
schnur 1
schnür@@ 1
schotter@@ 1
schr@@ 1
schreit 1
schritt 1
schuh 1
schuh@@ 1
schuhen 1
schul@@ 1
schulter 1
schutz@@ 1
schutzausrüstung 1
schutzbrille 1
schwarz-brauner 1
schwarz-weißem 1
schwebebalken 1
schweißt 1
schwenken 1
schwenkt 1
schwere 1
schwert 1
schwertern 1
schwi@@ 1
schwimmbrille 1
schwimmen 1
schwimmen@@ 1
schwimmer 1
schwingt 1
schöne 1
schülerin 1
schürzen 1
schüssel 1
schütteln 1
schüttelt 1
schützt 1
science 1
sco@@ 1
scooters 1
screen 1
scrubs 1
scuba 1
sear@@ 1
seat 1
section 1
secur@@ 1
sed 1
sei@@ 1
seifen@@ 1
seifenblase 1
seifenblasen 1
seilen 1
seite 1
sel@@ 1
selbst 1
seltsamen 1
sent@@ 1
ser@@ 1
serve 1
servi@@ 1
service 1
serving 1
ses 1
sessel 1
seven 1
sfeld 1
shaggy 1
shake 1
shakes 1
shallow 1
shar@@ 1
sheet 1
shelf 1
shes 1
shiel@@ 1
shift 1
shine 1
shining 1
sho@@ 1
shopping 1
shops 1
shore 1
shoreline 1
short 1
shovel 1
shoveling 1
shovels 1
show 1
sich@@ 1
sicher@@ 1
sicht 1
sicht@@ 1
sie@@ 1
sieben 1
silbernen 1
sin@@ 1
sing 1
singer 1
sitz@@ 1
sitzende 1
sitzenden 1
sive 1
skateboarding 1
skating 1
ski@@ 1
skier 1
skiern 1
skills 1
skis 1
skleid 1
skleidung 1
sky 1
sky@@ 1
sleeveless 1
sli@@ 1
slope 1
smit@@ 1
sn@@ 1
snacks 1
sniffing 1
snow-covered 1
soda 1
somewhere 1
sommertag 1
song 1
sonnenuntergang 1
space 1
spar@@ 1
sparring 1
spaziergang 1
spaß 1
spect@@ 1
spectators 1
sper@@ 1
sperr@@ 1
spie@@ 1
spiegel 1
spiegelbild 1
spielzeug-@@ 1
spielzeug@@ 1
spielzeugauto 1
spins 1
spitze 1
spla@@ 1
splashed 1
sportkleidung 1
spotted 1
spring@@ 1
spritzen 1
sprungbrett 1
square 1
ssage 1
ssen 1
ssen@@ 1
ssenen 1
sses 1
ssi@@ 1
st 1
sta@@ 1
staff 1
stag 1
stal@@ 1
stam@@ 1
stamm@@ 1
stammeskleidung 1
stangen 1
starren 1
starring 1
statur 1
staubigen 1
stehend 1
stehende 1
stehendes 1
stei@@ 1
steile 1
steine 1
steinigen 1
stelle 1
stellen 1
stellte 1
stelzen 1
step 1
stepping 1
ster@@ 1
sters 1
sticks 1
stiefeln 1
stilts 1
stir@@ 1
sto@@ 1
stolz 1
ston@@ 1
stones 1
stoop 1
stop@@ 1
stopped 1
stor@@ 1
stores 1
storte 1
story 1
strahl@@ 1
strand@@ 1
straßenarbeiter 1
straßenszene 1
stream 1
streets 1
streich@@ 1
streifen 1
stretches 1
stretching 1
strick@@ 1
strickmütze 1
string 1
strolling 1
strolls 1
stromschnellen 1
stru@@ 1
sts 1
student 1
stuff 1
stuffed 1
stur@@ 1
stän@@ 1
stöcke 1
stück 1
stühle 1
suits 1
summer 1
sunset 1
super@@ 1
supermarket 1
supermarkt 1
supp@@ 1
sur@@ 1
surf 1
surgical 1
suspenders 1
sw@@ 1
sweat@@ 1
swimmer 1
swimmers 1
swims 1
swimsuit 1
swings 1
swor@@ 1
sword 1
sz@@ 1
szene 1
sänger 1
säug@@ 1
t-@@ 1
tail 1
taining 1
talks 1
tanktop 1
tar@@ 1
task 1
taucht 1
tchen 1
teal 1
team@@ 1
teammates 1
teams 1
teddy@@ 1
teen 1
teenager@@ 1
teich 1
teilnehmen 1
tel 1
tele@@ 1
tell@@ 1
teller 1
tending 1
tends 1
tennis@@ 1
tennisspieler 1
teppich 1
ters 1
tet 1
thick 1
thing 1
though 1
throw 1
ths 1
thumb 1
thumbs 1
tief 1
tiere 1
tiert 1
tigen 1
til@@ 1
tiled 1
time 1
tin@@ 1
tischen 1
tisches 1
tle 1
toddlers 1
ton 1
ton@@ 1
too 1
tools 1
tour 1
tra@@ 1
traditioneller 1
trailer 1
train@@ 1
transit 1
trash 1
trashcan 1
traveling 1
tree-@@ 1
treibt 1
tren@@ 1
treppenhaus 1
treppenstufen 1
tri@@ 1
tribal 1
tricks 1
trie@@ 1
trip 1
tro 1
tromm@@ 1
trompete 1
troph@@ 1
trophy 1
tropical 1
tropischen 1
trottet 1
trotting 1
trucks 1
try 1
trägern 1
ttet 1
tton 1
tu@@ 1
tub 1
tubes 1
tur@@ 1
turm 1
turn 1
turn@@ 1
turner 1
turnhalle 1
tut 1
tw@@ 1
type 1
types 1
tän@@ 1
töpfer@@ 1
türen 1
türkisen 1
u 1
ue 1
uf@@ 1
ufer 1
ufer@@ 1
ulen 1
umarmen 1
umarmt 1
umgebenen 1
umten 1
und@@ 1
underwear 1
ungewöhn@@ 1
unicycle 1
uniform@@ 1
uniformen 1
uniforms 1
unordentlichen 1
uns 1
unt 1
untergrund 1
unterhemd 1
unterricht 1
unterschied@@ 1
unterwäsche 1
unusu@@ 1
upside 1
ures 1
usband 1
usi@@ 1
usly 1
uta@@ 1
uts 1
va@@ 1
vacuum@@ 1
val 1
vari@@ 1
vater 1
ve@@ 1
ved 1
vehicles 1
vel@@ 1
vending 1
ver 1
vergnügen 1
vergnügungspark 1
vering 1
verk@@ 1
verkauf 1
verkaufsstand 1
verletz@@ 1
vers@@ 1
versammelt 1
verschieden 1
verschiedene 1
verschiedenen 1
verwenden 1
verwendet 1
videokamera 1
videospiel 1
vie@@ 1
vielleicht 1
vil@@ 1
vin@@ 1
violet@@ 1
violett 1
violetten 1
visi@@ 1
vision 1
visor 1
vogelperspektive 1
voll@@ 1
vollstän@@ 1
vorbe@@ 1
vorbeifährt 1
vorbeigehen 1
vordergrund 1
vorführung 1
vorrichtung 1
vorüber 1
w 1
wachmann 1
wachsen@@ 1
waffe 1
waiter 1
walked 1
walkway 1
walls 1
wand@@ 1
wander@@ 1
wandert 1
wandt 1
wanne 1
warm 1
warmen 1
warn@@ 1
warnweste 1
wart 1
wartungs@@ 1
was 1
waschen 1
washes 1
washing 1
wassermel@@ 1
wassers 1
wasserski@@ 1
water@@ 1
watermel@@ 1
waterski@@ 1
waterway 1
watte 1
wave 1
waving 1
ways 1
weap@@ 1
wear 1
weaving 1
webt 1
wegen 1
weihna@@ 1
wein 1
weise 1
weiß-@@ 1
weiß@@ 1
wel@@ 1
welding 1
wellen 1
welpen 1
wen 1
wen@@ 1
wer 1
werkstatt 1
werkzeugen 1
wet@@ 1
wettbewer@@ 1
what 1
wheelchair 1
wheels 1
whilst 1
wild 1
wildnis 1
wine 1
wing 1
winkt 1
wippe 1
wir@@ 1
wires 1
wissenschaft@@ 1
wit@@ 1
wning 1
wo@@ 1
wohner 1
wohnzimmer 1
wolken 1
won@@ 1
woodland 1
workman 1
wra@@ 1
wrestling 1
written 1
ws 1
wur@@ 1
wä@@ 1
wän@@ 1
wärt@@ 1
wärts 1
wäscht 1
wür@@ 1
yo@@ 1
you 1
z 1
zahlreiche 1
zeh@@ 1
zeichen 1
zeigen 1
zeitschrift 1
zeitschriften 1
zel@@ 1
zen 1
zens 1
zer 1
zeuge 1
zeugen 1
ziert 1
zierten 1
zigarette 1
zimmer@@ 1
zten 1
zucker@@ 1
zuge@@ 1
zuhört 1
zurück 1
zurück@@ 1
zuschauer 1
zwe@@ 1
zün@@ 1
ß 1
ßi@@ 1
ßt 1
ähnlichen 1
än@@ 1
ängt 1
ärmello@@ 1
äu@@ 1
öffent@@ 1
öffnet 1
öl@@ 1
überfüllten 1
übun@@ 1
ün@@ 1
