a 49302
in 28496
. 27633
einem 14458
Ein 12939
the 10986
auf 9536
und 8388
on 8153
man 7863
is 7546
mit 7444
and 7395
Mann 7067
of 6881
with 6185
einer 5937
Eine 5547
der 5188
ein 4771
an 4615
woman 3977
, 3963
two 3877
die 3816
are 3727
Frau 3708
eine 3657
einen 3320
to 3136
people 3126
Zwei 3123
von 3043
at 2964
wearing 2625
im 2609
young 2280
während 2279
white 2224
dem 2183
shirt 2134
black 2004
his 1969
while 1947
Mädchen 1931
blue 1871
vor 1841
men 1783
sich 1744
sitting 1744
den 1739
red 1737
girl 1728
boy 1689
dog 1681
Hemd 1618
standing 1617
playing 1584
group 1552
Junge 1524
Gruppe 1487
Männer 1477
street 1446
Menschen 1432
Hund 1395
down 1392
sitzt 1384
walking 1379
eines 1362
zu 1351
steht 1280
front 1277
her 1266
holding 1237
durch 1163
spielt 1151
blauen 1135
roten 1113
das 1103
one 1098
weißen 1065
water 1061
by 1060
three 1055
hat 1041
am 1016
Frauen 1004
women 988
hält 959
up 940
green 925
little 915
for 908
um 905
über 899
looking 897
child 894
Kind 883
as 883
sitzen 872
outside 871
spielen 865
Drei 860
large 841
Leute 836
schwarzen 835
stehen 818
through 814
junger 803
yellow 781
neben 775
children 768
brown 766
person 753
ball 735
from 729
Kinder 728
their 725
läuft 716
Die 713
into 711
zwei 697
Straße 694
fährt 676
geht 672
small 671
next 664
sie 663
other 660
springt 651
dressed 643
out 640
some 625
er 613
over 612
kleines 609
Person 606
building 603
junge 589
schaut 589
riding 584
Der 582
running 581
ist 575
aus 574
near 572
jacket 566
grünen 564
another 563
around 563
seinem 560
großen 558
trägt 539
orange 538
field 536
sidewalk 535
für 526
Straße. 525
crowd 522
beach 521
Nähe 517
stands 498
pink 496
sits 493
jumping 491
table 491
behind 489
grass 468
background 460
snow 459
stand 453
bike 449
city 449
&apos;s 444
gehen 444
gelben 443
girls 441
rosa 440
air 439
Hut 436
hinter 436
anderen 434
player 430
andere 429
top 427
kleinen 426
looks 423
asian 421
wall 417
schwarzer 410
Jungen 409
dogs 406
that 406
Wasser 404
several 404
older 403
four 400
dress 396
off 396
camera 393
park 387
kleiner 386
talking 383
lady 380
something 380
soccer 375
Jacke 374
Man 373
sind 372
Menge 371
walks 371
along 370
guitar 367
working 365
boys 364
hair 364
ihre 363
play 362
Hunde 361
together 361
Fahrrad 358
food 358
des 354
smiling 353
ihren 352
laufen 346
gray 344
game 340
it 340
picture 340
has 339
blond 334
junges 334
bei 332
plays 332
Wasser. 331
es 331
car 330
sein 330
hand 328
unter 328
Mann, 324
holds 322
seine 322
draußen 319
pants 316
Vier 315
etwas 315
bench 314
road 314
him 312
side 311
old 310
weißer 308
kleine 307
glasses 306
Ball 305
shorts 304
walk 304
sit 303
stage 303
seinen 301
carrying 300
baby 299
couple 299
spricht 298
ihr 297
them 290
Mehrere 289
bicycle 287
face 281
&quot; 280
male 280
race 279
tree 279
pool 278
Dame 275
taking 275
rock 273
each 272
doing 268
Tisch 265
ist. 263
nach 263
ihrem 262
across 261
head 261
watching 261
guy 260
älterer 260
dirt 259
jeans 259
there 259
area 258
boat 258
Hintergrund. 257
day 256
brauner 255
wird 254
Paar 253
macht 253
Hemd, 252
Hosen 250
jumps 250
back 248
entlang 248
hands 248
female 247
ground 246
room 245
Luft 242
performing 241
Jeans 240
Hand 238
baseball 238
who 237
eating 236
große 236
Kleid 235
ed 234
being 233
coat 233
using 233
schauen 232
striped 232
suit 231
Menschen, 230
football 229
band 226
kids 225
watch 225
als 224
its 224
under 224
a@@ 223
many 223
or 223
horse 222
store 222
Boden 221
mouth 221
purple 221
he 220
sign 219
an. 218
long 217
this 216
Strand 214
look 214
sand 214
runs 212
tennis 212
Gras. 211
Haar 211
braunen 210
reading 210
ältere 210
construction 209
players 209
sunglasses 208
Baby 205
grauen 205
Kleidung 203
arbeitet 203
clothing 203
microphone 203
beim 202
Frau, 200
mountain 200
ocean 199
basketball 198
dark 198
toy 198
wie 198
during 197
workers 197
ins 195
re@@ 195
middle 194
watches 194
be 193
climbing 193
t-shirt 193
uniform 193
Gebäude 192
past 191
Das 190
Strand. 190
elderly 190
work 190
Kopf 189
drei 189
restaurant 189
Hintergrund 188
ing 188
s 188
Personen 187
against 187
helmet 187
train 187
very 187
Es 186
hält. 186
team 186
y 186
arbeiten 185
nimmt 185
weiße 184
Brille 183
dancing 183
window 183
schwarze 182
weißem 182
rides 181
Kamera 180
all 178
chair 178
they 178
about 177
gibt 177
liest 177
posing 177
Bank 176
c@@ 176
covered 175
Schnee. 174
trees 174
five 173
having 173
outdoor 173
waiting 173
wooden 173
bag 172
sehr 172
ers 171
2 170
swimming 169
Foto 168
getting 168
läuft. 168
orangen 168
fahren 166
floor 166
essen 165
trying 165
line 164
Bühne 163
Schnee 163
colorful 163
ice 163
skateboard 163
bereitet 162
T-Shirt 161
aus. 161
-@@ 160
busy 160
Männern 159
fence 159
legt 159
posiert 159
shirts 159
singing 159
Kindern 157
jump 157
Luft. 156
ihm 156
Feld 154
cart 154
e@@ 154
sitzt. 153
Gebäude. 152
kurzen 152
oder 152
Gitarre 151
book 151
inside 151
light 151
ride 151
anderer 150
hats 150
laying 150
blickt 149
hill 149
market 149
zieht 149
high 148
tan 148
truck 148
Helm 147
bright 147
Leuten 146
trägt. 146
versucht, 146
zeigt 146
Kamera. 145
body 145
cap 145
in@@ 145
kitchen 145
others 145
zusehen. 145
cellphone 144
grassy 144
path 144
steht. 144
Felsen 143
Fußballspieler 143
Fußweg 143
big 143
lächelt 143
someone 143
making 142
asiatische 141
bunten 141
bus 141
clothes 141
night 141
schwarzem 141
Gras 140
motorcycle 140
singt 140
takes 140
blauem 139
umbrella 139
Anzug 138
Boot 138
full 138
outfit 138
towards 138
tragen 138
brick 137
enjoying 137
track 137
gekleidet 136
Feld. 135
metal 135
Mantel 134
ihnen 134
ready 134
river 134
seiner 134
swing 134
Bild 133
Einige 133
Wand 133
ihn 133
paper 133
piece 133
Arbeiter 132
Gesicht 132
board 132
o@@ 132
weiß 132
Seite 131
she 131
Fünf 130
einige 130
i@@ 130
ihrer 130
Viele 129
tank 129
tanzen 129
shop 128
Band 127
Boden. 127
Pferd 127
Shorts 127
colored 127
d@@ 127
ds 127
gegen 127
open 127
sweater 126
worker 126
Tag 125
blauer 125
trick 125
above 124
braune 124
langen 124
painting 124
stick 124
Hemden 123
Mädchen, 123
Spieler 123
Straße, 123
Uniform 123
asiatischer 123
lake 123
schneebedeckten 123
Auto 122
adults 122
going 122
music 122
orangefarbenen 122
zuschaut. 122
d 121
schläft 121
shopping 121
Fahrrad. 120
dance 120
hard 120
house 120
roter 120
run 120
snowy 120
vest 120
Gehweg 119
Park 119
Park. 119
Skateboard 119
klettert 119
liegt 119
phone 119
sprechen 119
surrounded 119
trägt, 119
wave 119
gestreiften 118
onto 118
stone 118
uniforms 118
crowded 117
outdoors 117
e 116
halten 116
photo 116
spielt. 116
vor. 116
Essen 115
backpack 115
beside 115
gear 115
schwingt 115
set 115
smiles 115
kid 114
s@@ 114
warten 114
alter 113
con@@ 113
pole 113
subway 113
african 112
di@@ 112
drinking 112
hockey 112
family 111
reitet 111
american 110
bridge 110
flowers 110
posieren 110
Blick 109
Gitarre. 109
p 109
toddler 109
zusammen. 109
Bauarbeiter 108
Radfahrer 108
auf. 108
event 108
fire 108
gathered 108
guys 108
lot 108
ts 108
Mund 107
arms 107
hanging 107
kämpfen 107
police 107
away 106
beobachten 106
catch 106
einigen 106
ly 106
Schwarz 105
beautiful 105
preparing 105
3 104
Männer, 104
Stuhl 104
ca@@ 104
g@@ 104
ra@@ 104
wartet 104
Fenster 103
Hand. 103
Stadt. 103
costume 103
de@@ 103
leaning 103
object 103
rote 103
sleeping 103
springen 103
steps 103
after 102
arm 102
fishing 102
like 102
Mund. 101
machine 101
p@@ 101
ting 101
wird. 101
Jungs 100
Pullover 100
bar 100
co@@ 100
fountain 100
plaid 100
rope 100
tanzt 100
Treppe 99
jungen 99
po@@ 99
shirtless 99
stairs 99
voller 99
zum 99
chairs 98
hinunter. 98
l 98
take 98
Bühne. 97
Sonnenbrillen 97
adult 97
blaue 97
umgeben 97
versucht 97
Hose 96
Raum 96
Zuschauer 96
rocks 96
schwimmt 96
shoes 96
zwischen 96
Frauen, 95
Freien. 95
Stadt 95
Wald. 95
rot 95
spielen. 95
weißes 95
Rucksack 94
draußen. 94
graffiti 94
schlägt 94
schneidet 94
selling 94
sunny 94
t@@ 94
ti@@ 94
Ball. 93
Fußweg. 93
Reihe 93
b@@ 93
does 93
forest 93
glass 93
sieht 93
vom 93
Mikrofon 92
Trick 92
parade 92
pose 92
racing 92
setting 92
tall 92
Blau 91
Teenager 91
herum. 91
k 91
sonnigen 91
vorbei 91
Person, 90
Tanktop 90
beobachtet 90
both 90
corner 90
m@@ 90
putting 90
un@@ 90
volleyball 90
wood 90
Freien 89
Mikrofon. 89
frisbee 89
o 89
pushing 89
throwing 89
ve 89
view 89
Familie 88
Haaren 88
between 88
drink 88
have 88
ladies 88
lila 88
lo@@ 88
ri@@ 88
slide 88
computer 87
ding 87
laughing 87
ohne 87
public 87
short 87
to@@ 87
w@@ 87
Kleidern 86
Rücken 86
Tisch. 86
do@@ 86
equipment 86
ex@@ 86
flag 86
grünem 86
instruments 86
vielen 86
Brillen 85
al 85
bed 85
bikes 85
couch 85
dreht 85
fish 85
pictures 85
ps 85
Handy 84
Mitte 84
außerhalb 84
braunem 84
cowboy 84
dunklen 84
lehnt 84
party 84
plastic 84
ramp 84
stehen. 84
way 84
wirft 84
Luft, 83
fliegt 83
i 83
playground 83
poses 83
reads 83
sweatshirt 83
trail 83
u@@ 83
which 83
woods 83
works 83
yard 83
Foto. 82
Motorrad 82
Stück 82
Wand. 82
beard 82
concrete 82
inmitten 82
kniet 82
li@@ 82
ro@@ 82
sitzen. 82
skirt 82
statue 82
sun 82
trinkt 82
Richtung 81
Stöck 81
ab. 81
be@@ 81
dock 81
fangen. 81
midair 81
t 81
winter 81
y@@ 81
Baum 80
Hund. 80
Sonnenbrille 80
just 80
led 80
macht. 80
number 80
schwarz 80
so@@ 80
übt 80
Händen 79
Mutter 79
an, 79
an@@ 79
hoch 79
lined 79
seated 79
Gehweg. 78
Sand 78
beobachten. 78
distance 78
hohen 78
la@@ 78
ma@@ 78
pa@@ 78
Spielzeug 77
attire 77
bags 77
fängt 77
get 77
laufen. 77
lächelt. 77
rotes 77
sh 77
sh@@ 77
toward 77
vor, 77
what 77
where 77
Erwachsene 76
Hund, 76
In 76
Restaurant 76
beer 76
beiden 76
cooking 76
school 76
six 76
was 76
Skateboarder 75
Sweatshirt 75
Weg 75
alte 75
blond-hair 75
cutting 75
filled 75
rider 75
right 75
v@@ 75
vests 75
zu. 75
zusammen 75
Fußball 74
Haufen 74
Hügel 74
Laden 74
Sand. 74
Uniformen 74
buildings 74
c 74
cross 74
left 74
pulling 74
shore 74
sind. 74
st 74
station 74
tent 74
Regenschirm 73
Snowboarder 73
Top 73
bereiten 73
cream 73
haben 73
middle-aged 73
mo@@ 73
mother 73
männlicher 73
se 73
vier 73
öffentlichen 73
appears 72
cliff 72
crossing 72
etwas. 72
friends 72
fährt. 72
mehrere 72
net 72
schaut. 72
skateboarder 72
sky 72
ter 72
vorbei. 72
Bart 71
Bäumen 71
alten 71
edge 71
few 71
gelbe 71
instrument 71
les 71
me@@ 71
mountains 71
pe@@ 71
se@@ 71
showing 71
spectators 71
steigt 71
violetten 71
Baum. 70
Buch 70
Küche 70
art 70
bearded 70
bowling 70
cars 70
horses 70
jersey 70
malt 70
ons 70
pro@@ 70
show 70
si@@ 70
Gebäudes. 69
Kopf. 69
Outfit 69
brunette 69
court 69
darauf 69
dresses 69
genießt 69
gerade 69
ihm. 69
machen. 69
make 69
nearby 69
performs 69
rennen 69
scarf 69
suits 69
ted 69
viele 69
Diese 68
Kerl 68
Kleinkind 68
Tasche 68
al@@ 68
apron 68
box 68
carries 68
concert 68
driving 68
geht. 68
gekleidete 68
grill 68
paar 68
perform 68
schönen 68
snowboarder 68
Leute, 67
Menge. 67
arts 67
fruit 67
leaves 67
time 67
various 67
versammelt 67
zur 67
Erwachsener 66
Junger 66
boots 66
cigarette 66
ck 66
coffee 66
drückt 66
flower 66
hängt 66
lächeln 66
painted 66
parked 66
structure 66
students 66
uses 66
vendor 66
verkauft 66
Felsen. 65
Strand, 65
Veste 65
cake 65
car@@ 65
cup 65
gentleman 65
goggles 65
großer 65
hand@@ 65
ist, 65
kicking 65
offenen 65
rotem 65
shot 65
smile 65
surfer 65
vehicle 65
younger 65
Hut, 64
Objekt 64
Spiel 64
Tag. 64
bottle 64
door 64
drums 64
flying 64
g 64
großes 64
kurz 64
lit 64
lying 64
martial 64
orangenen 64
smoking 64
son 64
talks 64
Fluss 63
Fußballball 63
Restaurant. 63
bathing 63
blaues 63
eyes 63
flags 63
hit 63
hoch. 63
home 63
ling 63
new 63
no 63
on@@ 63
st@@ 63
vi@@ 63
Berg 62
Frisbee 62
Schild 62
Surfer 62
ar@@ 62
coming 62
conversation 62
f@@ 62
führt 62
hat. 62
it@@ 62
jackets 62
langem 62
ls 62
newspaper 62
paint 62
prepares 62
rain 62
rocky 62
rodeo 62
sa@@ 62
safety 62
swinging 62
waves 62
werden 62
zusieht. 62
Musik 61
ba@@ 61
bucket 61
ce 61
costumes 61
different 61
gather 61
gloves 61
indian 61
le 61
parking 61
practicing 61
Handy. 60
Schal 60
at@@ 60
beige 60
bull 60
bunch 60
cement 60
cleaning 60
competition 60
en@@ 60
greift 60
ladder 60
listening 60
roof 60
scene 60
voll 60
wo 60
Arm 59
Baseballspieler 59
asiatischen 59
blanket 59
can 59
items 59
le@@ 59
onlookers 59
skateboarding 59
staring 59
steht, 59
tie 59
tritt 59
wait 59
wet 59
Decke 58
See. 58
Welle 58
audience 58
balloon 58
bicycles 58
bikini 58
bu@@ 58
ches 58
desk 58
do 58
empty 58
fi@@ 58
gemeinsam 58
giving 58
hold 58
lawn 58
lächelt, 58
meal 58
pile 58
railing 58
riesigen 58
sc@@ 58
seines 58
überfüllten 58
4 57
Autos 57
Kinder, 57
Nummer 57
Ozean. 57
ci@@ 57
cra@@ 57
cu@@ 57
drinks 57
gets 57
ging 57
go 57
grüne 57
hot 57
leaps 57
military 57
pre@@ 57
sp@@ 57
ta@@ 57
Kostümen 56
Stadtstraße. 56
bird 56
blau 56
ch@@ 56
country 56
display 56
gathering 56
gelbes 56
h@@ 56
king 56
pointing 56
sing 56
sliding 56
sports 56
vegetables 56
w 56
Bus 55
Mannschaft 55
Rock 55
Sonne 55
Vater 55
Wagen 55
Wanderer 55
Wasser, 55
before 55
biker 55
ble 55
bowl 55
chasing 55
class 55
competing 55
essen. 55
facing 55
feet 55
leeren 55
mehreren 55
schwimmen 55
spritzt 55
stop 55
streets 55
treten 55
trinken 55
wedding 55
Basketballspieler 54
Brücke 54
Hemd. 54
Hände 54
Jungen, 54
Skifahrer 54
Trikot 54
ated 54
basket 54
gelbem 54
genießen 54
gold 54
helmets 54
huge 54
mask 54
n@@ 54
platform 54
scheint 54
speaking 54
werfen. 54
Armen 53
Blumen 53
Graffiti 53
Pool. 53
Sechs 53
Wald 53
Zaun 53
bride 53
classroom 53
de 53
fotografiert 53
lights 53
match 53
pass 53
reiten 53
silver 53
skier 53
surfing 53
teams 53
tries 53
ying 53
Couch 52
Dieser 52
Kleines 52
Rot 52
alley 52
aus, 52
beide 52
climbs 52
draußen, 52
ein. 52
end 52
father 52
gehen. 52
ke 52
marathon 52
place 52
purse 52
same 52
seen 52
sings 52
ski 52
surfboard 52
traditional 52
waits 52
ziehen 52
Badeanzug 51
Braut 51
Frau. 51
Hüten 51
Junge, 51
Kind, 51
Papier 51
Stadtstraße 51
alle 51
animal 51
bald 51
bedeckt 51
bo@@ 51
counter 51
felsigen 51
fighting 51
fla@@ 51
kissing 51
ks 51
low 51
m 51
musicians 51
or@@ 51
ping 51
rail 51
raucht 51
screen 51
spricht. 51
stürzt 51
urban 51
verschiedenen 51
werfen 51
Art 50
Augen 50
Bank. 50
Kleid, 50
Pool 50
Tür 50
break 50
esset 50
females 50
skating 50
stroller 50
th@@ 50
Kleiner 49
Raum. 49
balder 49
belebten 49
ded 49
grünes 49
happy 49
herum 49
hole 49
hält, 49
kneeling 49
lap 49
nachts 49
pi@@ 49
runner 49
rutscht 49
shoulder 49
site 49
sunset 49
throw 49
us 49
walkway 49
waving 49
writing 49
üben 49
Basketball 48
Rasen 48
attempting 48
beobachtet. 48
blowing 48
business 48
christmas 48
close 48
hilft 48
mi@@ 48
scooter 48
sort 48
talk 48
violin 48
Gesicht. 47
Hügel. 47
Kappe 47
Musiker 47
Polizist 47
Tisch, 47
Weg. 47
auf, 47
ces 47
cking 47
course 47
cre@@ 47
hört 47
khaki 47
l@@ 47
machen 47
made 47
ni@@ 47
outfits 47
overlooking 47
schwarzes 47
signs 47
tables 47
tri@@ 47
zu, 47
Auf 46
Buch. 46
Jacke, 46
Ozean 46
Rennen 46
Schreibtisch 46
Sprung 46
anschauen. 46
ar 46
artist 46
blond-haired 46
bubbles 46
gekleidet, 46
geschäftigen 46
ho@@ 46
mirror 46
officer 46
says 46
ster 46
ure 46
verschiedene 46
wobei 46
Berg. 45
Fuß 45
Fußball. 45
Gentleman 45
Mannes 45
Studenten 45
Stufen 45
Stühlen 45
b 45
balloons 45
base 45
bekommt 45
blicken 45
cal 45
chinese 45
cked 45
fixing 45
giant 45
grauem 45
leans 45
life 45
n 45
nicht 45
Haus 44
Markt 44
Menschen. 44
Seil 44
Ufer 44
Welle. 44
Zug. 44
alone 44
anderes 44
bräunlichen 44
cafe 44
ched 44
collar 44
dass 44
faces 44
fe@@ 44
foreground 44
gym 44
helping 44
leather 44
leg 44
nutzt 44
oben 44
over@@ 44
plate 44
swim 44
te@@ 44
teenage 44
umbrellas 44
wheel 44
5 43
Damen 43
Fluss. 43
Grasfeld. 43
asiatisches 43
asleep 43
brightly 43
clown 43
dancers 43
electric 43
enjoy 43
headphones 43
ihnen. 43
legs 43
mar@@ 43
meat 43
mud 43
ring 43
schwarz-weißer 43
skate 43
ss@@ 43
sticks 43
su@@ 43
wi@@ 43
Auto. 42
Eimer 42
Getränk 42
Haus. 42
Parade 42
Treppe. 42
am@@ 42
among 42
back@@ 42
bat 42
diving 42
falling 42
golf 42
grüner 42
makes 42
mittleren 42
office 42
officers 42
passing 42
sandals 42
setzt 42
snow@@ 42
stadium 42
swings 42
toys 42
versammelten 42
washing 42
wears 42
; 41
Bier 41
Erwachsenen 41
Gruppen 41
Polizisten 41
Publikum 41
Rande 41
Strecke. 41
Tennisball 41
Zeitung 41
balls 41
barefoot 41
church 41
dark-haired 41
dirty 41
doorway 41
for@@ 41
friend 41
gekleidet. 41
gelb 41
goal 41
heads 41
held 41
hiking 41
kocht 41
lesen 41
multicolored 41
musical 41
photographer 41
sitzt, 41
skiing 41
stri@@ 41
traffic 41
Ende 40
Feld, 40
Gemüse 40
Hof 40
LKW 40
Laden. 40
Roller 40
accordion 40
arbeitet. 40
ating 40
canoe 40
cloth 40
dabei, 40
ders 40
drawing 40
el@@ 40
er@@ 40
go@@ 40
innerhalb 40
laptop 40
leash 40
males 40
ment 40
miteinander. 40
no@@ 40
picking 40
reaching 40
row 40
ru@@ 40
sehen 40
singer 40
sts 40
surft 40
throws 40
van 40
video 40
vorbei, 40
wandern 40
Eis 39
Gebäudes 39
Jacken 39
Lebensmittel 39
Pferd. 39
Schild. 39
Spielplatz. 39
Zaun. 39
bar@@ 39
beleuchteten 39
below 39
daughter 39
digging 39
fast 39
flo@@ 39
members 39
move 39
performance 39
r@@ 39
relaxing 39
shallow 39
squ@@ 39
sun@@ 39
well 39
ws 39
älteren 39
Bikini 38
Boot. 38
Brunnen. 38
Fahrrad, 38
Himmel. 38
Kamera, 38
See 38
Sie 38
Stiefeln 38
Zigarette 38
Zug 38
atop 38
bicyclist 38
blo@@ 38
bräunlicher 38
cat 38
catches 38
catching 38
flip 38
foot 38
gives 38
hugging 38
ihr. 38
microscope 38
moving 38
pan@@ 38
passes 38
schlafen 38
shovel 38
square 38
sta@@ 38
sting 38
tra@@ 38
tragen. 38
tunnel 38
ved 38
Dock 37
Essen. 37
Schwarzer 37
Spielzeug. 37
Tor 37
anschaut. 37
ation 37
ch 37
chef 37
cks 37
climb 37
deep 37
drum 37
fallen 37
flies 37
formal 37
fun 37
garden 37
gate 37
ge 37
gu@@ 37
here 37
kick 37
klettern 37
küsset 37
lab 37
leaping 37
liegt. 37
lone 37
man@@ 37
paved 37
pping 37
prepare 37
resting 37
rolling 37
schlagen. 37
schmutzigen 37
sed 37
shows 37
sich, 37
singen 37
sled 37
sleeps 37
ss 37
stunt 37
sweeping 37
tattoo 37
tragen, 37
tro@@ 37
überquert 37
&apos; 36
Bar 36
Baseball 36
Bäumen. 36
Fisch 36
Küche. 36
Mann. 36
Meer. 36
Motorradfahrer 36
Nacht 36
Nähe. 36
Plaidhemd 36
Rasen. 36
Statue 36
Team 36
Vogel 36
ad@@ 36
ats 36
coats 36
cold 36
conversing 36
cor@@ 36
ct@@ 36
cting 36
cur@@ 36
desert 36
fahren. 36
führen 36
gebärtiger 36
hebt 36
hemdloser 36
hoodie 36
hose 36
individuals 36
karate 36
lies 36
lots 36
photograph 36
pond 36
sculpture 36
splashing 36
springt, 36
springt. 36
teeth 36
trunks 36
upside 36
ves 36
we@@ 36
wear 36
Arme 35
Blond 35
Boden, 35
Dach 35
Hockeyspieler 35
Hosen, 35
Junges 35
Läufer 35
Motorrad. 35
Pause 35
Regenschirm. 35
Schatten 35
Schuhen 35
Spiel. 35
block 35
braunes 35
bunte 35
closed 35
customers 35
fa@@ 35
gun 35
hi@@ 35
how 35
ine 35
jogging 35
leuchtenden 35
liegen 35
ms 35
pier 35
plants 35
points 35
round 35
sind, 35
so 35
telescope 35
these 35
tire 35
town 35
trifft 35
umarmt 35
underneath 35
wrestling 35
überqueren 35
Fahrrädern 34
Feuer 34
Grill 34
Handschuhen 34
Händen. 34
Klippe 34
Parade. 34
Rampe 34
Regen 34
Sohn 34
Straßen 34
Tochter 34
Wasserbecken. 34
besetzten 34
bucking 34
cane 34
carnival 34
cut 34
cyclist 34
dances 34
eat 34
gekleideter 34
he@@ 34
hiker 34
including 34
k@@ 34
ker 34
local 34
mat 34
opposing 34
per@@ 34
project 34
richtet 34
roller 34
ruht 34
shoe 34
shoulders 34
spe@@ 34
straw 34
themselves 34
waters 34
weibliche 34
werden. 34
without 34
zeigen 34
überqueren. 34
Brunnen 33
Bühne, 33
Grasfeld 33
Haare 33
Kinderwagen 33
Korb 33
Krawatte 33
Leuten, 33
Mauer 33
Netz 33
Skateboard. 33
Speisen 33
Stöcke 33
Wellen 33
attempts 33
ce@@ 33
che@@ 33
circle 33
clean 33
crosswalk 33
crying 33
dinner 33
ely 33
fight 33
fünf 33
gelber 33
infant 33
lachen 33
legen 33
makeup 33
matching 33
mural 33
nebeneinander 33
produce 33
pulled 33
racket 33
runners 33
seat 33
ses 33
ste@@ 33
steinigen 33
stra@@ 33
taken 33
trampoline 33
tricks 33
ur@@ 33
wandert 33
wooded 33
Alter 32
Baseballmütze 32
Bilder 32
Blasen 32
Ecke 32
Fahnen 32
Fenster. 32
Ferne 32
Helmen 32
Holz 32
Hoodie 32
Jemand 32
Kostüm 32
Leine 32
Markt. 32
Obst 32
Schiedsrichter 32
Schild, 32
Stier 32
Tasse 32
Vesten 32
amerikanischen 32
athlete 32
benutzt 32
bi@@ 32
bicyclists 32
books 32
booth 32
bra@@ 32
ching 32
covering 32
cro@@ 32
cted 32
da@@ 32
diesem 32
dra@@ 32
driver 32
fällt 32
gefüllt 32
gra@@ 32
gs 32
gymnast 32
hammer 32
hinauf. 32
hoch, 32
jo@@ 32
kehrt 32
lächelnder 32
miteinander 32
nose 32
not 32
opening 32
ors 32
paddling 32
performer 32
picnic 32
prüft 32
reinigen 32
rest 32
sewing 32
shed 32
stuffed 32
surface 32
tes 32
trash 32
versammelt. 32
versuchen 32
versuchen, 32
zeichnet 32
Ball, 31
Bein 31
Biker 31
Cowboy 31
Dirtbike 31
Fahrer 31
Freunde 31
Gitarre, 31
Hardhat 31
Hier 31
Jeans, 31
Pferde 31
Soldaten 31
ab, 31
allein 31
anderen. 31
ans 31
arbeiten. 31
balcony 31
belebte 31
blonder 31
blouse 31
boxes 31
center 31
chases 31
cheerleaders 31
cow 31
dri@@ 31
fo@@ 31
gi@@ 31
goes 31
grün 31
help 31
hikers 31
himself 31
il@@ 31
lacht 31
lan@@ 31
lays 31
lunch 31
mitten 31
mu@@ 31
nehmen 31
oriental 31
pedestrians 31
pitcher 31
pushes 31
reden. 31
sandy 31
sehen. 31
slope 31
softball 31
style 31
teenagers 31
third 31
tu@@ 31
use 31
x 31
Arbeit 30
Bar. 30
Bergen 30
Brille, 30
LKW. 30
Leiter 30
Menschenmenge 30
Rodeo 30
Sandalen 30
Schlamm 30
Surfbrett 30
Taschen 30
Telefon 30
Tänzer 30
Wasserkörper. 30
Zuschauern 30
bent 30
club 30
deck 30
device 30
geschlossenen 30
hellen 30
herunter. 30
hinunter 30
hula 30
indoor 30
kind 30
klopft 30
log 30
mat@@ 30
ne@@ 30
neck 30
ous 30
per 30
pulls 30
puts 30
qu@@ 30
robe 30
seven 30
sha@@ 30
skis 30
speaks 30
staircase 30
tanzen. 30
turn 30
ug@@ 30
wing 30
öffnet 30
Bereich 29
Flasche 29
Fußballspiel 29
Guy 29
Kunden 29
Künstler 29
Mauer. 29
New 29
Papier. 29
Personen, 29
Spiegel 29
U-Bahn. 29
Zelt 29
afrikanischer 29
beobachten, 29
boats 29
bri@@ 29
chi@@ 29
d-@@ 29
dancer 29
drives 29
dunklem 29
enjoys 29
evening 29
festival 29
gentlemen 29
gepflasterten 29
grauer 29
gro@@ 29
grocery 29
heavy 29
hell 29
heraus. 29
hoop 29
lea@@ 29
lächelnde 29
marching 29
min@@ 29
neigt 29
overalls 29
pp@@ 29
scheinen 29
schießt 29
schüttelt 29
sco@@ 29
shaking 29
silbernen 29
swims 29
te 29
teil. 29
untersucht 29
vorbeigehen. 29
wa@@ 29
wetsuit 29
Band. 28
Blumen. 28
Farben 28
Gebäude, 28
Gewand 28
Hof. 28
Kanu 28
Katze 28
Kind. 28
Kleidung, 28
Konzert 28
Land 28
Loch 28
Nacht. 28
Parkplatz 28
Rutsche. 28
Schaukel 28
Tennisspieler 28
Tricks 28
Veranstaltung 28
Vordergrund 28
ate 28
bauen 28
bis 28
brown-haired 28
clear 28
cloudy 28
ction 28
darauf, 28
entlang. 28
et 28
fair 28
fingers 28
foreign 28
garb 28
ges 28
golden 28
halten. 28
hangs 28
hotel 28
hängen 28
jean 28
kayak 28
kicks 28
laundry 28
ledge 28
lift 28
linken 28
native 28
nice 28
ped 28
porch 28
pot 28
pouring 28
protective 28
puddle 28
red-haired 28
robes 28
schreibt 28
see 28
shaving 28
sheet 28
ship 28
sich. 28
springen. 28
steep 28
stream 28
tauschen 28
teenager 28
tracks 28
type 28
water@@ 28
waterfall 28
win@@ 28
wrapped 28
Anzügen 27
Autos. 27
Ferne. 27
Grill. 27
Himmel 27
Jacke. 27
Kajak 27
Kuchen 27
Licht 27
Mänteln 27
Party 27
Rampe. 27
Schlitten 27
Schultern 27
Schüssel 27
Strecke 27
Sänger 27
Wassers. 27
Winterkleidung 27
airplane 27
app@@ 27
arena 27
attached 27
backyard 27
birds 27
blocks 27
boun@@ 27
bread 27
bräunen 27
camouflage 27
checking 27
colors 27
ct 27
e-@@ 27
eye 27
ful 27
gegenüber 27
haben. 27
jongliert 27
ked 27
kes 27
knien 27
luggage 27
lächeln. 27
moves 27
nur 27
opposite 27
palm 27
piano 27
podium 27
poles 27
put 27
reaches 27
red-hair 27
sale 27
saxophone 27
sea 27
shooting 27
shoveling 27
skirts 27
soldiers 27
spi@@ 27
sprechen. 27
ters 27
traditioneller 27
try 27
ut@@ 27
älteres 27
1 26
Baby. 26
Bereich. 26
Fotograf 26
Gepäck 26
Glas 26
Klassenzimmer 26
Kleidung. 26
Kreis 26
Maske 26
Mensch 26
Rennwagen 26
Roben 26
Schoß. 26
Stand 26
Weiß 26
Zeitung. 26
ant 26
balancing 26
bro@@ 26
can@@ 26
cones 26
curb 26
dd@@ 26
denim 26
farbigen 26
gefüllten 26
goalie 26
gre@@ 26
gut 26
heben 26
image 26
indische 26
inflatable 26
j@@ 26
kiss 26
küssen 26
land 26
laugh 26
läuft, 26
mound 26
männliche 26
part 26
pavement 26
ph@@ 26
pipe 26
plant 26
polo 26
poster 26
pu@@ 26
reinigt 26
repariert 26
rugby 26
sli@@ 26
soldier 26
spielen, 26
string 26
tion 26
tongue 26
tops 26
treffen 26
verkauft. 26
viel 26
wheelchair 26
windows 26
wine 26
z@@ 26
Bluse 25
Bus. 25
Dieses 25
Hand, 25
Hardhats 25
Hunden 25
Im 25
Marathon 25
Maschine 25
Paar, 25
Platz. 25
Schoß 25
Spitze 25
Teller 25
ber@@ 25
berührt 25
bikers 25
bottom 25
buying 25
col@@ 25
com@@ 25
courtyard 25
curly 25
cyclists 25
denen 25
eats 25
ent 25
fabric 25
fall 25
fans 25
flight 25
floating 25
frame 25
fresh 25
gegnerische 25
happily 25
head@@ 25
id 25
inter@@ 25
juggling 25
keyboard 25
laughs 25
married 25
mer@@ 25
motorcycles 25
musician 25
ned 25
professional 25
raft 25
railroad 25
rechten 25
riders 25
sea@@ 25
sell 25
shade 25
sport 25
step 25
stool 25
student 25
städtischen 25
swimsuit 25
tools 25
tractor 25
ty 25
walls 25
weiß, 25
wäscht 25
york 25
Bett 24
Bett. 24
Brücke. 24
Bäume 24
Café 24
Computer 24
Fahne 24
Fahrzeug 24
Fleisch 24
Fotos 24
Herren 24
High 24
Kopfhörern 24
Mannes. 24
Mädchen. 24
Männern, 24
Nassanzug 24
Orange 24
Outfits 24
Rad 24
Reiter 24
Schaukel. 24
Schlagzeug. 24
Schläger 24
Statue. 24
T-Shirt, 24
Tischen 24
Touristen 24
Waren 24
Zigarette. 24
acoustic 24
airport 24
appear 24
backwards 24
bandanna 24
blond-Haar 24
bubble 24
bun@@ 24
carriage 24
cha@@ 24
cheering 24
closeup 24
color 24
cs 24
eingezäunten 24
either 24
ery 24
floral 24
garbage 24
gegeneinander 24
gegenseitig 24
ger 24
goods 24
groom 24
guard 24
har@@ 24
hellblauen 24
holt 24
hurdle 24
indem 24
jerseys 24
kalten 24
knee 24
laden 24
living 24
marketplace 24
multiple 24
nap 24
nassen 24
offenem 24
ops 24
pair 24
pajamas 24
par@@ 24
pin@@ 24
pit 24
plane 24
riesige 24
rückwärts 24
santa 24
scaffolding 24
schauen. 24
schwarz-weißen 24
shown 24
sized 24
socks 24
spray 24
stellt 24
surf 24
suspended 24
th 24
touching 24
tube 24
vely 24
vers 24
yo@@ 24
you 24
Blätter 23
Boot, 23
Clown 23
Eis. 23
Erde 23
Fahrrädern. 23
Feuerwehrleute 23
Flagge 23
Freunden 23
Grün 23
Haar, 23
Haaren, 23
Hut. 23
Instrument 23
Instrumente 23
Kindern, 23
Kletterer 23
Kugel 23
Mikrofon, 23
Mütze 23
Nahrung 23
Party. 23
Platz 23
Schulter 23
Sieben 23
Stapel 23
Streifen 23
Telefon. 23
Tier 23
U-Bahn 23
Volleyball 23
Zunge 23
advertisement 23
animals 23
aring 23
backpacks 23
balanciert 23
bank 23
benutzen 23
bling 23
bs 23
but@@ 23
cam@@ 23
caught 23
chain 23
chinesischen 23
climber 23
dining 23
direction 23
dry 23
du@@ 23
ears 23
elling 23
em@@ 23
escalator 23
fangen 23
fenced 23
fully 23
german 23
gestrichenen 23
good 23
hay 23
hinten 23
hood 23
hooded 23
ihres 23
jagt 23
japanese 23
kauft 23
kneels 23
landscape 23
let 23
long-haired 23
magazine 23
paints 23
pes 23
plaza 23
pped 23
raised 23
serving 23
sheep 23
sted 23
stellen 23
sti@@ 23
sto@@ 23
stove 23
things 23
thrown 23
towel 23
umgeben. 23
underwater 23
ver 23
verkaufen 23
wal@@ 23
welding 23
wenn 23
wer 23
! 22
&amp; 22
( 22
Alters 22
Bandana 22
Board 22
Computer. 22
Couch. 22
Felsen, 22
Finger 22
Flugzeug 22
Freund 22
Gang 22
Garten. 22
Gespräch 22
Hemdloser 22
Kleider 22
Kleine 22
Kragen 22
Müll 22
Overalls 22
Ozeans. 22
Pferden 22
Rutsche 22
Schwimmbad. 22
Schwimmer 22
Seil. 22
Seite. 22
Sonnenuntergang. 22
Spaß 22
Stuhl. 22
Stöcken 22
age 22
amusement 22
ary 22
athletic 22
au@@ 22
bekommen. 22
bending 22
bewölkten 22
bmx 22
boards 22
bow 22
brush 22
brushing 22
bur@@ 22
bürstet 22
candy 22
cat@@ 22
caucasian 22
checkered 22
davor 22
decorated 22
defen@@ 22
dro@@ 22
ea@@ 22
ear@@ 22
einsamer 22
examining 22
fu@@ 22
ged 22
gestreiftem 22
gravel 22
grilling 22
großen, 22
ic 22
individual 22
ings 22
ja@@ 22
jemand 22
jährt 22
kaufen 22
ki@@ 22
lachen. 22
lines 22
lterer 22
mobile 22
mom 22
money 22
nahe 22
neon 22
ning 22
obstacle 22
op@@ 22
operating 22
orchestra 22
participating 22
pit@@ 22
post 22
read 22
reden 22
referee 22
schneiden 22
schwingen 22
schöne 22
scra@@ 22
sechs 22
seems 22
shaped 22
shes 22
singt. 22
sitzen, 22
starrt 22
summer 22
teacher 22
unten 22
ur 22
vehicles 22
vorbeifährt. 22
warten. 22
wed 22
wo@@ 22
ze 22
zeigt. 22
8 21
Ausrüstung 21
Baby, 21
Balkon 21
Beinen 21
Gebäuden 21
Handy, 21
Kaffee 21
Karren 21
Land. 21
Make-up 21
Mantel, 21
Mund, 21
Pferd, 21
Pullover, 21
Schuhe 21
Spielplatz 21
Stunt 21
Tasche. 21
Tennis. 21
Wand, 21
aber 21
afrikanische 21
ars 21
attempt 21
atv 21
barbecue 21
benches 21
bles 21
brea@@ 21
but 21
button 21
chest 21
cker 21
compete 21
cone 21
crouches 21
dol@@ 21
entspannen 21
f 21
feeding 21
firefighters 21
form@@ 21
ger@@ 21
haircut 21
hallway 21
harness 21
heels 21
hellgelben 21
hitting 21
indischer 21
ite 21
lacht. 21
lin@@ 21
live 21
lu@@ 21
lächelnd. 21
map 21
maroon 21
me 21
mittelalterlicher 21
muddy 21
ol@@ 21
only 21
opponent 21
passengers 21
peace 21
photographs 21
polka 21
practice 21
presentation 21
pri@@ 21
print 21
racer 21
rasiert 21
rec@@ 21
rests 21
ropes 21
rowing 21
schließt 21
schnell 21
schüttet 21
scuba 21
sets 21
sharing 21
sk@@ 21
sol@@ 21
sprechen, 21
sticking 21
studio 21
sub@@ 21
t-shirts 21
teilweise 21
tourists 21
tub 21
tur@@ 21
turning 21
ul@@ 21
umarmen 21
ve@@ 21
ver@@ 21
vorbeiläuft. 21
wagon 21
war@@ 21
zusammen, 21
) 20
Cheerleader 20
Dame, 20
Decke. 20
Feuerwehrmann 20
Fischer 20
Geige. 20
Geldbeutel 20
Geschirr 20
Getränke 20
Graffiti. 20
Jungen. 20
Kopf, 20
Kopftuch 20
Leuten. 20
Mannes, 20
Pitcher 20
Restaurants 20
Skiern 20
Sonnenuntergang 20
Szene 20
Teich 20
Tennisball. 20
Tor. 20
Tür. 20
Zelt. 20
action 20
ad 20
aged 20
also 20
amerikanische 20
amp 20
bars 20
bathroom 20
bereit, 20
bin 20
boxing 20
carpet 20
ced 20
chase 20
cleans 20
craft 20
dish 20
diskutieren 20
dr@@ 20
drummer 20
ear 20
eight 20
eng 20
et@@ 20
figure 20
fin@@ 20
fischen 20
flachem 20
flachen 20
fly 20
frisch 20
fro@@ 20
fruits 20
garage 20
gas 20
ge@@ 20
groups 20
guitars 20
hall 20
headscarf 20
heißen 20
helfen 20
ity 20
je@@ 20
jumpsuit 20
jungle 20
kers 20
krabbelt 20
ler 20
liest. 20
loading 20
long-sleeved 20
machinery 20
model 20
motocross 20
motorcyclist 20
mustache 20
na@@ 20
navy 20
ner 20
out@@ 20
passenden 20
patio 20
pen 20
policeman 20
pull 20
r 20
racetrack 20
raucht. 20
res 20
runden 20
sandwich 20
she@@ 20
sink 20
skateboards 20
snowboard 20
snowboarding 20
speech 20
spielt, 20
sporting 20
sses 20
ssion 20
start 20
sters 20
stones 20
tile 20
tool 20
tor@@ 20
turns 20
viewing 20
vo@@ 20
we 20
wide 20
wire 20
wn 20
wor@@ 20
y-@@ 20
zurück 20
6 19
Akkordeon. 19
Badeanzügen 19
Ballon 19
Baustelle. 19
Brieftasche 19
Einkaufswagen 19
Felswand. 19
Fußballball. 19
Füßen 19
Gegner 19
Gehweg, 19
Geige 19
Gymnast 19
Hemden, 19
Hosen. 19
Instrument. 19
Instrumente. 19
Koch 19
Lady 19
Lederjacke 19
Leute. 19
Nahaufnahme 19
Rücken. 19
Skatepark. 19
Sonne. 19
Spiels 19
Straßenecke 19
Straßenhändler 19
T-Shirts 19
Teil 19
Wagen. 19
ac@@ 19
afroamerikanischer 19
ahead 19
ally 19
ard 19
assi@@ 19
ati@@ 19
atten@@ 19
baskets 19
bath 19
beam 19
beverage 19
boardwalk 19
bushes 19
cally 19
case 19
ceiling 19
cing 19
ck@@ 19
coach 19
college 19
cricket 19
crouching 19
dark-skinned 19
darunter 19
dge 19
dis@@ 19
discussion 19
dune 19
eastern 19
el 19
ered 19
fancy 19
first 19
fährt, 19
gers 19
glücklich 19
great 19
gri@@ 19
half 19
herself 19
hillside 19
hin 19
hol@@ 19
horseback 19
indoors 19
intersection 19
jemanden 19
kleidete 19
kochen 19
lane 19
lar 19
leaving 19
medical 19
member 19
ming 19
museum 19
narrow 19
neighborhood 19
observe 19
petting 19
pla@@ 19
possibly 19
puck 19
roten, 19
routine 19
ry 19
schwingt. 19
sells 19
serviert 19
shoot 19
slides 19
smoke 19
snow-covered 19
spaziert. 19
stopped 19
stößt 19
swimmer 19
t-@@ 19
tag 19
tattooed 19
tents 19
tin@@ 19
trumpet 19
tw@@ 19
um@@ 19
vendors 19
warm 19
weg 19
weg. 19
x@@ 19
zurück. 19
Akkordeon 18
An 18
Auto, 18
Ballons 18
Basketball. 18
Blondine 18
Bogen 18
Büro 18
Dach. 18
Fahrräder 18
Frisbee. 18
Fuß. 18
Gebäuden. 18
Geld 18
Gemälde 18
Gerät 18
Gesicht, 18
Haar. 18
Kerl, 18
Kirche 18
Kirche. 18
Konzert. 18
Kurve 18
Landschaft 18
Laptop 18
Meer 18
Mitarbeiter 18
Ort 18
Parkbank 18
Parkplatz. 18
Plakat 18
Publikum. 18
Rahmen 18
Raum, 18
Rennen. 18
Roller. 18
Schlagzeug 18
Schwimmbad 18
Soldat 18
Teleskop 18
Torwart 18
Trampolin 18
Vor 18
Wettlauf 18
Wüste. 18
air@@ 18
ali@@ 18
apple 18
army 18
bereit 18
birthday 18
bly 18
bottles 18
buckets 18
bunter 18
buy 18
cans 18
card 18
cardboard 18
celebrating 18
choir 18
clay 18
clo@@ 18
container 18
cts 18
dishes 18
entrance 18
excited 18
fencing 18
fire@@ 18
folding 18
funny 18
gekleideten 18
gießt 18
gr@@ 18
grillt 18
guitarist 18
h 18
hang 18
heart 18
helps 18
hospital 18
hugs 18
hübsche 18
joggen 18
jüngeren 18
lacht, 18
lay 18
ltere 18
lächelndes 18
mall 18
microphones 18
mixing 18
more 18
mostly 18
möglicherweise 18
nachdem 18
namens 18
nebeneinander. 18
nets 18
ns 18
orangefarbenem 18
ornate 18
outstretched 18
pen@@ 18
pieces 18
pl@@ 18
position 18
protest 18
puppy 18
rela@@ 18
rubber 18
sal@@ 18
sammelt 18
saw 18
schreit 18
seats 18
shepherd 18
skates 18
slo@@ 18
song 18
squatting 18
steigen 18
teilen 18
tre@@ 18
treibt 18
uniformed 18
up@@ 18
ut 18
va@@ 18
vil 18
violett 18
wartet. 18
wheels 18
youth 18
ys 18
zuschauen. 18
überfüllte 18
- 17
0 17
2012 17
Arm. 17
Becken. 17
Bier. 17
Blättern 17
Farbe 17
Feuer. 17
Fitnessraum. 17
Fußballspiel. 17
Füße 17
Gegenstände 17
Gemüse. 17
Getränk. 17
Hals 17
Handtuch 17
Hauses. 17
Hocker 17
Kapuzen 17
Kindern. 17
Klasse 17
Kuh 17
Lehrer 17
Maschine. 17
Musik. 17
Mäntel 17
Objekt. 17
Pier 17
Plattform 17
Robe 17
Schaufel 17
Schlagzeuger 17
Schlamm. 17
Shorts, 17
Stadt, 17
Stein 17
Strandes 17
Strandes. 17
Wandbild 17
Welpen 17
Wettkampf 17
Während 17
York 17
ab 17
altes 17
apartment 17
ates 17
backs 17
balance 17
barfuß 17
bear 17
bedeckt. 17
belt 17
bewaldeten 17
blasen 17
blows 17
bowls 17
broom 17
calf 17
cla@@ 17
cloth@@ 17
colle@@ 17
coloring 17
comfor@@ 17
conference 17
coo@@ 17
ctors 17
cuts 17
derby 17
dire@@ 17
doctor 17
doors 17
dreadlocks 17
dunkelhaarige 17
dy 17
eins 17
ethnic 17
feiern 17
fil@@ 17
finger 17
finish 17
firetruck 17
fisherman 17
fix 17
fle@@ 17
flipping 17
float 17
fol@@ 17
folgt 17
fotografiert. 17
ft 17
furniture 17
ga@@ 17
ght 17
got 17
grau 17
graue 17
grinding 17
ha@@ 17
hair@@ 17
handstand 17
hart 17
hinunter, 17
hoops 17
hängt. 17
inspecting 17
item 17
jockey 17
kn@@ 17
leading 17
lehnt. 17
library 17
liegen. 17
mohawk 17
moment 17
neue 17
ny 17
oranger 17
pan 17
pick 17
pil@@ 17
pine 17
plates 17
por@@ 17
reflective 17
ribbon 17
rink 17
rough 17
rural 17
scenery 17
schneidet. 17
sein. 17
singt, 17
skateboardt 17
sleeveless 17
smokes 17
space 17
spinning 17
spraying 17
stack 17
stares 17
storefront 17
stretching 17
stripes 17
stroll 17
stru@@ 17
sw@@ 17
swe@@ 17
sword 17
tattoos 17
tered 17
tho@@ 17
tief 17
tly 17
traditionellen 17
unds 17
uni@@ 17
vegetable 17
ven 17
waschen 17
wird, 17
zing 17
-up 16
Anzug, 16
Applikation 16
Bau 16
Blatt 16
Bowlingball 16
Brauner 16
Cowboy-Mütze 16
Deck 16
Fahrzeug. 16
Foto, 16
Fotografen 16
Fußballfeld 16
Hemden. 16
Hinterhof 16
Hütte 16
Kleid. 16
Leiter, 16
Menge, 16
Mitglieder 16
Pfad 16
Podium 16
Radfahrern 16
Schaufenster 16
Schlauch 16
Schreibtisch. 16
Schwarz, 16
Spielen 16
Stadion 16
Straßenrand. 16
Teams 16
Wassers 16
Zähne. 16
act 16
ance 16
approaching 16
ausgestreckten 16
balances 16
balding 16
banner 16
barrel 16
bass 16
bat@@ 16
batter 16
befindet 16
beg@@ 16
bow@@ 16
broken 16
candles 16
cap@@ 16
carving 16
castle 16
chalk 16
chefs 16
clad 16
computers 16
cool 16
crane 16
crew 16
dar@@ 16
dead 16
discussing 16
duck 16
dunkler 16
durch. 16
einander 16
emergency 16
ence 16
engaged 16
etwas, 16
ey@@ 16
factory 16
farm 16
feiert 16
flip-flops 16
fluffy 16
folded 16
following 16
free 16
gezogen 16
gui@@ 16
gymnasium 16
horn 16
houses 16
il 16
instru@@ 16
intently 16
jagen 16
jeder 16
jewelry 16
ke@@ 16
kite 16
lamp 16
lange 16
leuchtend 16
lifting 16
links 16
listens 16
london 16
ments 16
mon@@ 16
moped 16
motorbike 16
naked 16
nighttime 16
ob 16
objects 16
oping 16
overhead 16
parents 16
pigeons 16
pitch 16
pizza 16
pol@@ 16
rainy 16
raises 16
ral 16
reach 16
rechts 16
ruhen 16
schlagen 16
schläft. 16
schwimmt. 16
sides 16
smo@@ 16
snack 16
sofa 16
spazieren 16
speed 16
spread 16
staff 16
stairway 16
starting 16
steckt 16
steilen 16
stricken 16
surrounding 16
sweat@@ 16
tain 16
television 16
tied 16
tourist 16
turned 16
ures 16
verkaufen. 16
ward 16
&apos;t 15
-down 15
-like 15
.@@ 15
1@@ 15
3@@ 15
Asiatische 15
Bach. 15
Berge 15
Bild. 15
Bus, 15
Dirtbiker 15
Eingang 15
Fahnen. 15
Floß 15
Fußgänger 15
Gegenständen 15
Gipfel 15
Gras, 15
Hilfe 15
Hürde. 15
Klassenzimmer. 15
Laden, 15
Maulkorb 15
Nase 15
Ofen 15
Pflanzen 15
Pflanzen. 15
Rennstrecke. 15
Rucksäcken 15
Schlag 15
Schlammweg. 15
Schuh 15
Schwimmwesten 15
Seiten 15
Snowboard 15
Socken 15
Strohmütze 15
Tennisschläger 15
Tennisspielerin 15
Trikots 15
Tuch 15
Tätowierungen 15
Ufer. 15
Volleyball. 15
Zimmer 15
advertising 15
ami@@ 15
amongst 15
anderen, 15
ansieht. 15
arm@@ 15
ballerina 15
barber 15
beneath 15
bit 15
bla@@ 15
blondhaariges 15
blow 15
branch 15
called 15
cameras 15
catcher 15
come 15
comple@@ 15
control 15
corn 15
crosses 15
cut@@ 15
davor, 15
directions 15
downtown 15
drehen 15
ebenfalls 15
electronic 15
elephant 15
en 15
engine 15
ens 15
ent@@ 15
erholt 15
fan 15
fest. 15
findet 15
fireman 15
flowered 15
follows 15
forward 15
fr@@ 15
fre@@ 15
füllt 15
geben 15
gemalten 15
gesäumt 15
gg@@ 15
gleichen 15
go-@@ 15
hat, 15
headband 15
hel@@ 15
her@@ 15
hits 15
hun@@ 15
ing@@ 15
ir@@ 15
keep 15
laufen, 15
lesen. 15
liquid 15
lit@@ 15
lounging 15
lächeln, 15
marschiert 15
material 15
mittelalterliche 15
motor@@ 15
my 15
name 15
necklace 15
newborn 15
numerous 15
oben. 15
observing 15
oc@@ 15
odd 15
orangefarbene 15
ori@@ 15
paddles 15
papers 15
partially 15
participate 15
patient 15
pea@@ 15
photos 15
pottery 15
present 15
protesting 15
que 15
raising 15
redheaded 15
regnerischen 15
relax 15
repair 15
reparieren. 15
rings 15
rows 15
scheinbar 15
schleppt 15
schwimmen. 15
security 15
shades 15
shaved 15
sho@@ 15
shovels 15
smaller 15
ssed 15
ssing 15
still 15
stre@@ 15
sur@@ 15
swimmers 15
tan@@ 15
tanzt. 15
taxi 15
tch 15
teammate 15
terrain 15
tex@@ 15
theater 15
thin 15
til@@ 15
tle 15
training 15
trinken. 15
trinkt. 15
trucks 15
unicycle 15
verschneiten 15
vie@@ 15
village 15
ving 15
were 15
whi@@ 15
white-@@ 15
wife 15
wings 15
wrestle 15
zed 15
zeigt, 15
Abend 14
Anzeige 14
Arzt 14
Athlet 14
Bank, 14
Basis 14
Baum, 14
Baustelle 14
Becher 14
Becken 14
Bergen. 14
Berges. 14
Eltern 14
Esel 14
Fans 14
Fußball, 14
Fußballspieler, 14
Fußweg, 14
Gegend 14
Gerüst 14
Gespräch. 14
Hose, 14
Händler 14
Innenhof 14
Kinder. 14
Kissen. 14
Mikroskop 14
Mikroskop. 14
Mohawk 14
Mountainbiker 14
Olympischen 14
Paare 14
Papiere 14
Projekt 14
Präsentation 14
Regen. 14
Rollstuhl 14
Saxophon 14
Schaufel. 14
Schlange 14
Schnee, 14
Schuss 14
Schutzausrüstung 14
Sonnenbrillen. 14
Stöck. 14
Traktor 14
Treppen 14
Trick. 14
Uniform, 14
Waffe 14
Wasserfall. 14
Zeit 14
Ziegelhaus 14
Ziel 14
Zuschauern. 14
admiring 14
ages 14
airborne 14
aisle 14
angel 14
athletes 14
aufblasbaren 14
bedeckten 14
betreibt 14
bewundert 14
biking 14
bil@@ 14
billboard 14
binoculars 14
black@@ 14
blasst 14
book@@ 14
cal@@ 14
calm 14
camel 14
cape 14
caps 14
cards 14
care 14
carry 14
casual 14
charac@@ 14
cli@@ 14
cobblestone 14
conven@@ 14
converse 14
cook 14
crafts 14
cru@@ 14
dad 14
desig@@ 14
dies 14
dieser 14
donkey 14
düster 14
eling 14
erhebt 14
expre@@ 14
fake 14
falls 14
firemen 14
fl@@ 14
fra@@ 14
fremden 14
fri@@ 14
gar@@ 14
genießen. 14
gestrichelten 14
gezeigt. 14
gh@@ 14
gift 14
gla@@ 14
gli@@ 14
glo@@ 14
glove 14
glänzenden 14
grand@@ 14
guards 14
guns 14
homeless 14
hu@@ 14
hug 14
ihn. 14
ily 14
interacting 14
job 14
klaren 14
kämpfen. 14
kämpft 14
lar@@ 14
leads 14
len@@ 14
lounge 14
lädt 14
machines 14
mid 14
mmed 14
modern 14
most 14
noch 14
oes 14
oms 14
passenger 14
peering 14
performers 14
photographed 14
pillow 14
point 14
pretty 14
pur@@ 14
push 14
races 14
rainbow 14
receiving 14
repairs 14
rmeln 14
rollerblades 14
rothaarige 14
sam@@ 14
scarves 14
schleift 14
schwebend 14
schütteln 14
sehen, 14
ser@@ 14
shakes 14
share 14
shi@@ 14
shining 14
shops 14
silly 14
skiers 14
slee@@ 14
slightly 14
spar@@ 14
splashes 14
spo@@ 14
spon@@ 14
sprinkler 14
star 14
steel 14
stic 14
story 14
straight 14
streichelt 14
teaching 14
ties 14
tower 14
trailer 14
trunk 14
upon 14
uts 14
verfolgt 14
wading 14
war 14
weaving 14
wh@@ 14
whilst 14
wild 14
wit@@ 14
world 14
wurde. 14
xes 14
yed 14
11 13
2@@ 13
Akustikgitarre 13
Alte 13
Arena 13
Badehosen 13
Band, 13
Ente 13
Fahrt 13
Flip-Flops 13
Frauen. 13
Großer 13
Heels 13
Helm, 13
Hotel 13
Hunde, 13
Jockey 13
Kalb 13
Kleidungsstücken 13
Koffer 13
Kunst 13
Lächeln 13
Mannschaften 13
Mittagessen 13
Motorrädern 13
Park, 13
Parkbank. 13
Polizei 13
Produkte 13
Rand 13
Rückseite 13
Rücksitz 13
Schlauch. 13
Schuhe. 13
Schulter. 13
Schwimmweste 13
Spiegel. 13
Spiel, 13
Stuhl, 13
Sängerin 13
Teenagern 13
Teig 13
Trampolin. 13
Verkehr 13
Wasserbecken 13
Winter 13
Wohnzimmer 13
ado@@ 13
afroamerikanische 13
ari@@ 13
ast 13
ator 13
attention 13
auftreten. 13
autumn 13
ban@@ 13
bare 13
barrier 13
benutzt. 13
bleachers 13
blockieren. 13
blonden 13
blondhaariger 13
browsing 13
burgundy 13
bystanders 13
ca 13
carts 13
ceremony 13
chainsaw 13
check 13
checks 13
cheer 13
cle@@ 13
coaster 13
comes 13
consisting 13
craw@@ 13
cups 13
customer 13
dding 13
debris 13
dessen 13
dimly 13
dough 13
drill 13
dum@@ 13
dunkelhaariger 13
dusk 13
eggs 13
els 13
enter@@ 13
entering 13
ents 13
essen, 13
examines 13
far 13
farmer 13
fegt 13
filling 13
fli@@ 13
fliegen. 13
flips 13
flute 13
form 13
fotografieren 13
fotografiert, 13
four@@ 13
füttert 13
gehalten 13
gehen, 13
gemalt 13
gestimmt 13
gestures 13
geworfen. 13
glückliches 13
goldenen 13
greyhound 13
grin@@ 13
groceries 13
headed 13
heißt. 13
high-@@ 13
hoo@@ 13
ich 13
if 13
ines 13
inspects 13
jeweils 13
ka@@ 13
keys 13
knit 13
kümmert 13
lacrosse 13
landing 13
laptops 13
le-@@ 13
lead 13
lifted 13
links. 13
lächelnd 13
machen, 13
meeting 13
mehrfarbigen 13
messy 13
mic 13
muzzled 13
nature 13
nähert 13
observes 13
off@@ 13
official 13
ones 13
order 13
oven 13
overweight 13
paddle 13
part@@ 13
pe 13
pflückt 13
places 13
plan@@ 13
praying 13
prüfen 13
que@@ 13
ren@@ 13
rod 13
rot, 13
rot-weißen 13
ruhigen 13
sack 13
sailing 13
schießen. 13
schnüffelt 13
schöner 13
science 13
selbst 13
setzen 13
shine 13
sie. 13
similar 13
singen. 13
sks 13
sm@@ 13
sneakers 13
some@@ 13
son@@ 13
spanish 13
spoon 13
spotted 13
stance 13
stomach 13
studying 13
tail 13
target 13
tea 13
telephone 13
tending 13
test 13
ther 13
thumbs 13
tires 13
top@@ 13
tropical 13
ung 13
vel@@ 13
verheiratetes 13
waterfront 13
waterway 13
wel@@ 13
wheelbarrow 13
5@@ 12
Bahnhof. 12
Baseball. 12
Blasen. 12
Blau, 12
Blume 12
Box 12
Box. 12
Brot 12
Brust 12
Bänken 12
Cowboy-Mützen 12
Decken 12
Drachen 12
Drink 12
Eimer. 12
Fahne. 12
Form 12
Friseur 12
Gesichter 12
Getränke. 12
Getränken 12
Gitarren 12
Hammer 12
Herr 12
Hinter 12
Hinterhof. 12
Hochzeit 12
Holz. 12
Hunden. 12
Jungs, 12
Kisten 12
Klavier 12
Klippe. 12
Kunden. 12
Linie 12
London 12
Marktplatz 12
Moment 12
Motorrad, 12
Ofen. 12
Ohren 12
Outfit. 12
Podium. 12
Rucksack, 12
Rädern 12
Schalter 12
Schritt 12
Schwert 12
Skateboard, 12
Sonnenschirm 12
Stadion. 12
Stadtstraße, 12
Steinmauer. 12
Straßenecke. 12
Straßenkünstler 12
Stühlen. 12
Taucher 12
Telefon, 12
Tennis 12
Teppich 12
The 12
Topf 12
Tunnel. 12
Uniformierte 12
Veranda 12
Verkauf 12
Verkäufer 12
Vögel 12
Wasserkörper 12
Weißer 12
Wellen. 12
Wettkampf. 12
Wäsche 12
accompani@@ 12
alleyway 12
anti@@ 12
applying 12
arbeitet, 12
arti@@ 12
atta@@ 12
attending 12
auch 12
aussieht. 12
bagpipes 12
ballet 12
bamboo 12
banan@@ 12
barri@@ 12
baut 12
beanie 12
been 12
beverages 12
bevor 12
bewegt 12
bite 12
biting 12
blankets 12
blond-haarigem 12
blur@@ 12
bläst 12
boulder 12
bouncing 12
bricks 12
cello 12
char@@ 12
chicken 12
clapping 12
co 12
comm@@ 12
complete 12
cooks 12
countryside 12
covers 12
cowboys 12
cti@@ 12
da 12
der@@ 12
dering 12
diver 12
doll 12
domin@@ 12
drive 12
dunkelblauen 12
dust 12
engen 12
entertain@@ 12
entlang, 12
entlanglaufen. 12
es. 12
exam@@ 12
excit@@ 12
exercise 12
exhibit 12
far@@ 12
feath@@ 12
forehead 12
games 12
gekleidetes 12
gestreiftes 12
gezogen. 12
ggy 12
give 12
goldfarbenen 12
gymnastics 12
handing 12
heading 12
highway 12
hängen. 12
iron 12
ities 12
iting 12
jack@@ 12
jemandem 12
juice 12
jüngere 12
kann. 12
kaufen. 12
kayaking 12
kayaks 12
kil@@ 12
knees 12
knife 12
leckt 12
lecture 12
listen 12
ll 12
load 12
located 12
long-sleeve 12
medi@@ 12
merchandise 12
mes 12
mming 12
monument 12
movie 12
männlichen 12
newly 12
newspapers 12
nieder. 12
off-@@ 12
olympics 12
orangefarbenes 12
orangene 12
organi@@ 12
os 12
ously 12
pack 12
paint@@ 12
paperwork 12
para@@ 12
parachut@@ 12
parasailing 12
pass@@ 12
patterned 12
pigtails 12
pillows 12
placing 12
praktizieren 12
presenting 12
puppies 12
quarterback 12
ran@@ 12
repairing 12
rickshaw 12
rmel 12
rollerblading 12
run@@ 12
schaut, 12
schiebt 12
schlammigen 12
schleudert 12
schneebedeckte 12
schwarz, 12
schweren 12
scooters 12
screaming 12
seem 12
serves 12
setzen. 12
shadows 12
shirted 12
shoppers 12
sion 12
sitzend 12
sitzende 12
skater 12
skaters 12
ski@@ 12
sna@@ 12
snowsuit 12
sprinkl@@ 12
stare 12
stops 12
street@@ 12
suitcase 12
sweeps 12
tackle 12
tanzt, 12
tape 12
tauchen 12
teal 12
teen 12
teilnehmen. 12
texas 12
tired 12
tomat@@ 12
tossing 12
touches 12
tray 12
tted 12
tv 12
umpire 12
venue 12
violettem 12
visible 12
visiting 12
wares 12
weit 12
wheelie 12
wires 12
wra@@ 12
wrap 12
wrestler 12
yer 12
yoga 12
zeichnen 12
zes 12
übergibt 12
0@@ 11
10 11
9 11
Arbeit. 11
Bartender 11
Baseballspiel 11
Bei 11
Beton 11
Bildschirm 11
Blumenkleid 11
Bowlingbahn. 11
Brett 11
Brille. 11
Bushaltestelle. 11
Café. 11
Chor 11
Couch, 11
Cowboys 11
Derby 11
Dinge 11
Einkaufszentrum 11
Elefanten 11
Elektrogitarre. 11
Felswand 11
Fernglas 11
Flüssigkeit 11
Fußballfeld. 11
Fußballuniform 11
Füßen. 11
Gelände. 11
Geschenk 11
Gitarrenspieler 11
Glas. 11
Hockey. 11
Hüte 11
Jugendlicher 11
Kerzen 11
Kinderwagen. 11
Kindes 11
Kopfbedeckung 11
Kreide 11
Köche 11
Ladens. 11
Lebensmitteln. 11
Marschband 11
Mountainbike 11
Männlicher 11
Namen 11
Netz. 11
Operation 11
Piste. 11
Pool, 11
Radrennen 11
Reifen 11
Rennens. 11
Restaurant, 11
Restaurants. 11
Rock, 11
Rodeo. 11
Schmutz 11
Schnürsenkeln 11
Skateboarding 11
Spaziergang 11
Stange 11
Stift 11
Stoff 11
Surfbrett. 11
Tanz 11
Tauben 11
Teich. 11
Teppich. 11
Trommel. 11
Tuch. 11
Vordergrund. 11
Wein 11
Werbung 11
Ziegelstraße. 11
Zähne 11
adjusting 11
adv@@ 11
african-american 11
alleine 11
alling 11
aqu@@ 11
arcade 11
arch 11
are@@ 11
artwork 11
asians 11
assem@@ 11
ations 11
auditorium 11
ausführt. 11
backdrop 11
banjo 11
black-haired 11
blin@@ 11
blondhaarige 11
blühenden 11
bor@@ 11
bra 11
braun 11
bron@@ 11
burning 11
cage 11
camping 11
carefully 11
ce-@@ 11
celebration 11
chatting 11
cheek 11
chess 11
china 11
closely 11
company 11
constru@@ 11
cool@@ 11
cop 11
coun@@ 11
couples 11
creek 11
crossed 11
crouched 11
cycling 11
dan@@ 11
ddle 11
deli@@ 11
den@@ 11
department 11
descent 11
din@@ 11
direkt 11
dives 11
dj 11
don@@ 11
dot 11
drawn 11
dress@@ 11
drib@@ 11
dunkelhäutiger 11
dusty 11
east 11
eglasses 11
elev@@ 11
enthusia@@ 11
entweder 11
ets 11
fashion 11
fashioned 11
fel@@ 11
ffs 11
finished 11
firefighter 11
floats 11
focused 11
formation 11
fällt. 11
färbt 11
gathers 11
geparkten 11
gesehen 11
gesehen. 11
gesäumten 11
gle 11
haired 11
hammert 11
hohe 11
hur@@ 11
hut 11
hören 11
ic@@ 11
ies 11
injured 11
involved 11
jet 11
jogt 11
junge, 11
khakis 11
kie 11
kommt 11
larger 11
laundromat 11
leaf 11
learning 11
lifts 11
lighted 11
lips 11
location 11
logs 11
lokalen 11
loo@@ 11
loom 11
ländlichen 11
magazines 11
maneu@@ 11
med 11
meet 11
mid-@@ 11
motorcyclists 11
motorized 11
mower 11
mp@@ 11
mug 11
männliches 11
nackten 11
nail 11
nehmen. 11
nächsten 11
ol 11
oned 11
ong 11
opens 11
orangefarbener 11
orientalische 11
own 11
parachute 11
passersby 11
pat@@ 11
patch 11
pick@@ 11
picks 11
pilot 11
placed 11
planting 11
play@@ 11
playfully 11
ponytail 11
poor 11
pop@@ 11
posed 11
pper 11
practices 11
printed 11
rally 11
range 11
rapids 11
recei@@ 11
record 11
regi@@ 11
rice 11
rollerskating 11
roun@@ 11
rutschen 11
salon 11
scape 11
schieben 11
schnitzt 11
scouts 11
see@@ 11
sel@@ 11
sele@@ 11
shoreline 11
sitzenden 11
sitzender 11
sno@@ 11
snowshoes 11
soda 11
speak 11
sprin@@ 11
stan@@ 11
staubigen 11
stehen, 11
steuert 11
stle 11
strange 11
studiert 11
sty 11
sunlight 11
supplies 11
surgery 11
suspenders 11
swimsuits 11
tackling 11
tee 11
teens 11
ten@@ 11
ter@@ 11
tights 11
tiny 11
torch 11
traveling 11
tricycle 11
trip 11
trolley 11
tun@@ 11
turquoise 11
umher. 11
underwear 11
unk 11
unterhalten. 11
ute 11
viol@@ 11
vorbeilaufen. 11
washer 11
watched 11
ways 11
weap@@ 11
weather 11
weiblichen 11
weiß. 11
wered 11
wind@@ 11
wir 11
wning 11
xi@@ 11
yarn 11
überquert. 11
# 10
7 10
9@@ 10
ATV 10
Armen. 10
Augen. 10
Bad 10
Badeanzug, 10
Ballerina 10
Ballonen 10
Basketball, 10
Basketballspiel 10
Bauch 10
Baums. 10
Berge. 10
Bett, 10
Blase 10
Blätter. 10
Boxer 10
Brunette 10
Bäume. 10
Büschen. 10
Catcher 10
Dämmerung. 10
Eingangsbereich 10
Etwas 10
Figur 10
Fitnessraum 10
Flughafen. 10
Flur. 10
Flusses 10
Freunden. 10
Fußballmannschaft 10
Fußballteam 10
Gasse 10
Gebiet 10
Gelb 10
Geländer. 10
Gerüst. 10
Gläsern 10
Gymnastin 10
Gürtel 10
Heck 10
Helm. 10
Herbst 10
Hintergrund, 10
Holzbank 10
Kampf 10
Karneval 10
Kilt 10
Kissen 10
Kleinkinder 10
Klettern 10
Klippe, 10
Kreuzung 10
Kreuzweg. 10
Kuchen. 10
Körper 10
LKWs 10
Laptop. 10
Lebensmitteln 10
Lichtern 10
Marktplatz. 10
Metall 10
Moped 10
Mädchens. 10
Nase. 10
Netze 10
Obst. 10
Ozeans 10
Pajamas 10
Palmen 10
Puck 10
Rauch 10
Rede. 10
Rennstrecke 10
Ring 10
Rocks 10
Rot, 10
Routine 10
Rugbyspieler 10
Sack 10
Sand, 10
Sandstrand 10
Sandwich 10
Schach 10
Schafe 10
Schal, 10
Schilder 10
Schildern 10
Schmuck 10
Schneeschuhen 10
Schnurren 10
Schutzweste 10
Schwimmbecken 10
Schwimmbecken. 10
Schwimmhosen 10
Schüler 10
Seilen 10
Show 10
Sicherheitswesten 10
Skateboarden 10
Skatepark 10
Skater 10
Softball 10
Sport 10
Straßen. 10
Stufen. 10
Stöcke. 10
Tasse. 10
Trainer 10
Tunnel 10
Tänzerin 10
U-Bahn-Zug. 10
Unterwäsche 10
Waren. 10
Wasserbrunnen. 10
Wasserflasche 10
Weihnachtsbaum 10
Weihnachtsbaum. 10
Wrestler 10
Wüste 10
Zement 10
activity 10
ai@@ 10
america 10
amidst 10
ani@@ 10
apart 10
approaches 10
arch@@ 10
arri@@ 10
asia 10
aufmerksam 10
auftritt. 10
bag@@ 10
beginnt 10
beißt 10
belts 10
ber 10
bietet 10
blazer 10
blond-Frau 10
blood 10
bouquet 10
branches 10
bre@@ 10
brin@@ 10
brother 10
buntem 10
button@@ 10
camera@@ 10
canvas 10
casually 10
celebrate 10
chalkboard 10
chan@@ 10
cheese 10
cher 10
chopping 10
cial 10
ckets 10
clim@@ 10
coa@@ 10
collared 10
condu@@ 10
contraption 10
creating 10
cross@@ 10
ctions 10
ctor 10
cul@@ 10
cup@@ 10
cute 10
ddy 10
decorative 10
demonstra@@ 10
desc@@ 10
dieses 10
displaying 10
displays 10
done 10
dre@@ 10
driveway 10
durchs 10
earphones 10
ein, 10
eing 10
elektronischen 10
ell 10
embracing 10
emer@@ 10
ends 10
entspannt 10
eri@@ 10
experiment 10
ey 10
facility 10
fair@@ 10
farbige 10
feat@@ 10
fer@@ 10
fertigen 10
ff@@ 10
finishing 10
fixiert 10
fliegt. 10
floo@@ 10
foot@@ 10
fore@@ 10
frozen 10
fur 10
furry 10
gallery 10
gaze 10
gazes 10
gebärder 10
gefallenen 10
gegeneinander. 10
gegenüberliegenden 10
geniesst 10
geschrieben 10
gesturing 10
gleichzeitig 10
goat 10
gray-haired 10
greifen 10
große, 10
gräbt 10
handrail 10
headdress 10
hear@@ 10
helicopter 10
hellblauem 10
herunter 10
herunter, 10
hiding 10
hike 10
hochhält. 10
holen 10
holen. 10
hotdog 10
icy 10
ie 10
incline 10
inten@@ 10
involving 10
japanischen 10
john 10
ju@@ 10
juggles 10
kno@@ 10
kommt. 10
kämpfen, 10
küssen. 10
langhaariger 10
late 10
laun@@ 10
leaf@@ 10
leap 10
leggings 10
lehrt 10
leitet 10
lens 10
leotard 10
less 10
lighting 10
lining 10
link 10
lled 10
lobby 10
love 10
lässig 10
maintenance 10
malen 10
march 10
meisten 10
mel@@ 10
mexican 10
mischt 10
monitor 10
mop 10
morning 10
mul@@ 10
multi@@ 10
nachts. 10
nam@@ 10
nee@@ 10
ney 10
numbers 10
nur@@ 10
nurses 10
od 10
offen. 10
oper@@ 10
oranges 10
ot@@ 10
ow@@ 10
pads 10
parallel 10
peeking 10
pers 10
pin 10
pins 10
played 10
ple 10
portrait 10
pots 10
pra@@ 10
process 10
products 10
quickly 10
racers 10
rafting 10
rea@@ 10
rechts. 10
reden, 10
reihen 10
reinigen. 10
retrie@@ 10
rin@@ 10
roadside 10
rooftop 10
row@@ 10
scaffold 10
scending 10
schlendern 10
schmalen 10
schnappt 10
schneereichen 10
schweben 10
schweißt 10
schwingen. 10
scre@@ 10
seagul@@ 10
second 10
sel 10
sem@@ 10
ser 10
serve 10
shape 10
shar@@ 10
shel@@ 10
shing 10
sideways 10
sieht. 10
silberne 10
silhouette 10
single 10
sive 10
speaker 10
spect@@ 10
sprayed 10
ssive 10
stall 10
star@@ 10
stat@@ 10
steigt. 10
stepping 10
ster@@ 10
stilts 10
storm 10
stroke 10
stu@@ 10
stürzen 10
super@@ 10
surfs 10
than 10
them@@ 10
thers 10
thin@@ 10
thumb 10
toddlers 10
touch 10
transportation 10
trashcan 10
tribal 10
tropischen 10
twir@@ 10
u 10
untergeht. 10
upward 10
valley 10
verlassen 10
versammelt, 10
vielleicht 10
vorbereitet. 10
walked 10
warmen 10
washes 10
weibliches 10
weint. 10
weißen, 10
wer@@ 10
whom 10
will 10
wn@@ 10
wns 10
work@@ 10
workout 10
workshop 10
wunderschönen 10
zens 10
zentral 10
zi@@ 10
zieht. 10
zurück, 10
ärmellosen 10
4@@ 9
Acht 9
Anzug. 9
Arbeitern 9
Arbeitskleidung 9
Artikel 9
Asian 9
Asien 9
Athleten 9
Autos, 9
Bahnhof 9
Barfußfrau 9
Bart, 9
Bibliothek 9
Blättern. 9
Bootes 9
Bord 9
Bowlingbahn 9
Brillen, 9
Buch, 9
Bushaltestelle 9
Bürgersteig 9
Club. 9
Daumen 9
Dies 9
Dudelsack 9
Erwachsenen. 9
Fernseher 9
Flusses. 9
Fußballball, 9
Fußballteams 9
Fuße 9
Fußgängerzone. 9
Garten 9
Gebiet. 9
Geländer 9
Geschenk. 9
Golf 9
Golfball 9
Gurt 9
Heu 9
Hinterbeinen 9
Hula-Hoop 9
Hundes 9
Hände. 9
Indische 9
Innenstadt 9
Jeans. 9
Jugendliche 9
Jumpsuit 9
Kampfkunst 9
Kappe, 9
Klavier. 9
Kleidern, 9
Kollegen 9
Kopfhörer 9
Korb. 9
Kran 9
Kreuzung. 9
Kreuzweg 9
Küche, 9
Küste. 9
Labor 9
Labormantel 9
Landschaft. 9
Leggings 9
Leine. 9
Leiter. 9
Licht. 9
Lied 9
Löffel 9
Marathon. 9
Maschinen. 9
Matte 9
Militärs 9
Motocross 9
Nähmaschine 9
Ohr. 9
Orchester 9
Ort. 9
Picknicktisch 9
Plaidhemd, 9
Ponytail 9
Regenmantel 9
Richtung. 9
Rucksack. 9
Sanddüne. 9
Saxophon. 9
Schiff 9
Schlammweg 9
School 9
Schuhen, 9
See, 9
Sees. 9
Shirt 9
Silhouette 9
Skulptur. 9
Sofa 9
Spielern 9
Spiels. 9
Sprinkler 9
Sprung. 9
St. 9
Steine 9
Straßenrand 9
Street 9
Struktur 9
Strumpfhosen 9
Student 9
Stöckchen 9
Süßigkeiten 9
Treppen. 9
Treppenhaus 9
Trompete 9
Umgebung. 9
Van 9
Veranstaltung. 9
Waffe. 9
Waldweg. 9
Webstuhl. 9
Werkstatt 9
Wettbewerb. 9
Windhunde 9
Yoga 9
ab@@ 9
abends 9
able 9
adjusts 9
afternoon 9
almost 9
appro@@ 9
aprons 9
atm 9
attractive 9
bal@@ 9
barbe@@ 9
bath@@ 9
bathtub 9
bea@@ 9
begins 9
bel@@ 9
belongings 9
bends 9
beret 9
bestehend 9
bewegen 9
bicycling 9
bin@@ 9
blast 9
blau, 9
blue-@@ 9
boarding 9
booths 9
bor 9
boxer 9
brass 9
breakdancing 9
brushes 9
built 9
bull@@ 9
bush@@ 9
butterfly 9
cab 9
cakes 9
camp 9
canadian 9
cann@@ 9
capped 9
cast 9
cellphones 9
cer@@ 9
checkers 9
chewing 9
chocolate 9
chopsticks 9
circular 9
classic 9
cleaner 9
cloud 9
clouds 9
cola 9
color@@ 9
colum@@ 9
concentra@@ 9
containing 9
cover 9
crates 9
cri@@ 9
crowds 9
curly-haired 9
cy 9
decora@@ 9
decorations 9
denkt 9
design 9
designs 9
dig@@ 9
digital 9
diner 9
directing 9
discu@@ 9
displayed 9
dive 9
dragging 9
draw 9
ducks 9
dumpster 9
dun@@ 9
einschließlich 9
ell@@ 9
elmo 9
employees 9
ep@@ 9
ering 9
erklimmen 9
erklimmt. 9
erreichen. 9
erwachsene 9
even 9
exerci@@ 9
expl@@ 9
farmers 9
featuring 9
fell 9
fen@@ 9
fier 9
fishes 9
fliegen 9
foc@@ 9
folgen. 9
foliage 9
french 9
gardening 9
gazing 9
gegenüber. 9
gemeinsam. 9
geniessen 9
gesehen, 9
geworfen 9
gged 9
gleitet 9
glückliche 9
grabbing 9
grabs 9
grabt 9
gradu@@ 9
graph@@ 9
graues 9
green@@ 9
großer, 9
gy@@ 9
halb 9
handed 9
handle 9
hea@@ 9
heavily 9
herab. 9
highchair 9
hills 9
hinaus. 9
hind 9
horizon 9
hudd@@ 9
hören. 9
hübscher 9
illumin@@ 9
ils 9
im@@ 9
images 9
ining 9
interesting 9
irgendeinem 9
jeep 9
jogs 9
joy 9
jubelt 9
jumped 9
jumper 9
junger, 9
kel@@ 9
kilt 9
kit@@ 9
kly 9
known 9
kocht. 9
kommen 9
ky 9
langes 9
league 9
leicht 9
lets 9
lie 9
lustiges 9
main 9
mark 9
mechani@@ 9
men@@ 9
menu 9
monkey 9
motion 9
motor 9
muzzle 9
nasser 9
news 9
nimmt. 9
nähert. 9
obser@@ 9
odles 9
offen 9
olympic 9
operates 9
opy 9
orientalischer 9
ou@@ 9
painter 9
pale 9
pathway 9
pattern 9
peer 9
pencil 9
pet 9
pflegt 9
photograph@@ 9
pinata 9
plo@@ 9
post@@ 9
potato 9
power 9
pro 9
protesters 9
pt 9
pumpkin 9
raincoat 9
rav@@ 9
really 9
recording 9
reflection 9
relea@@ 9
remo@@ 9
rifle 9
riot 9
river@@ 9
road@@ 9
sad 9
sand@@ 9
sawing 9
scar@@ 9
scenic 9
scent 9
schießen 9
schlagen, 9
schmale 9
schneiden. 9
schreit. 9
score 9
section 9
seltsamen 9
service 9
shiel@@ 9
shiny 9
shoo@@ 9
short-haired 9
show@@ 9
sit@@ 9
sking 9
sledding 9
sniffing 9
soap 9
soll. 9
sorting 9
sparring 9
spaziert 9
spricht, 9
springen, 9
spritzen 9
spritzt. 9
stacked 9
statt. 9
ste 9
stoop 9
strapped 9
strolls 9
stump 9
sty@@ 9
sucht 9
suit@@ 9
sum@@ 9
sure 9
swor@@ 9
tags 9
task 9
techni@@ 9
tends 9
termin@@ 9
thing 9
ticket 9
tiefen 9
tight 9
tiled 9
tips 9
toi@@ 9
tournament 9
trainiert 9
treat 9
treiben 9
trench 9
tripod 9
trockenen 9
tru@@ 9
tug@@ 9
turban 9
ture 9
two-@@ 9
types 9
ue 9
unique 9
unten. 9
upset 9
verti@@ 9
vollen 9
wahrscheinlich 9
wait@@ 9
warten, 9
well-@@ 9
werfen, 9
wheeler 9
wig 9
wind 9
wirft. 9
wr@@ 9
writes 9
yel@@ 9
z 9
zuhört. 9
ähnlich 9
übergewichtiger 9
überzogenen 9
-colored 8
Anzahl 8
Apronstutzen 8
Arbeiter, 8
Ausstellung 8
Bahn 8
Balkon. 8
Banner 8
Baseballfeld 8
Basketballplatz 8
Batter 8
Beine 8
Beret 8
Bier, 8
Bike 8
Bilder. 8
Bildschirm. 8
Blau. 8
Blazer 8
Blumenhemd 8
Bogen. 8
Bowling 8
Brillen. 8
Bräutigam 8
Bündchen 8
Cafe 8
Cheerleadern 8
Cricket 8
Dekorationen 8
Dose 8
Eimern 8
Einkaufstüten 8
Einkaufszentrum. 8
Erde. 8
Essen, 8
Field 8
Flug 8
Flur 8
Fluss, 8
Food 8
Freien, 8
Fußballspielern 8
Fußballuniformen 8
Gasse. 8
Gegend. 8
Gegenstand 8
Geschäftskleidung 8
Gitter 8
Hals. 8
Halskette 8
Handschuh 8
Hang 8
Hause 8
Hauses 8
Helme 8
Hockey 8
Hundes. 8
Händen, 8
Hühner 8
Hütte. 8
Inneren 8
Instrumenten 8
John 8
Kameras 8
Karate 8
Knopfdruck 8
Kragenhemd 8
Krankenschwestern 8
Kugeln. 8
Kuh. 8
Kunstwerk 8
LKW, 8
Leinwand. 8
Leotard 8
Lichter 8
Maler 8
Mannschaft, 8
Matratze. 8
Meer, 8
Messer 8
Mikroskop, 8
Mitglied 8
Mittagessen. 8
Mitte. 8
Musikern 8
Mädchens 8
Männer. 8
Männern. 8
Nachbarschaft. 8
Nebel 8
Noten 8
Nähmaschine. 8
Objekt, 8
Papier, 8
Papiere. 8
Pfad. 8
Pfützen. 8
Pilot 8
Platte 8
Pudel 8
Radfahrer, 8
Rasen, 8
Rede 8
Regenschirmen 8
Rennens 8
Saal 8
Sandalen, 8
Sandstrand. 8
Santa 8
Schals 8
Schatten. 8
Schienen. 8
Schirm 8
Schirmen 8
Schlafsäcken 8
Schneeanzug 8
Schule. 8
Schutzhauben 8
Schwanz 8
Schürzen 8
Schüssel. 8
Sieg 8
Sonnenbrille, 8
Spielzeug, 8
Stadtarbeiter 8
Steinmauer 8
Stiefeln, 8
Straßenarbeiter 8
Stöcken. 8
Stühle 8
Sweatshirt, 8
Tafel. 8
Tank 8
Taschen. 8
Tauben. 8
Taxi 8
Tee 8
Texas 8
Tischen. 8
Treppe, 8
Trommel 8
Tätowierung 8
Töpferei 8
Türen 8
Ufer, 8
Uniformen, 8
Uniformen. 8
Unter 8
Veranda. 8
Versammlung 8
Vorderseite 8
Vorstellung 8
Wasserbecken, 8
Wasserfall 8
Wasserrand. 8
Westen 8
Wänden 8
Zaun, 8
Zauns. 8
Zelten 8
abandoned 8
acce@@ 8
accident 8
ach 8
acrobatic 8
adverti@@ 8
afrikanischen 8
ale 8
aller 8
amount 8
and@@ 8
ands 8
angebracht 8
angeschlossen 8
angle 8
anscheinend 8
aquarium 8
artists 8
ately 8
attraktive 8
aufeinander 8
aufgestellt 8
aufregend 8
babies 8
banners 8
barefooted 8
barre@@ 8
bartender 8
batman 8
beads 8
bear@@ 8
because 8
bedroom 8
befinden 8
beleuchtet 8
bell@@ 8
beobachtet, 8
bers 8
betet 8
betrachten. 8
betrachtet. 8
bewegen. 8
bled 8
blond-bekleidete 8
break@@ 8
breiten 8
bridesmaids 8
brief@@ 8
buil@@ 8
bundle 8
buried 8
camels 8
campfire 8
canal 8
candle 8
canoes 8
carrier 8
cases 8
casino 8
challen@@ 8
chee@@ 8
cheerleading 8
cherry 8
chie@@ 8
cigar 8
cigar@@ 8
citi@@ 8
ck-@@ 8
clar@@ 8
clowns 8
cluttered 8
columns 8
commercial 8
communi@@ 8
companion 8
completed 8
conductor 8
congreg@@ 8
conne@@ 8
cover@@ 8
crashing 8
crayons 8
create 8
cries 8
crow@@ 8
dabei 8
darkened 8
daytime 8
deci@@ 8
deer 8
denti@@ 8
deser@@ 8
destination 8
deutscher 8
dex 8
dinosau@@ 8
dle 8
dly 8
doesn 8
down@@ 8
downhill 8
draped 8
draws 8
dritte 8
easel 8
edly 8
ee 8
egg 8
elabo@@ 8
eled 8
em 8
employee 8
entgegen. 8
envi@@ 8
ergreifen. 8
erklimmt 8
es@@ 8
establishment 8
europe 8
european 8
every@@ 8
fangen, 8
fat 8
feierlichen 8
festhält. 8
fields 8
figures 8
filming 8
finger@@ 8
flannel 8
flower@@ 8
foam 8
folgt. 8
followed 8
foods 8
ford 8
forested 8
fort 8
fountains 8
free@@ 8
frische 8
fs 8
fting 8
fun@@ 8
füllen 8
gefülltes 8
gegenseitig. 8
gerichteten 8
gestellt 8
gesture 8
gn@@ 8
gown 8
grab 8
graffiti@@ 8
grand 8
grasp@@ 8
had 8
halloween 8
halten, 8
hammering 8
hammock 8
hardwood 8
harmonica 8
harve@@ 8
hau@@ 8
hawaiian 8
herum, 8
herumlaufen. 8
hispani@@ 8
histor@@ 8
hit@@ 8
homemade 8
hor@@ 8
hum@@ 8
human 8
hydrant 8
identi@@ 8
iling 8
ility 8
imp@@ 8
india 8
industrial 8
inning 8
ir 8
irgendeiner 8
jemandem, 8
jockeys 8
judges 8
kar@@ 8
kaya@@ 8
kehren 8
kein 8
ker@@ 8
kick@@ 8
kisses 8
klettert. 8
kne@@ 8
knee-@@ 8
ko@@ 8
kunstvollen 8
labeled 8
laboratory 8
langen, 8
lanterns 8
lautet: 8
lay@@ 8
legt. 8
lehnt, 8
lem@@ 8
lers 8
ley 8
lic 8
lively 8
loaded 8
lon@@ 8
looked 8
lor 8
lou@@ 8
ly-@@ 8
maroonen 8
masks 8
mate 8
medium 8
mehr 8
mem@@ 8
mess 8
metal@@ 8
midst 8
mischen 8
mix 8
mix@@ 8
mixer 8
monopoly 8
moti@@ 8
mountain@@ 8
much 8
murky 8
muscular 8
musta@@ 8
nails 8
napping 8
nassem 8
navigates 8
nel 8
neuen 8
nieder 8
notebook 8
notes 8
nun 8
ob@@ 8
oben, 8
oil 8
oli@@ 8
om 8
orientalischen 8
oring 8
ox@@ 8
package 8
packed 8
packing 8
patro@@ 8
pay 8
peers 8
photographers 8
plain 8
pocket 8
posieren. 8
positi@@ 8
pours 8
pow@@ 8
ppy 8
product 8
projector 8
protect 8
punch 8
purses 8
rate 8
redhead 8
reitet. 8
religious 8
reparieren 8
rit@@ 8
rock@@ 8
roller-@@ 8
roo@@ 8
rub@@ 8
rug 8
ruht. 8
rundet 8
ry-@@ 8
rührt 8
sagt. 8
sailboat 8
sammeln 8
say 8
schattigen 8
scheint. 8
schlendert 8
schläft, 8
schlägt. 8
schwarz-weiß 8
schützen. 8
scrubs 8
sear@@ 8
sen@@ 8
series 8
shadow 8
shaggy 8
shelf 8
shing@@ 8
shor@@ 8
shout@@ 8
side@@ 8
signing 8
sil@@ 8
silhouetted 8
sin@@ 8
sk 8
skatet 8
skies 8
skills 8
skinny 8
skul@@ 8
sla@@ 8
sle@@ 8
somewhere 8
spa@@ 8
spat@@ 8
spazieren. 8
speeding 8
spins 8
spla@@ 8
splashed 8
spot 8
spotlight 8
sprays 8
spring 8
sprüht 8
squeezing 8
ssions 8
stant 8
stark 8
state 8
stati@@ 8
steht: 8
stolz 8
ston@@ 8
stream@@ 8
stretches 8
stringed 8
strolling 8
stry 8
stuck 8
stuff 8
suchen 8
surgical 8
synchronized 8
table@@ 8
tackled 8
tagsüber 8
tal@@ 8
tation 8
tching 8
teammates 8
teelfarbenen 8
teilt 8
tery 8
tic 8
times 8
too 8
toothbrush 8
tour 8
trainieren 8
trains 8
transit 8
travel 8
tug-of-war 8
tum@@ 8
tuxe@@ 8
tying 8
türkisfarbenen 8
umgebenen 8
umher 8
underground 8
unhappy 8
untersuchen 8
unusual 8
ured 8
usly 8
uti@@ 8
variety 8
vending 8
verfolgt. 8
verlassenen 8
verwendet 8
victory 8
vintage 8
vollem 8
wacht. 8
waist 8
waiter 8
walmart 8
warehouse 8
waschen. 8
waterskiing 8
weil 8
weinendes 8
wheeled 8
when 8
who@@ 8
win 8
won@@ 8
ya@@ 8
ziehen. 8
zzy 8
örtlichen 8
6@@ 7
8@@ 7
? 7
Akustikgitarre. 7
Anlegeplatz 7
Ansicht 7
Arcade 7
Asiaten 7
Asiatischer 7
Auditorium 7
Ausrüstung. 7
Axt 7
BMX-Fahrer 7
Babywagen 7
Bach 7
Bahnsteig 7
Balken 7
Banner. 7
Barriere. 7
Bauer 7
Baumstamm 7
Baumzweig 7
Behälter 7
Berges 7
Bibliothek. 7
Bikern 7
Bildern 7
Blondin 7
Blumenstrauß 7
Boardwalk 7
Boote 7
Brillenträgerin 7
Brot. 7
Bruder 7
Brust. 7
Büro. 7
City. 7
Court. 7
Dock. 7
Dorf 7
Einkaufstasche 7
Einkaufswagen. 7
Eisenbahngleisen. 7
Eislaufen 7
Elektrogitarre 7
Fahne, 7
Fahrrads 7
Fahrzeuge 7
Farbe. 7
Felsens. 7
Fenstern 7
Ferne, 7
Festival. 7
Fingern 7
Fisch. 7
Fische 7
Flagge. 7
Flaggen 7
Flasche. 7
Flaschen 7
Flecken 7
Fleisch. 7
Flugzeug. 7
Freude 7
Fußweges 7
Garage 7
Gassen. 7
Gebäudes, 7
Geldautomaten 7
Geldbeutel. 7
Gemälde. 7
Geschäften 7
Gesichtsfarbe 7
Gewändern 7
Gewässern. 7
Girls 7
Gitarrist 7
Gitarristen 7
Gold 7
Grasfeld, 7
Gymnastik 7
Haarschnitt. 7
Handschuhen. 7
Handstand 7
Hard 7
Hardhat, 7
Haustür 7
Heißluftballon 7
Himmel, 7
Horn. 7
Häusern 7
Instrument, 7
Jacken, 7
Jahren 7
Jeansjacke 7
Jeep 7
Jugendlichen 7
Kaffee. 7
Kapuze 7
Karte 7
Kartenspiel. 7
Kellner 7
Kettensäge 7
Keyboard. 7
Klassenzimmer, 7
Kleidern. 7
Knien 7
Konfetti 7
Kopfsteinpflasterstraße. 7
Krankenschwester 7
Krawatten 7
Küchentisch. 7
Kürbis 7
Küste 7
Laptops 7
Laptops. 7
Lebensmittelstand 7
Lehrerin 7
Liegestühlen 7
Loch. 7
Mannschaft. 7
Mantel. 7
Marathonläufer 7
Markt, 7
Maulkopf 7
Menschenmenge. 7
Motorräder 7
Museum. 7
Mustache 7
Möwen 7
Nahen 7
Nahrung. 7
Outfit, 7
Passanten 7
Person. 7
Perücke 7
Pfeil 7
Pflanze 7
Pfosten 7
Pfützen 7
Plastiktüte 7
Plattform. 7
Polka 7
Poloshirt 7
Porträt 7
Pose 7
Puppe 7
Radrennen. 7
Rasenfeld. 7
Regenschirm, 7
Reifenschwingen. 7
Reihe, 7
Rennen, 7
Rickshaw 7
Rockband 7
Räder 7
Rädern. 7
Saris 7
Schal. 7
Schalen 7
Schaukel, 7
Scheibe 7
Schienen 7
Schlagzeug, 7
Schulkinder 7
Schwarze 7
Sicherheitsbeamter 7
Skulptur 7
Snack 7
Sonnenbrille. 7
Sonnenbrillen, 7
Spieler, 7
Sportereignis 7
Stadtplatz. 7
Stand, 7
Start 7
Staub 7
Stock 7
Stoff. 7
Straßenkünstler, 7
Straßenmusiker 7
Strecke, 7
Stromschnellen. 7
Struktur. 7
Studio 7
Säulen 7
Tanktop, 7
Tanktops 7
Tattoo 7
Teilnehmer 7
Teller. 7
Theater 7
Trommeln 7
Turban 7
Tür, 7
Ufers. 7
Uhr 7
Umgebung 7
Uniform. 7
Verkehr. 7
Verschiedene 7
Veste, 7
Vielzahl 7
Vorstellung. 7
Wald, 7
Waldes. 7
Wanderern 7
Wasserfalls. 7
Wasserrand 7
Weibliche 7
Welle, 7
Werbung. 7
Weste 7
Wheelie 7
Windhund 7
Winterjacke 7
Wintermantel 7
Wir 7
Yorker 7
Zahlreiche 7
Zeitschrift 7
Zeitungen 7
Ziegelhaus. 7
Ziel. 7
acting 7
activ@@ 7
afrikanisches 7
ag@@ 7
ales 7
allen 7
amp@@ 7
ant@@ 7
ants 7
arran@@ 7
arrow 7
ass@@ 7
attle 7
bands 7
bauen. 7
bedeckt, 7
befinden. 7
befindet. 7
begleitet 7
beigefarbenen 7
bemalten 7
bend 7
berry 7
bildet 7
blond-haarigen 7
blu@@ 7
bon@@ 7
bongo 7
box@@ 7
british 7
broad 7
bräuniger 7
brüchigen 7
buffet 7
bul@@ 7
bunt 7
bush 7
busine@@ 7
cari@@ 7
cel@@ 7
cen@@ 7
check@@ 7
cheerleader 7
chers 7
chil@@ 7
chin 7
cle 7
clut@@ 7
collie 7
competiti@@ 7
congre@@ 7
cons@@ 7
cyc@@ 7
cycles 7
dam@@ 7
day@@ 7
deli 7
demonstration 7
dieselbe 7
dir@@ 7
dit@@ 7
diti@@ 7
dreht. 7
dritten 7
dritter 7
drücken 7
dunkelhäutige 7
düsteren 7
earth 7
eds 7
eisigen 7
ele@@ 7
electri@@ 7
elektrischen 7
elementary 7
embra@@ 7
end@@ 7
entlangläuft. 7
ently 7
erhöhten 7
erwachsener 7
ese 7
exhi@@ 7
explo@@ 7
extre@@ 7
facial 7
fallen. 7
fedora 7
feierlicher 7
festi@@ 7
fetti 7
fit 7
fit@@ 7
flu@@ 7
fotografieren. 7
fron@@ 7
gage 7
gal@@ 7
gefangen 7
gefälschten 7
gefärbten 7
gelb, 7
gemacht. 7
gemusterten 7
geschäftige 7
gespritzt. 7
getragen 7
ght@@ 7
gleichzeitig. 7
glücklicher 7
gol@@ 7
goldener 7
greyho@@ 7
größeren 7
gute 7
ha 7
hal@@ 7
ham 7
hamm@@ 7
happ@@ 7
hellbrauner 7
hin. 7
hinteren 7
hinunterfährt. 7
holi@@ 7
hop@@ 7
hotdogs 7
hängenden 7
hübsches 7
ight 7
interagieren 7
intervie@@ 7
irs 7
iti@@ 7
itt@@ 7
jenga 7
jüngerer 7
kings 7
kleidet 7
kniet, 7
konzentriert 7
kurvenförmigen 7
kurvenreichen 7
können. 7
laid 7
land@@ 7
landet 7
lands 7
lau@@ 7
legged 7
leopard 7
let@@ 7
leuchtendem 7
level 7
licking 7
life@@ 7
linke 7
lion 7
lling 7
loa@@ 7
logo 7
lush 7
ma 7
macht, 7
mag@@ 7
maid 7
malt. 7
marble 7
marked 7
marker 7
marschieren 7
mascot 7
may 7
maybe 7
mcdonald 7
meadow 7
measuring 7
medieval 7
miniat@@ 7
mit@@ 7
miteinander, 7
mitt 7
mm@@ 7
monitors 7
monk 7
mountainous 7
mounted 7
mouths 7
mowing 7
musli@@ 7
nackte 7
named 7
nat@@ 7
necklaces 7
newlywed 7
nine 7
nude 7
olo@@ 7
ols 7
oni@@ 7
open@@ 7
ora@@ 7
ordering 7
orned 7
our 7
p-@@ 7
pad 7
pans 7
parent 7
patrons 7
peaks 7
pee@@ 7
person@@ 7
pfeilt 7
picket 7
pict@@ 7
pigeon 7
pirate 7
plea@@ 7
pointed 7
poli@@ 7
policemen 7
pony 7
poodle 7
pop 7
pops 7
praktiziert 7
prepared 7
presents 7
prints 7
profession@@ 7
proje@@ 7
prote@@ 7
pum@@ 7
punching 7
puppet 7
purchase 7
pyramid 7
quet 7
quiet 7
radio 7
rafts 7
rai@@ 7
railings 7
rails 7
raining 7
reception 7
refle@@ 7
reflektierenden 7
repor@@ 7
resort 7
return 7
riesiges 7
rise 7
rist@@ 7
rollers 7
rollerskates 7
rolls 7
rollt 7
ronment 7
rosa, 7
rosafarbenen 7
rothaariges 7
rugs 7
ruhigem 7
rustic 7
rustikalen 7
s-@@ 7
sail 7
schauen, 7
scheint, 7
schief 7
schmiedet 7
schmutzige 7
schmutzigem 7
schmückt 7
schneit 7
schreiben 7
schreiben. 7
schreibt. 7
schwarz-weiße 7
schwerer 7
schwimmenden 7
scientist 7
scopes 7
sculptures 7
seafood 7
seating 7
sein, 7
sements 7
semi-@@ 7
separate 7
shawl 7
shift 7
shower 7
sidelines 7
sig@@ 7
sitzend, 7
skil@@ 7
skizziert 7
skydiving 7
skyline 7
sl@@ 7
slacks 7
sleeves 7
snacks 7
snor@@ 7
snowboards 7
social 7
sociali@@ 7
sold 7
sorgfältig 7
sparkl@@ 7
speeds 7
sprang 7
squats 7
ssage 7
starring 7
stehend, 7
steilen, 7
stores 7
streicht 7
streut 7
striking 7
strings 7
stripe 7
stro@@ 7
strugg@@ 7
styli@@ 7
stürmischen 7
sunbathing 7
supermarket 7
support 7
surfers 7
surft. 7
sy 7
sägt 7
säubern 7
ta 7
tack@@ 7
tails 7
tains 7
tarp 7
temple 7
ten 7
thedra@@ 7
thick 7
though 7
ths 7
tiger 7
tippt 7
ton@@ 7
topless 7
toten 7
tracksuit 7
travels 7
treadmill 7
tree-@@ 7
treffen. 7
tress 7
tro 7
trophy 7
trotting 7
tton 7
tubes 7
tun. 7
turkey 7
tutu 7
typing 7
ual 7
uble 7
ugh 7
ultimate 7
um. 7
ume 7
ung@@ 7
uns 7
unter@@ 7
unterstützt 7
upwards 7
usa 7
usband 7
used 7
vacuum 7
vacuuming 7
val 7
vau@@ 7
ven@@ 7
vering 7
vers@@ 7
verteilt 7
vibrant 7
videota@@ 7
vil@@ 7
violettes 7
visor 7
vorbereiten, 7
vorbereiten. 7
warming 7
wash 7
watermelons 7
waterski@@ 7
wea@@ 7
wei@@ 7
weigh@@ 7
wenig 7
wetteifern 7
wheel@@ 7
wilderness 7
wirklich 7
woodland 7
workman 7
wrestlers 7
written 7
wurde 7
xe 7
xylophone 7
year 7
zone 7
zubereitet. 7
überblickt. 7
12 6
Abendessen. 6
Achterbahn 6
Am 6
Angel 6
Angelstab 6
Angriff 6
Anzügen, 6
Apfel 6
Arm, 6
Aufführung. 6
Aufgabe 6
Aufmerksamkeit 6
Aufnahme 6
Aufzug 6
Auswahl 6
Babys 6
Back 6
Badezimmer 6
Ballon. 6
Bandmitglieder 6
Bar, 6
Barfuß 6
Bars 6
Baseballspieler, 6
Basis. 6
Bauarbeitern 6
Bauernmarkt 6
Baumes. 6
Becher. 6
Becken, 6
Besitz 6
Beton. 6
Bewegung 6
Biker, 6
Bikinis 6
Board. 6
Boxen 6
Boy 6
Brett. 6
Brücke, 6
Buchstaben 6
Burger 6
Busch 6
Business 6
Bücher 6
Bücher. 6
Bündel 6
Cafe. 6
China 6
Computern 6
Decken. 6
Dock, 6
Dreirad 6
Dschungelgym. 6
Dunkeln 6
Einer 6
Eislaufen. 6
Er 6
Event. 6
Fahrrads. 6
Fahrrädern, 6
Fahrtreppe 6
Fahrzeugen 6
Familie, 6
Federn 6
Fedora 6
Fensters 6
Feuerlöscher 6
Feuerwehrwagen. 6
Feuerwerke 6
Finger. 6
Fleisch, 6
Flughafen 6
Flöte 6
Frisbee, 6
Früchte 6
Fuß, 6
Fußgängern 6
Fußweges. 6
Gabel 6
Gang. 6
Geräten 6
Gerüsten 6
Gesichtern 6
Graben. 6
Grashügel 6
Hafen. 6
Halsband 6
Halsketten 6
Handschuhen, 6
Handwerk 6
Harmonika. 6
Hindernis. 6
Hindernislaufbahn. 6
Holzkonstruktion 6
Home 6
Hose. 6
Hotdogs 6
Hubschrauber 6
Hula-Hoops 6
Hürde 6
Hütten 6
Inhalt 6
Jahre 6
Jockeys 6
Kaffeetasse 6
Kajaks 6
Kanu. 6
Kanus 6
Karneval. 6
Karten 6
Kellnerin 6
Kick 6
Kindes. 6
Kleinkind, 6
Kletterwand. 6
Kniepads 6
Knopfhemd 6
Kopfband 6
Krone 6
Kugelmütze 6
Kurve. 6
Kämpfer 6
Köpfen. 6
Küchenchef 6
Küchentisch 6
League 6
Lebensmittel. 6
Lebensmittelgeschäft 6
Lebensmittelgeschäft. 6
Leinwand 6
Lesen 6
Lichtern. 6
Lippen 6
Little 6
Lobby 6
Lächelnde 6
Läufer, 6
Mahlzeit 6
Martial 6
Material 6
Matratze 6
Mauer, 6
Mensch, 6
Messer. 6
Metall. 6
Metallkonstruktion. 6
Militäruniform 6
Motor 6
Musik, 6
Musikinstrumente 6
Mutter, 6
Männchen 6
Nach 6
Netz, 6
Nummern 6
Oberfläche 6
Obststand 6
Offizier 6
Orangen 6
Ort, 6
Outdoor-Event. 6
Outfits. 6
Passagiere 6
Passagieren 6
Perlen 6
Pfadfinder 6
Pfanne 6
Pferden. 6
Pisten 6
Plakat. 6
Platz, 6
Plätzen 6
Protest 6
Protestierende 6
Rampe, 6
Regenbogen 6
Reihen 6
Rennfahrer 6
Reparaturen 6
Rest 6
Richtungen. 6
Rock. 6
Rollerblades 6
Rollerskaten 6
Rollstuhl. 6
Rollstühlen 6
Röcken 6
Rückwärts-Flip 6
Sachen 6
Sachen. 6
Sanddüne 6
Schaukeln 6
Schildern, 6
Schildern. 6
Schlachtbahn. 6
Schneeberg 6
Schuh. 6
Schwimmbad, 6
Schöne 6
Sees, 6
Seiten. 6
Shorts. 6
Sicherheitsausrüstung 6
Sitzen 6
Sonnenlicht 6
Sonnenschirmen 6
Sooners 6
Speisesaal 6
Spielfeld 6
Sportereignis. 6
Sportler 6
Stadion, 6
Stadtpark. 6
Stadtweg 6
Stange, 6
Stapel. 6
Stein. 6
Steinen 6
Stern 6
Stiefel 6
Stirn. 6
Straßenseite 6
Studenten, 6
Stunts 6
Stücke 6
Tasche, 6
Tauziehen. 6
Teleskop, 6
Tieren 6
Times 6
Tomaten 6
Top-Hat 6
Tops 6
Traktor. 6
Trenchcoat 6
Trompete. 6
U-Bahn-Station 6
U-Bahn-Station. 6
Ultimate 6
Vergnügungspark-Fahrt. 6
Vergnügungspark. 6
Videospiel 6
Volleyballspieler 6
Waffen 6
Waldgebiet. 6
Wange 6
Wasserbeckens. 6
Wasserrutsche. 6
Wasserskifahrer 6
Weiß, 6
Wellengang 6
Wellengang. 6
Welt 6
Werkzeug 6
Wetter 6
Wissenschaftler 6
Wolken 6
Wort 6
Zeichen 6
Zeit, 6
Zeitschriften 6
Zeitung, 6
Zeremonie 6
Ziegel 6
Ziegelgebäude. 6
Ziegeln 6
Zigarre 6
Zuschauer. 6
Zweig 6
acht 6
acti@@ 6
afri@@ 6
alls 6
ame 6
ang@@ 6
angehalten. 6
any 6
appar@@ 6
appe@@ 6
arbeiten, 6
ards 6
arrangement 6
ath 6
ath@@ 6
ation@@ 6
attra@@ 6
aufblasbare 6
aufgenommen 6
aufs 6
aus@@ 6
aussehen, 6
aussieht, 6
auto@@ 6
badminton 6
balagt 6
band@@ 6
bathro@@ 6
bb@@ 6
beam@@ 6
begeistert 6
bereit. 6
berührt. 6
bestellt 6
bikinis 6
blauen, 6
blickt. 6
blonde 6
boarder 6
bodysuit 6
boogie 6
botto@@ 6
br@@ 6
brauner, 6
bringt 6
broch@@ 6
bulldozer 6
bum@@ 6
cade 6
camp@@ 6
canyon 6
celebra@@ 6
cer 6
ceremon@@ 6
cess 6
cher@@ 6
chinesische 6
cho@@ 6
circus 6
cl@@ 6
clu@@ 6
compet@@ 6
complet@@ 6
cray@@ 6
cremefarbenen 6
cular 6
dekorativen 6
dessert 6
dia@@ 6
diesen 6
dribbelt 6
dru@@ 6
drängt 6
drückt. 6
dunking 6
dunkle 6
ei@@ 6
einander. 6
einfach 6
einfachen 6
einiger 6
einkaufen 6
einsame 6
ena@@ 6
ep 6
erhobenen 6
erklimmen. 6
erledigen 6
ernährt 6
ethnischen 6
fashi@@ 6
feiern. 6
felsige 6
fer 6
ffentlichkeit 6
ffy 6
fish@@ 6
fordert 6
fts 6
fügt 6
führen. 6
gefallen 6
gefangen. 6
gefliesten 6
gehalten. 6
geht, 6
gelegen. 6
gelegenen 6
gemacht 6
genau 6
gepflegten 6
geschlagen 6
geschossen. 6
gestrichen 6
getragene 6
getroffen 6
gewickelt 6
ggles 6
ghts 6
giesst 6
gießen 6
girl@@ 6
gne 6
gon 6
gress 6
grills 6
grün, 6
grünen, 6
han@@ 6
harten 6
hausgemachten 6
heav@@ 6
hellorangen 6
helpful. 6
hemdlose 6
hen@@ 6
heraus 6
hier 6
hil@@ 6
holt. 6
horse@@ 6
ht 6
hört. 6
hüllen 6
inclu@@ 6
indi@@ 6
infla@@ 6
information 6
innen 6
inspe@@ 6
irgendeine 6
ise 6
ite@@ 6
ites 6
jubeln 6
jubeln. 6
jubelt. 6
jump@@ 6
kanadischen 6
kann 6
kaum 6
kee@@ 6
key 6
kin@@ 6
kiosk 6
klatschen 6
klein 6
kleinen, 6
kleinere 6
kleineren 6
klettern. 6
kochen. 6
kommen. 6
kontrolliert. 6
kunstvoll 6
langhaarige 6
lat@@ 6
legos 6
lernen 6
letter@@ 6
letzten 6
liegt, 6
lim@@ 6
liqu@@ 6
ll@@ 6
lt 6
lustige 6
lächelnd, 6
lächelnden 6
lässiger 6
läßt 6
löschen. 6
maj@@ 6
mani@@ 6
meist 6
merkwürdigen 6
miami 6
micro@@ 6
mil@@ 6
mitt@@ 6
modernen 6
motorisierten 6
mäht 6
möchte. 6
müde 6
na 6
nach, 6
nasse 6
near@@ 6
nebeneinander, 6
neues 6
neugeborenes 6
niedrigen 6
night@@ 6
obwohl 6
on-@@ 6
open-@@ 6
paci@@ 6
pack@@ 6
padd@@ 6
pain 6
parken. 6
parkt. 6
partici@@ 6
passieren. 6
past@@ 6
pfeift 6
pipes 6
politi@@ 6
pon@@ 6
ponch@@ 6
popcorn 6
prin@@ 6
professor 6
pub 6
quad 6
qui@@ 6
rad@@ 6
raften 6
rag 6
rasiertem 6
rauen 6
raz@@ 6
recor@@ 6
red-@@ 6
redet 6
redet. 6
refer@@ 6
reichen 6
reiten. 6
renaiss@@ 6
ribb@@ 6
rollen 6
rollerskat@@ 6
ron@@ 6
rostigen 6
rot-weiß 6
rothaarigen 6
rubs 6
ruft 6
rush 6
räumt 6
sagt, 6
sah 6
sail@@ 6
sammelten 6
saris 6
sausa@@ 6
saßen 6
sca@@ 6
scal@@ 6
schicken 6
schlafend 6
schließen 6
schneit. 6
schwarzhaarige 6
schwingt, 6
sci@@ 6
scope 6
seattle 6
senior 6
servieren 6
serviert. 6
setzt. 6
shake 6
shoe@@ 6
sieben 6
sieht, 6
skateboarders 6
slam 6
sleep 6
sn@@ 6
sooners 6
sor@@ 6
sortiert 6
spielerisch 6
sportlicher 6
ssi@@ 6
ssion@@ 6
stal@@ 6
stars 6
stehenden 6
steigen. 6
steile 6
stern 6
stir@@ 6
stor@@ 6
stretched 6
stunts 6
stürzt. 6
superman 6
supp@@ 6
surf@@ 6
swan 6
system 6
tal 6
talent 6
tat@@ 6
tau@@ 6
tem@@ 6
tern 6
terrier 6
those 6
tons 6
tr@@ 6
trans@@ 6
trav@@ 6
tuni@@ 6
tut. 6
tätowierte 6
tätowierter 6
ub@@ 6
ula 6
um, 6
und@@ 6
ungewöhnlichen 6
university 6
unterhalten 6
unterschiedliche 6
unterschiedlichen 6
vege@@ 6
verlässt 6
verschiedener 6
verse 6
versteckt 6
verzierten 6
violette 6
vol@@ 6
volunte@@ 6
vor@@ 6
vorsichtig 6
w-@@ 6
wadst 6
war. 6
wartet, 6
wat@@ 6
weg, 6
wegläuft. 6
weight 6
wendet 6
wet@@ 6
whe@@ 6
wieder 6
wild@@ 6
winzigen 6
wirkende 6
wischt 6
wollen. 6
zahlreiche 6
zeigen. 6
zerbrochenen 6
zerrissenen 6
zombi@@ 6
zoo 6
zusehen 6
zuwendet. 6
überdachten 6
überqueren, 6
überspringt 6
überzogen 6
-covered 5
00@@ 5
2012. 5
Abend. 5
Abendessen 5
Abstammung 5
Achterbahn. 5
Afrikanische 5
Aktion 5
Aktivität 5
Anhänger 5
Anhänger. 5
Ankunft 5
Apple 5
Aprons 5
Arme, 5
Aufgaben 5
Autobahn. 5
Außenbereich. 5
Außenseite 5
Badeanzug. 5
Barkeeper 5
Base 5
Baseball-Pitcher 5
Baseballschläger 5
Baseballspiel. 5
Baseman 5
Basis, 5
Basketballplatz. 5
Bauernmarkt. 5
Begeisterung 5
Beginn 5
Bein. 5
Berg, 5
Besitzer 5
Betonmauer. 5
Bild, 5
Bildes. 5
Billard. 5
Blumenfeld. 5
Blumenstrauß. 5
Blut 5
Boogie 5
Bootes. 5
Brettspiel 5
Bulldozer 5
Bälle 5
Bälle. 5
Bändern 5
Büchern. 5
Clowns 5
Club 5
Computerbildschirm 5
DJ 5
Dach, 5
Dame. 5
Deck. 5
Demonstration 5
Diskussion 5
Drachen. 5
Dämmerung 5
Ei 5
Eier 5
Eiern 5
Einkaufstüten. 5
Eis, 5
Eisbahn. 5
Elmo 5
Elternteil 5
Engel 5
Enten 5
Ereignis 5
Erwachsene, 5
Erwachsenen, 5
Europa. 5
Event 5
Experiment 5
Fackel 5
Fahnen, 5
Fahrt. 5
Fallschirm 5
Fang 5
Fans. 5
Fast 5
Feldes. 5
Fenstern. 5
Film 5
Fisch, 5
Fischmarkt 5
Flammen 5
Flugzeugs 5
Fokus 5
Fontäne. 5
Friedenszeichen. 5
Frucht 5
Fußboden 5
Garage. 5
Garn 5
Gassen, 5
Gehen 5
Geiger 5
Gelb, 5
Geldbörsen 5
Gelände 5
Geländewagen 5
Gericht 5
Gerät. 5
Geräten. 5
Geschirr. 5
Geschäft 5
Geschäfte 5
Geschäften. 5
Geschäftsmann 5
Gesichter. 5
Getränken. 5
Gewehr 5
Gitarren. 5
Gletscher. 5
Goatee 5
Golfer 5
Graffiti-bedeckten 5
Grashang 5
Griff 5
Grillen 5
Großmutter 5
Großstadt. 5
Gruppe. 5
Hafen 5
Hammer. 5
Handschuhe 5
Handwerker 5
Handys. 5
Hat 5
Haustür. 5
Heu. 5
Hindernis 5
Hirte 5
Hochzeit. 5
Hockeyspiel 5
Holzstock 5
Holzzaun. 5
Horizont 5
Hula-Hoop. 5
Hundespielzeug. 5
Hände, 5
Höhe 5
Hüten, 5
Ich 5
Innenhof. 5
Innenraum. 5
Jeanjacke 5
Jogger 5
Kabel 5
Kabeln 5
Kajakfahrer 5
Kameramann 5
Kampfkünste 5
Kanal 5
Kante 5
Kappen 5
Karren. 5
Kathedrale 5
Kerze 5
Ketten 5
Keyboard 5
Kiefern. 5
Kinn. 5
Klappsessel 5
Klasse. 5
Kleinkind. 5
Konferenz. 5
Kontrolle 5
Korbstäben 5
Kostüm, 5
Kostüm. 5
Kragen, 5
Krawatte, 5
Kreuz 5
Kugel. 5
Käfig 5
Labor. 5
Ladens 5
Land, 5
Landkarte. 5
Laufband 5
Lebensmittelhändler 5
Lebensmittelladen 5
Lebensmittelstand. 5
Lenkrad 5
Liegestuhl 5
Linien 5
Longsleeve-Hemd 5
Lächeln. 5
Löffel. 5
Mais 5
Maske, 5
Menü 5
Messe. 5
Miami 5
Mikrofonen 5
Militärmann 5
Mischung 5
Modell 5
Moped. 5
Morgen 5
Motorradfahrern 5
Mountainbike. 5
Museum 5
Musiker, 5
Musikinstrument 5
Musikinstrumente. 5
Muster 5
Mönch 5
Mütze, 5
Neugeborenes 5
Notizen 5
Oberfläche. 5
Oberhose 5
Oberteil 5
Obst- 5
Ohren. 5
Orchester, 5
Osten 5
Ozean, 5
Paket 5
Parks. 5
Passagier 5
Passant 5
Passanten. 5
Patienten 5
Patienten. 5
Pause. 5
Pfadfindern 5
Pfanne. 5
Pier. 5
Pitch 5
Pizza 5
Plaid 5
Platten 5
Polohemd 5
Pony 5
Pose. 5
Position 5
Priester 5
Professor 5
Projekt. 5
Pullover. 5
Pullovern 5
Quarterback 5
Rad. 5
Rasenmäher 5
Red 5
Reiten 5
Richtern 5
Ring. 5
Rollerblader 5
Rollstöcken 5
Rosa 5
Rucksäcke 5
Räderkasten. 5
Sache 5
Sandwich. 5
Schaufeln 5
Schiene 5
Schiene. 5
Schlamassel 5
Schlange, 5
Schlauch, 5
Schläger. 5
Schmetterling 5
Schneeausrüstung 5
Schneeberg. 5
Schotterstraße. 5
Schrank 5
Schreibtisch, 5
Schreibtischen 5
Schuhen. 5
Schultern. 5
Schwimmerin 5
Schäferhund 5
Schüsseln 5
Scooter 5
Sees 5
Segelboot 5
Skateboards 5
Skateboards. 5
Skulpturen 5
Skyline 5
Snowboard. 5
Snowboards 5
Soda 5
Sofa. 5
Softballspielerin 5
Sonne, 5
Sonnenschirm. 5
Spieler. 5
SpongeBob 5
Stadtszene 5
Stammeskleidung 5
Stange. 5
Startlinie 5
State 5
Steingebäude. 5
Steinstufen 5
Stil 5
Stirn 5
Strandes, 5
Straßen, 5
Straßenhändler. 5
Straßenmarkt 5
Straßenmarkt. 5
Straßenrand, 5
Straßenszene 5
Strickmütze 5
Strümpfen 5
Stufe 5
Stufen, 5
Stunt. 5
Stöckl 5
Surfer, 5
Sweatshirts 5
Säge 5
Tafel 5
Taille 5
Tankstelle 5
Tanzen. 5
Taschen, 5
Tauchbrett 5
Teenager, 5
Teleskop. 5
Tennisplatz 5
Tennisschläger. 5
Tier. 5
Tiere 5
Tracksuit 5
Treffen 5
Trikots. 5
Trommeln. 5
Trophäe 5
Tutu 5
Tänzerinnen 5
Türen. 5
Türgang 5
U-Bahn-Zug 5
U-Bahnstation 5
USA 5
Unfall 5
Unirad 5
Ursprungs 5
Van. 5
Vergnügungspark 5
Verkauf. 5
Verkehr, 5
Versuch, 5
Verteidiger 5
Video 5
Videokamera 5
Visier 5
Vogelperspektive 5
Vordergrund, 5
Vorschuh 5
Vortrag 5
Vögeln 5
Wagen, 5
Waldweg 5
Wanderung. 5
Wandmalereien 5
Wanne 5
Waschbecken. 5
Wasserbrunnen 5
Wassermelonen 5
Wassers, 5
Wasserski 5
Welpen. 5
Werkzeuge 5
Werkzeugen 5
Wettlauf. 5
Wheelie. 5
Wohnzimmer. 5
Wurf 5
Wände 5
Wänden. 5
Wäscherei. 5
Zeit. 5
Zeitschrift. 5
Ziege 5
Ziegelgebäude 5
Ziegelstraße 5
Zigarette, 5
Zug, 5
Zuschauermenge 5
Zutaten 5
a-@@ 5
ach@@ 5
ama@@ 5
ameri@@ 5
anbietet. 5
angels 5
angelt. 5
anschauen 5
anschaut, 5
arabi@@ 5
asiatisch 5
asphalt 5
ators 5
aufgestellt. 5
ausgebreiteten 5
ausgestreckt 5
ausländischen 5
aussehende 5
aussehender 5
außerhalb. 5
balan@@ 5
ball@@ 5
barren 5
base@@ 5
baseman 5
basket@@ 5
baumbestandenen 5
befestigen 5
beladen 5
berühren. 5
bestellen. 5
bestimmten 5
besucht 5
bir@@ 5
blau-grünen 5
blau. 5
bleiben. 5
blind 5
blockt 5
blond-haar 5
blondhaarigen 5
blässt 5
boss 5
braunhaariger 5
bricht 5
bräune 5
buntes 5
care@@ 5
carri@@ 5
chain@@ 5
champa@@ 5
cheer@@ 5
chemi@@ 5
chinesischer 5
chips 5
chirurgischen 5
cir@@ 5
cit@@ 5
cockpit 5
consi@@ 5
contain@@ 5
cowgirl 5
ctive 5
cy@@ 5
dal@@ 5
daran, 5
dasselbe 5
davon 5
dges 5
dig 5
diskutieren. 5
dramati@@ 5
du 5
dunkelblauem 5
dunkelhaariges 5
dunkt 5
dünnen 5
ees 5
einkaufen. 5
elektrische 5
eleph@@ 5
emp@@ 5
ender 5
enga@@ 5
entspannt. 5
er-@@ 5
ere 5
erfreuen. 5
ergreift. 5
erholen 5
erholen. 5
erhält 5
erkunden 5
errichtet 5
erste 5
ersten 5
es, 5
ethnischer 5
etwa 5
fan@@ 5
fe 5
fertig 5
ff 5
ffe@@ 5
ffel 5
figh@@ 5
film 5
filmt 5
fir@@ 5
fisher@@ 5
frischem 5
frischen 5
frisches 5
g-@@ 5
gebauten 5
geben. 5
gebunden 5
gebunden. 5
gebärdete 5
geduldig 5
gefrorenen 5
gen@@ 5
gent 5
geo@@ 5
geparkt. 5
geschlagen. 5
geschmückten 5
gespannt 5
gespielt. 5
gewebten 5
gezogen, 5
gh 5
ghtly 5
gibt. 5
gin@@ 5
gleiche 5
gn 5
grauhaarige 5
grauhaariger 5
grillen 5
grima@@ 5
grossen 5
haben, 5
ham@@ 5
handelt 5
hat@@ 5
hatte 5
hawaiianischen 5
headset 5
heben. 5
hebt. 5
hemdlos 5
heraus, 5
hero 5
high@@ 5
hin@@ 5
hinauf, 5
hinten. 5
hinunterlaufen. 5
hohen, 5
hou@@ 5
husky 5
hübschen 5
hüllt 5
ian 5
ie@@ 5
iel@@ 5
immer 5
in-@@ 5
ini@@ 5
inspectiert 5
intere@@ 5
ipod 5
ired 5
iro@@ 5
island 5
iz@@ 5
jack 5
jagen. 5
japan 5
japanische 5
jewel@@ 5
junges, 5
jüngeres 5
kargen 5
kaucasische 5
keine 5
kel 5
ket@@ 5
key@@ 5
ki 5
kies 5
kimonos 5
klatscht 5
kleiner, 5
kleines, 5
knickt 5
kniehohen 5
kniet. 5
knirscht 5
konzentriert. 5
kopfüber 5
kratzt 5
kreisförmigen 5
kurzen, 5
la 5
lachende 5
lassen. 5
lasso 5
last 5
laufende 5
lean@@ 5
lei@@ 5
leistet 5
leset 5
leuchtet 5
liegenden 5
liest, 5
ligh@@ 5
lum@@ 5
lustigen 5
lässt 5
make@@ 5
malen. 5
malerischen 5
mannequin 5
mas 5
mask@@ 5
mates 5
mcdonalds 5
mehrerer 5
middle-@@ 5
mini-@@ 5
minivan 5
mirro@@ 5
mischen. 5
mly 5
mobilen 5
muskulöser 5
nackter 5
nacktes 5
nah 5
nass 5
nebeligen 5
näht 5
o-@@ 5
obama 5
odle 5
ope 5
operation 5
oppon@@ 5
ore@@ 5
ored 5
parken 5
passieren 5
ped@@ 5
pedal 5
pedestri@@ 5
pel@@ 5
pers@@ 5
pflanzen. 5
port 5
press@@ 5
prie@@ 5
probiert 5
professionellen 5
protestiert 5
pul@@ 5
punk 5
put@@ 5
rail@@ 5
rain@@ 5
rasierten 5
rauchen 5
re 5
rechte 5
red@@ 5
regnet. 5
reinigt. 5
robo@@ 5
ros@@ 5
rosafarbenem 5
rosafarbenes 5
rothaariger 5
rut@@ 5
s. 5
sagt 5
sai@@ 5
sammelt. 5
san 5
san@@ 5
sat@@ 5
saxoph@@ 5
schickt 5
schlafen. 5
schlafenden 5
schlanken 5
schlanker 5
schleppen 5
schluckt 5
schmaler 5
schmucken 5
schneebedecktem 5
schneebedeckter 5
schneebedecktes 5
schnürt 5
schreien 5
schwarz-braunen 5
schwarzen, 5
schwere 5
schön 5
schönes 5
schützt 5
scoo@@ 5
sculp@@ 5
sei 5
selbst. 5
servi@@ 5
shado@@ 5
silbernes 5
sky-@@ 5
smit@@ 5
snap 5
snowboar@@ 5
soa@@ 5
sortieren 5
span@@ 5
spee@@ 5
sper@@ 5
spider@@ 5
spitzen 5
spitzt 5
spongebo@@ 5
springenden 5
spärlich 5
sse@@ 5
st. 5
startet 5
steckt. 5
steil 5
stock 5
stock@@ 5
store@@ 5
stret@@ 5
stro 5
surfen 5
surroun@@ 5
sweatshirts 5
swim@@ 5
symbol 5
tage 5
tambour@@ 5
tar@@ 5
teilnehmen, 5
teilnimmt. 5
temp@@ 5
tend 5
text 5
thor@@ 5
thro@@ 5
tragbaren 5
tragende 5
tran@@ 5
transportiert. 5
ty@@ 5
umarmt. 5
under@@ 5
unteren 5
unterhält 5
unterschiedlicher 5
ups 5
uring 5
ush 5
uth 5
va 5
var@@ 5
verbunden 5
verdeckt. 5
versammelte 5
verwendet. 5
vieler 5
vio@@ 5
vision 5
vorbereitet, 5
vorn. 5
völlig 5
wake@@ 5
wakeboard 5
wards 5
watermel@@ 5
weichen 5
weist 5
weitere 5
weiterer 5
welcome 5
wenige 5
werden, 5
will. 5
wood@@ 5
wählt 5
ysi@@ 5
za@@ 5
ze@@ 5
zen 5
zer 5
zubereiten. 5
zusieht, 5
zuzubereiten. 5
zweite 5
öffnen 5
überfüllter 5
übergroßen 5
überreicht 5
überwacht 5
% 4
20@@ 4
ATV. 4
Affen 4
Afrikaner 4
Aktionsbild 4
Alters, 4
Ambiente. 4
Ampel. 4
Angelstock 4
Anweisungen 4
Anzugjacke 4
Arbeitsplatz 4
Arten 4
Artist 4
Asien. 4
Asphalt. 4
Athletin 4
Auditorium. 4
Auge 4
Augen, 4
Auszeichnung 4
Autobahn 4
Axt. 4
BMX-Bike 4
Badewanne 4
Bahnstrecke. 4
Balken. 4
Ballmütze 4
Ballons. 4
Bananen. 4
Bandmitgliedern 4
Banjo 4
Banjo. 4
Baseballmützen 4
Bass 4
Bauarbeiten 4
Bauernhof. 4
Baums 4
Baumwollsüßigkeiten. 4
Begleiterin 4
Bergweg 4
Besucher 4
Bikers 4
Blatt. 4
Bleistift 4
Blondhaar 4
Blumen, 4
Blumenfeld 4
Blöcken. 4
Bodysuit 4
Bohrmaschine. 4
Booten 4
Bootes, 4
Box, 4
Brautkleid 4
Bretter 4
Brettspiel. 4
Broschüre 4
Brunnen, 4
Buffet 4
Business-Kleidung 4
Bänken. 4
Büchern 4
Bürgersteig. 4
Cello 4
Cheerleaderin 4
Coca 4
Collie 4
Computerbildschirm. 4
Couchtisch 4
Court 4
Cowboy, 4
Cowboy-Kleidung 4
Creme 4
Cricketspieler 4
Daumen. 4
Day 4
Demonstranten 4
Diner. 4
Dirigent 4
Dirt 4
Dirtbike. 4
Docks 4
Dot 4
Dritten 4
Dschungel. 4
Dudelsack. 4
Dusche 4
Eimer, 4
Eislaufbahn. 4
Elektrogitarre, 4
Erdreich 4
Escaliere 4
Escaliere. 4
Esstisch 4
Etwa 4
Fahrzeugs 4
Fair 4
Familie. 4
Fan 4
Faust 4
Feier. 4
Fell 4
Felsenklettern 4
Felsenklettern. 4
Felsklippe. 4
Fenster, 4
Fensterwäscher 4
Fernsehen 4
Festival 4
Feuerwehr 4
Feuerwehrleuten 4
Fingern. 4
Fleck 4
Fliesen. 4
Fliesenboden. 4
Flip 4
Flipflops 4
Floßen 4
Fläche 4
Flöte, 4
Flügel 4
Forscher 4
Fotografen. 4
Fotos, 4
Fotos. 4
Fotoshooting 4
Freunde. 4
Fußballspiels 4
Fußballspiels. 4
Fußballtrainer 4
Fußgängerweges 4
Fußgängerzone 4
Geburtstag 4
Gebäck 4
Gelbe 4
Gerät, 4
Geräte 4
Geschwindigkeit 4
Geschäft. 4
Gesellschaft 4
Gesichter, 4
Gesichtern. 4
Gesichtsmaske 4
Gespräch, 4
Geste 4
Getreide 4
Gewand, 4
Gewehr. 4
Glasfenster 4
Gleichgewicht 4
Golden 4
Golfplatz 4
Grasbereich. 4
Grasberg. 4
Grashügel. 4
Grill, 4
Große 4
Grünes 4
Gäste 4
Haken 4
Hallenbad. 4
Hamburger 4
Handtuch. 4
Harfe. 4
Haus, 4
Heißluftballons 4
Helmen. 4
Hemdlos 4
Hemdlosmann 4
Herz 4
Herzen. 4
Hirtenhund 4
Hochstuhl 4
Hochstuhl. 4
Hochzeitstorte. 4
Hof, 4
Holz, 4
Holzbank. 4
Holzboden. 4
Holzkonstruktion. 4
Holztisch 4
Hoop. 4
Hopscotch. 4
Horn 4
Hotel. 4
Hunde. 4
Hunden, 4
Hundes, 4
Hüfte. 4
Hügeln 4
Hügels. 4
Hüt 4
Hüten. 4
Indianer 4
Informationen 4
Innenseite 4
Jeanshorts 4
Jetski 4
Jumpsuits 4
Kakis 4
Kamin. 4
Kampf. 4
Kampfes. 4
Kanu, 4
Kapuzenjacke 4
Karren, 4
Karte. 4
Karton 4
Kartonbox 4
Katze. 4
Katzen 4
Kauf 4
Kaufhaus 4
Kegel 4
Kerzen. 4
Kettengitterzaun 4
Kettensäge. 4
Kimonos 4
Kinderwagen, 4
Knie 4
Knie. 4
Kniesocken 4
Knochen 4
Konferenz 4
Konus. 4
Konvenienzladen 4
Kopfbedeckung, 4
Kopfbedeckungen 4
Kopfhörern. 4
Kopfsteinpflasterstraße 4
Kopftüchern 4
Korbs 4
Kreide. 4
Kugeln 4
Kunden, 4
Kunst, 4
Kunstgalerie. 4
Kunstwerk. 4
Kurve, 4
Kutsche 4
Köpfen 4
Kühlschrank 4
Künstlerin 4
Küste, 4
Ladung 4
Lagerfeuer 4
Landung 4
Laub 4
Lauf 4
Leder 4
Lederjacke, 4
Legos 4
Leine, 4
Lied. 4
Lieferwagen 4
Luftaufnahme 4
Läuferin 4
Maschine, 4
Maschinen 4
Maske. 4
Maultier 4
Messe 4
Metallzaun. 4
Mikrofone 4
Mikrofone. 4
Mikrofonen. 4
Militär 4
Mitspieler 4
Motocross-Fahrer 4
Motorradfahrer, 4
Mound 4
Musikern, 4
Mutter. 4
Mädchens, 4
Müllkippe. 4
Müllsack 4
Nagel 4
Nase, 4
Natur. 4
Nr. 4
Nur 4
Nähe, 4
Obdachloser 4
Ohr 4
Ohrhörer 4
Ohrhörern 4
Oklahoma 4
Orangen. 4
Orangensaft 4
Palmen. 4
Parasailing 4
Patio. 4
Pelzhund 4
Performer 4
Pfannen 4
Pfeife 4
Pfeife. 4
Pferden, 4
Pferderennen 4
Pflanze. 4
Pflanzen, 4
Pfoten 4
Picknicktisch. 4
Piers 4
Pinata 4
Pinsel 4
Pinsel. 4
Plate. 4
Platte, 4
Polizeibeamte 4
Polizeiwagen 4
Polizeiwagen. 4
Polizisten, 4
Popcorn 4
Probe 4
Produkt 4
Produkten 4
Puppen 4
Quad 4
Rallyewagen 4
Rasenplatz. 4
Rauch. 4
Redner 4
Regenschirmen, 4
Regenschirmen. 4
Reifen. 4
Reinigung 4
Reis 4
Rettungsschwimmer 4
Richter 4
Riemen 4
Rollerblad 4
Rollern 4
Rutsche, 4
Rücken, 4
Rückkehr 4
Rückseite. 4
Salon 4
Sandalen. 4
Schaf 4
Schafhund 4
Schalen. 4
Schalter. 4
Schaufenster. 4
Scheinwerfer 4
Schere 4
Schießen 4
Schiffes 4
Schlafzimmer 4
Schlammstraße 4
Schlange. 4
Schmuck. 4
Schmuckladen. 4
Schnauze 4
Schneidebrett 4
Schnurrbart 4
Schreiben 4
Schrott 4
Schuhe, 4
Schule 4
Schulter, 4
Schultertasche 4
Schutt 4
Schutzkleidung 4
Schutzwesten 4
Schwert. 4
Schwimmern 4
Schwimmwesten. 4
Segelboot. 4
Sehr 4
Seife 4
Seilspielzeug 4
Senioren 4
Show. 4
Skimütze 4
Snowboarden 4
Snowboarden. 4
Sohn, 4
Sohn. 4
Sommertag. 4
Sonnenhauben 4
Sonnenuntergangs. 4
Spaß. 4
Speedo 4
Spiele 4
Spielzeugen 4
Springen 4
Sprinkler. 4
Sprung, 4
Square 4
Stachel. 4
Stadtbild 4
Stadtgebiet 4
Stadtgebäude. 4
Stadtplatz 4
Stadtsteig 4
Stadtsteig. 4
Stall 4
Stand. 4
Stapeln 4
Starbucks 4
Stativ 4
Stativ. 4
Steigung 4
Steinbank. 4
Stelzen 4
Stier, 4
Stier. 4
Stoff, 4
Streichinstrument. 4
Streifenhemd 4
Strickmütze, 4
Stroh. 4
Stöck, 4
Stöcke, 4
Stücke. 4
Suche 4
Surfboard 4
Szene. 4
Säcken 4
Säule 4
T-Shirt. 4
Tages. 4
Tal 4
Talent 4
Tanz. 4
Tarnung 4
Tasse, 4
Tastatur 4
Tastatur. 4
Tauchbrett. 4
Taxis 4
Teamkollege 4
Teams, 4
Tee. 4
Teig. 4
Teller, 4
Tennisschuhen 4
Tier, 4
Tieren. 4
Tische 4
Tischen, 4
Tisches 4
Tischtuch 4
Top. 4
Tor, 4
Tourist 4
Treppenhaus. 4
Trick, 4
Trikot, 4
Turm 4
Tänzern 4
Tätowierer 4
Vans. 4
Verwendung 4
Vieh 4
Volleyball, 4
Volleyballspiel 4
Vortragssaal 4
Waldes 4
Wange. 4
Waren, 4
Waschmaschine. 4
Wassermelone 4
Wasserrutsche 4
Wasserstraße 4
Wasserstraße. 4
Weg, 4
Wein. 4
Welpe 4
Werkzeug. 4
Werkzeugen. 4
Werkzeugriemen 4
Wettbewerb 4
Wettkampfes 4
Wiese. 4
Wind 4
Wäscherei 4
Xylophon. 4
Yamaha 4
Zahnbürste 4
Zahnbürste. 4
Zeigefinger 4
Zelt, 4
Zelts. 4
Zementmauer. 4
Ziellinie 4
Ziellinie. 4
Zigaretten 4
Zimmer. 4
Zitronen 4
Zombie 4
Zugs. 4
Zweigen 4
Züges. 4
admi@@ 4
afroamerikanisches 4
aga@@ 4
akrobatische 4
aktiv 4
all@@ 4
alleine. 4
alten, 4
alter, 4
altmodischen 4
andere. 4
aneinander. 4
ap@@ 4
arme 4
astro@@ 4
ater 4
aters 4
aufgeblasenen 4
aufrecht 4
aufweist. 4
aufwändigen 4
aufwärts 4
ausgestellt 4
ausgestellt. 4
ausgestreckt. 4
ausgestreckter 4
aussehen. 4
aussehenden 4
außer 4
aß 4
balanciert. 4
balcon@@ 4
balden 4
ballerin@@ 4
bbing 4
beenden. 4
beginnen. 4
beginnt, 4
begraben 4
beißen 4
bekommen, 4
beladenen 4
besteht. 4
besuchen 4
besuchen. 4
beteiligt 4
betrachten 4
betreten. 4
bettelt 4
bewahren. 4
bewundern 4
biegen 4
bilden 4
bl@@ 4
blan@@ 4
blasen. 4
blau-weißen 4
blaues, 4
blocken. 4
blockiert 4
blond-Haar, 4
blond-Haar. 4
blond-Mädchen 4
blond-männliches 4
boston 4
boul@@ 4
braunem, 4
brennendes 4
brow@@ 4
bru@@ 4
bräunliche 4
bräunlichem 4
bräunliches 4
bunge@@ 4
burgunden 4
bügelt 4
cau@@ 4
cause 4
cell@@ 4
chin@@ 4
chop@@ 4
circ@@ 4
ckens 4
clean@@ 4
coca-@@ 4
comp@@ 4
compe@@ 4
contro@@ 4
cou@@ 4
custo@@ 4
damit 4
daneben 4
daugh@@ 4
dekorierten 4
deren 4
dings 4
dio 4
dition@@ 4
dramatisch 4
drop 4
dunk 4
dunkelbrauner 4
dunkelgrünen 4
dunkles 4
durch, 4
durchführen. 4
durchstöbern 4
ed@@ 4
eigenen 4
einsamen 4
einzigartigen 4
electro@@ 4
en-@@ 4
eng@@ 4
enjo@@ 4
entfernen. 4
entfernt 4
entgegengesetzte 4
enthält 4
entlanggeht. 4
entlanglaufen, 4
entpackt 4
entzündet 4
equip@@ 4
erforscht 4
erhalten. 4
erheben 4
erial 4
erleuchtete 4
erreicht 4
ers@@ 4
erwachsenen 4
eting 4
ette 4
experi@@ 4
extrem 4
fal@@ 4
fallenen 4
farbiger 4
festlichen 4
feuert 4
ffentlichkeit. 4
fic 4
fiel 4
fig@@ 4
fließenden 4
flüsternden 4
flüstert 4
freiem 4
freien 4
fru@@ 4
ft@@ 4
fur@@ 4
führt. 4
füttern. 4
gan 4
gan@@ 4
ganzen 4
garden@@ 4
gebrochenen 4
gebärtigen 4
gefahren 4
gefolgt 4
gefrorene 4
gefüllter 4
gehoben. 4
gehängt 4
geish@@ 4
gekocht 4
gelangen. 4
gelegen, 4
gelegt 4
gemeinsam, 4
gent@@ 4
geparkt 4
geraden 4
gereinigt. 4
gerne. 4
geschickt 4
geschmückt 4
geschnittenen 4
gesellschaftlichen 4
gespielt 4
gespritzt 4
gesprungen 4
gestoppt. 4
gestrichenem 4
getragen. 4
gewickelt. 4
gewölbten 4
gie 4
gle@@ 4
gold-@@ 4
goldene 4
grasigen, 4
greift. 4
grillen. 4
groß 4
großem 4
großes, 4
guit@@ 4
gymna@@ 4
half@@ 4
hart, 4
hawk 4
helfen, 4
helfen. 4
hellbraunen 4
helle 4
hemdlosen 4
hemdloser, 4
hin, 4
hinab. 4
hinauf 4
hinterher 4
historischen 4
hn@@ 4
hochhält, 4
hol 4
hula-ho@@ 4
hängt, 4
identischen 4
ihnen, 4
ihr, 4
inc@@ 4
inder 4
iner 4
inline 4
installieren 4
interessanten 4
interviewt 4
interviewt. 4
ird 4
jemandem. 4
jemanden, 4
jemanden. 4
jogg@@ 4
jogt. 4
jongliert. 4
ka 4
kaputten 4
kauft. 4
ken 4
kin 4
kitchena@@ 4
kitt@@ 4
kl@@ 4
klassischen 4
kleine, 4
knöchelndem 4
kommerziellen 4
kränkt 4
kurvenförmigem 4
kurvenhaariger 4
kurze 4
kurzhaariger 4
können 4
kümmern 4
künstlerischen 4
lagen 4
lama 4
langsam 4
lap@@ 4
las 4
lass@@ 4
lautet 4
lear@@ 4
lenkt 4
ler@@ 4
lernt 4
leuchtendes 4
liegend. 4
long-@@ 4
mal@@ 4
mascara 4
mea@@ 4
mechanischen 4
medizinische 4
medizinischen 4
medizinischer 4
mega@@ 4
meistens 4
menschliche 4
mick@@ 4
mindestens 4
mini@@ 4
mittelöstliche 4
mo 4
mobil@@ 4
mod@@ 4
moo@@ 4
mop@@ 4
mor@@ 4
mou@@ 4
mounta@@ 4
mpe@@ 4
muss. 4
muzz@@ 4
nach. 4
nation@@ 4
natuerlichen 4
ness 4
nettes 4
new@@ 4
nieder, 4
nin@@ 4
nor@@ 4
noti@@ 4
näher 4
nähet 4
obdachloser 4
oberen 4
of@@ 4
oklaho@@ 4
op 4
org@@ 4
organisiert 4
ot 4
pain@@ 4
park@@ 4
parti@@ 4
participat@@ 4
passende 4
pati@@ 4
patrio@@ 4
peop@@ 4
peri@@ 4
pflanzt 4
phones 4
piercing 4
pira@@ 4
plat@@ 4
poin@@ 4
politischen 4
posiert. 4
power@@ 4
prepar@@ 4
propan@@ 4
protestiert. 4
prun@@ 4
präsentiert 4
pt@@ 4
pun@@ 4
puzzle 4
q 4
raucht, 4
read@@ 4
reibt 4
rest@@ 4
rollerbla@@ 4
rowen 4
ruhig 4
rund 4
rzte 4
räumen 4
sau@@ 4
schiefen 4
schlafendes 4
schlammiger 4
schleichen 4
schlief 4
schmeißt 4
schnell. 4
school@@ 4
schwangere 4
schwimmt, 4
sculpt@@ 4
self 4
seni@@ 4
sent@@ 4
separ@@ 4
servieren. 4
short-@@ 4
sicher 4
sichtbar, 4
sichtbar. 4
simi@@ 4
siting 4
ske@@ 4
skel@@ 4
skifahren 4
sky@@ 4
smi@@ 4
sni@@ 4
snowboardt 4
solo 4
som@@ 4
sombrer@@ 4
sou@@ 4
spanische 4
spea@@ 4
spritzen. 4
spuckt 4
ssen@@ 4
ssy 4
stair@@ 4
standen 4
starbucks 4
statt, 4
stattfindet. 4
statu@@ 4
stea@@ 4
steaks 4
stecken 4
stehend. 4
stellen. 4
sticht 4
str@@ 4
streichen 4
streiten 4
strummt 4
stum@@ 4
stöbern 4
sucht. 4
suv 4
swi@@ 4
sägen 4
säubert 4
taining 4
tanzen, 4
taxis 4
tea@@ 4
tech@@ 4
tell@@ 4
teri@@ 4
teria 4
testet 4
tiefem 4
traditionellem 4
train@@ 4
transpor@@ 4
tritt. 4
trocknen. 4
tröstet 4
tt@@ 4
tun 4
tures 4
twi@@ 4
twister 4
typi@@ 4
tz@@ 4
täglichen 4
täuscht 4
ukulele 4
umarmen. 4
umgeben, 4
umher, 4
una 4
unbekannten 4
unglücklich 4
unicef 4
unsere 4
unt 4
unterhalb. 4
unterschreibt 4
utensi@@ 4
vergnügen. 4
verheiratete 4
verkehrsreichen 4
verkleidet. 4
verlassen. 4
verlassene 4
verletzt 4
verstecken 4
veter@@ 4
vierköpfige 4
violett, 4
volkswagen 4
vollgestopften 4
vorbeifahrenden 4
vorbeigeht. 4
vorbeiläuft, 4
vorbereiten 4
vorne 4
vorne. 4
vorwärts, 4
vy 4
wan@@ 4
washington 4
wechselt 4
weht 4
weint 4
weint, 4
wiegt 4
wilden 4
wirken 4
wärmen 4
wässert 4
wütenden 4
yama@@ 4
zeichnet. 4
zerhackt 4
zerklüfteten 4
zo@@ 4
zuhören. 4
zukommt. 4
zusieht 4
zweiten 4
Übung 4
öffnet. 4
über. 4
überall 4
überwacht. 4
überwiegend 4
übt. 4
üppigen 4
"Ich 3
"The 3
-skinned 3
14 3
: 3
Abhang. 3
Alkohol. 3
Alle 3
Allee 3
Angelstöcken 3
Anlegeplatz. 3
Anvil. 3
Applikation. 3
Arbeiterin 3
Arena. 3
Armband 3
Arme. 3
Artikel. 3
Asiatisches 3
Asienische 3
Atem 3
Athlet, 3
Athleten, 3
Aufkleber 3
Aufnahmestudio. 3
Auftrag 3
Auftritte 3
Aufzug. 3
Auge. 3
Aussicht. 3
Ausstellung. 3
Autohaube. 3
Autositz 3
Autositz. 3
Außenmarkt 3
Außenplatz. 3
Außenpool. 3
Baby-Baby-Stroller 3
Babys. 3
Bachs. 3
Backhoef 3
Bad. 3
Badeanzügen, 3
Badebekleidung 3
Bademantel 3
Bademantel, 3
Bademütze 3
Badewanne, 3
Badewanne. 3
Badezimmer. 3
Bahnsteig. 3
Balkonen 3
Ballerinen 3
Bambus. 3
Bandanas 3
Bandkollegen, 3
Banner, 3
Barfußkind 3
Barrels. 3
Barrieren 3
Bart. 3
Baseball, 3
Baseballhandschuhe 3
Baseballmütze, 3
Basketballspiel. 3
Basketballspieler, 3
Basketballspielerin 3
Bassgitarre 3
Bassgitarre. 3
Bauarbeiter, 3
Bauhauben 3
Baumbestand 3
Baumes 3
Baumstämmen. 3
Baumzweig. 3
Baumzweige. 3
Bauprojekt 3
Beachvolleyball. 3
Beamte 3
Beamter 3
Bedingungen. 3
Begleiter 3
Behälter. 3
Beinen. 3
Bekleidungsladen 3
Bekleidungsladen. 3
Bereich, 3
Bergseite. 3
Betonbank. 3
Betonstufen 3
Betonstufen. 3
Betonwand 3
Bettlaken. 3
Bewegung. 3
Bewegungen 3
Bierflasche 3
Bike-Trick 3
Bikini. 3
Bikinitop 3
Bikinitops 3
Bilder, 3
Bildhauer 3
Blase. 3
Blasinstrument 3
Blaskapelle 3
Blick. 3
Block 3
Blondinnen 3
Blue 3
Blumenmädchen 3
Bluse, 3
Bluse. 3
Blutdruck 3
Blätter, 3
Blüte 3
Bmx-Fahrer 3
Boardwalk. 3
Bogentuch 3
Boote. 3
Booten. 3
Bottoms 3
Bowler 3
Bowtie 3
Brand 3
Braut, 3
Braut. 3
Brautgesellen 3
Briefkasten 3
British 3
Broom. 3
Broschüren 3
Busfahrer 3
Business-Anzug 3
Busses. 3
Bäckerei 3
Bären 3
Bäumen, 3
Bücherregal 3
Bürger 3
Bürogebäude. 3
Büsche 3
Büschen 3
Cabrio 3
Cafes 3
Camouflage 3
Camper 3
Canyon. 3
Casual 3
Catch 3
Cello. 3
Cheerleaderinnen 3
Chef 3
China. 3
Chinese 3
Chirurgen 3
City 3
Claus 3
Clown, 3
Clown. 3
Coach 3
Cockpit 3
College 3
Computern. 3
Coney 3
Cowboy-Mütze. 3
Cowgirl 3
Crew 3
Cross-Spieler 3
Crowd 3
Dachs. 3
Dachziegel 3
Damen, 3
Darsteller 3
Darstellerin 3
Darstellern 3
Decke, 3
Deckel 3
Deere 3
Derby. 3
Design 3
Designs. 3
Dessous 3
Deutsche 3
Digitalkamera 3
Digitalkamera. 3
Display 3
Docks. 3
Dorf. 3
Dorfbewohner 3
Dots 3
Drag 3
Draht 3
Drahtzaun 3
Dritter 3
Drähte 3
Dunkelheit 3
Dunkelheit. 3
Dunkeln. 3
Dutzend 3
Dutzende 3
Einen 3
Eingang. 3
Einkaufen 3
Einkaufsbeutel 3
Einkäufer 3
Eisbahn 3
Eiscreme. 3
Eisenbahnstrecke. 3
Eishockeyspieler 3
Eisläufer 3
Elektriker 3
Elektronik. 3
Enden 3
Endzone. 3
Enkelin 3
Erde, 3
Ethnische 3
Euro 3
Explosion 3
Fabrik 3
Fackeln. 3
Fahren 3
Fahrzeugs. 3
Fallschirm. 3
Fallschirme 3
Familien 3
Fass. 3
Feder 3
Feldern 3
Feldes 3
Felsformation 3
Felsformationen. 3
Felsklippe 3
Fensters. 3
Fernseher. 3
Fest 3
Feuer, 3
Feuerhydrant. 3
Feuerlöschfahrzeuge 3
Feuerwehrwagen 3
Figuren 3
Fischerboot 3
Fitnessstudio 3
Flannelhemd 3
Flasche, 3
Fliesen 3
Flugblätter 3
Fläche. 3
Football 3
Form. 3
Formalkleidung 3
Fotografen, 3
Fotografieren 3
Freund, 3
Freund. 3
Freunden, 3
Freundin 3
Friseur. 3
Front 3
Früchten. 3
Fußballfeld, 3
Fußboden. 3
Fußgängern. 3
Fußgängerweg. 3
Fässern 3
Führung 3
Galerie 3
Gange. 3
Garagentür. 3
Gasse, 3
Gast 3
Gegenstände. 3
Gegenständen. 3
Geld, 3
Geländern 3
Geländern. 3
Gemälde, 3
Gentleman, 3
Gepäck. 3
Geschenk, 3
Geschäftes 3
Gesichtern, 3
Gesichts 3
Gesichtsbemalung 3
Gesichtshaar 3
Gespräche. 3
Gestrüpp 3
Getreide. 3
Gewehren 3
Gewicht 3
Gewässer. 3
Gitarrist, 3
Glasgebäude. 3
Glastür 3
Gläser 3
Go-Kart-Bahn 3
Gold. 3
Golf. 3
Graben 3
Graffiti, 3
Graffiti-Wand 3
Grasbereich 3
Grasesfeldes 3
Grasesfeldes. 3
Grasweg 3
Gruppenfoto. 3
Gummihandschuhen 3
Gürtel, 3
Haaren. 3
Haarnetz 3
Haarschnitt 3
Halbkreis 3
Halle 3
Hals, 3
Halsband, 3
Halskette, 3
Haltertop 3
Handschuh. 3
Handstand. 3
Handtasche 3
Handtüchern 3
Handvoll 3
Handwerk. 3
Handys 3
Harnel 3
Haube 3
Haufen. 3
Hause. 3
Hecke 3
Helme. 3
Helmen, 3
Henna-Tattoo 3
Herkunft 3
Herzschlag 3
Hijab 3
Hinterkopf 3
Hochzeitsfeier 3
Hochzeitskleid. 3
Hochzeitskleidung 3
Hochzeitstorte 3
Hockey, 3
Hockey-Gouverneur 3
Hockeyspielern 3
Hollister 3
Holzboden 3
Holzbrücke 3
Holzbrücke. 3
Holzfußboden 3
Holzpfosten 3
Holzplattform. 3
Holzstuhl 3
Holztisch. 3
Holzzaun 3
Hoodie, 3
Hoops 3
Horizont. 3
Hotdog 3
Hotels 3
Hula-Hoops. 3
Hängematte 3
Hängematte. 3
Häuser 3
Höhle. 3
Hörnern 3
Hügel, 3
Hüte. 3
Imbiss 3
Indien 3
Indien. 3
Inline-Skaten 3
Innenmarkt. 3
Innenstadt. 3
Instrumente, 3
Jack 3
Japan. 3
Kaffeetasse. 3
Kajak. 3
Kamel 3
Kamelen 3
Kameln 3
Kameramannschaft 3
Kameras. 3
Kampfkunst. 3
Kampfkünste. 3
Kampfkünstler 3
Kaninchen. 3
Kanonen 3
Kanonenball 3
Kardigan 3
Karikatur 3
Kartenspiel 3
Kartoffeln 3
Kartons 3
Karussell. 3
Kathedrale. 3
Kaugummi 3
Kayak 3
Kegeln. 3
Kettengitterzaun. 3
Keyboards. 3
Khakis 3
Kid 3
Kies 3
Kilts 3
Kindes, 3
Kiosk 3
Kissen, 3
Klasse, 3
Klassenzimmers. 3
Kleider. 3
Kleiderbügel 3
Knien. 3
Kochen 3
Koffer. 3
Konserven 3
Konzerts 3
Kopfhörer. 3
Kopfschals 3
Kopftuch. 3
Korb, 3
Kostüme 3
Kostüme, 3
Kostümen. 3
Kran. 3
Krankenhaus 3
Krankenhaus, 3
Krankenhaus. 3
Krankenhausbett. 3
Krebs 3
Kreidestift 3
Kreuzfahrtschiff 3
Kronen 3
Kuchen, 3
Kugel, 3
Kulisse 3
Kunde 3
Kunstgalerie 3
Kunststoffrutsche. 3
Kunstwerke 3
Kurs 3
Käse 3
Kästen 3
Körper. 3
Kühe 3
LKWs, 3
Labor, 3
Labrador 3
Lachen 3
Ladenfenster. 3
Lagerfeuer. 3
Lagerhaus 3
Lama. 3
Lampe. 3
Landes. 3
Landschaft, 3
Langläufer 3
Laptop, 3
Last 3
Lastwagen 3
Lauf. 3
Laufband. 3
Laufkleidung 3
Leben 3
Lebensmittel, 3
Lebensmittel- 3
Lebensmittelladen. 3
Lebensmittelmarkt. 3
Lebensmittelwagen. 3
Ledermantel 3
Leichtathletik-Event. 3
Leotards 3
Leuchte 3
Leuchtturm 3
Linie. 3
Loch, 3
Log. 3
Logo 3
Logo-Shirt 3
Long-Sleeve-Hemd, 3
Lupe. 3
Läufern 3
Läufern, 3
Löcher 3
Magen. 3
Mais, 3
Mais. 3
Make-up, 3
Mannequin 3
Marke 3
Marker 3
Markierungen 3
Mascara 3
Masche 3
Masken 3
Matratze, 3
Matte. 3
McDonald's 3
McDonald's. 3
Medaillen 3
Meeresfrüchte 3
Meinung 3
Menü. 3
Menüs 3
Messe, 3
Metallbalken. 3
Metallbox 3
Metallkonstruktion 3
Metallobjekt. 3
Metallstange. 3
Mets 3
Mickey 3
Minivan 3
Mit 3
Mitte, 3
Mittelpunkt 3
Mobiltelefon 3
Monopol. 3
Mop 3
Motorboot 3
Motorradrennen 3
Motorradrennfahrer 3
Motorrädern. 3
Mouse 3
Musikinstrumenten, 3
Musikständer 3
Musikständer. 3
Männliche 3
Mäntel, 3
Möbel 3
Mönche 3
Müll. 3
Müllbeutel. 3
Mülleimer 3
Mülltank 3
Mülltank. 3
Mülltüten 3
Mützen 3
Nachbarschaftsstraße 3
Nachmittag 3
Nachmittag. 3
Nachtclub 3
Nahrungsmittel 3
Nahverkehr. 3
Namensschild 3
Namensschild. 3
Nassanzügen 3
Netzen 3
Neun 3
Nintendo 3
Nonnen 3
Notizbuch. 3
Ober- 3
Obere 3
Oberhemden 3
Objekte 3
Obst, 3
Obstständer. 3
Oldtimer 3
Operationssaal. 3
Orange, 3
Orange. 3
Orangene 3
Oranger 3
Outdoor-Event 3
Overalls, 3
Overcoat 3
Paddler 3
Palmenbaum 3
Papierteller 3
Parade, 3
Parkbank, 3
Parkplatz, 3
Parkweg. 3
Partner. 3
Pass 3
Patio 3
Patrick's 3
Pause, 3
Pelzmantel 3
Personen. 3
Pfeifen 3
Pferde, 3
Pferdereiter 3
Pferdes 3
Pfosten. 3
Pier, 3
Pinata. 3
Pins 3
Pins. 3
Plaid-Hemd 3
Plaidjacke 3
Plaidmantel 3
Plaidrock 3
Plaidshorts 3
Plastiksäcke 3
Plastiktüte. 3
Polospieler 3
Poncho 3
Posaune. 3
Posen. 3
Position. 3
Produkte. 3
Projektorbildschirm. 3
Protestschild 3
Pub. 3
Puck, 3
Puck. 3
Punkt 3
Puppe. 3
Push-Ups 3
Puten 3
Pyramide 3
Rades 3
Radfahrerin 3
Radio. 3
Rafting 3
Rahmen. 3
Rail 3
Rasenfeld 3
Rasengelände 3
Rasenmäher. 3
Raumes 3
Raumes. 3
Regal 3
Regenschuhen 3
Reifenschaukel 3
Reifenschwingen 3
Reitern 3
Rennausrüstung 3
Rennfahrzeug 3
Reparatur 3
Rettungskräfte 3
Ringträger 3
Robe. 3
Rodeo-Arena. 3
Rohr 3
Roller, 3
Rollerskatern 3
Rollerskating 3
Rollstuhl, 3
Rucksäcken, 3
Ruderboot 3
Rugbyspiel 3
Rugbyspiel, 3
Ruhe. 3
Running 3
Räderkasten 3
Rüstung 3
Salat 3
Salat. 3
Sandhügel. 3
Sandstrandes. 3
Satz 3
Saxophon, 3
Saxophonist 3
Schablone 3
Schach, 3
Schach. 3
Schaf. 3
Schafen 3
Schaufeln. 3
Schaukelspielplatz 3
Scheiben 3
Scheune 3
Schichten 3
Schildes. 3
Schildkröte 3
Schlafzimmer. 3
Schlag. 3
Schlammberg 3
Schlingen 3
Schlitteln 3
Schlittenhunde 3
Schloss 3
Schlucht. 3
Schlägerei 3
Schnauze, 3
Schneeanzügen 3
Schneeball. 3
Schneeflocken 3
Schneesturm. 3
Schnur 3
Schule, 3
Schulkindern 3
Schulmädchen 3
Schutt. 3
Schutzhelmen 3
Schwamm 3
Schwanzflossen 3
Schweißer 3
Schwertern. 3
Schwester 3
Schwierigkeiten, 3
Schwimmen 3
Schwimmmütze 3
Schädel 3
Seattle 3
Segelboote 3
Seil, 3
Seile. 3
Seite, 3
Sessellift, 3
Set 3
Sicherheitsbeamte 3
Sicherheitsbrillen 3
Sicherheitsweste 3
Sicht 3
Sitz 3
Skate 3
Skateboardpark. 3
Skiausrüstung 3
Skifahrer, 3
Skijacke 3
Snacks 3
Snacks. 3
Sneaker 3
Sneakers 3
Snow 3
Snowboard, 3
Softball. 3
Softballspiel 3
Softballspieler 3
Solo 3
Sombrero 3
Sommer 3
Sonnenhose 3
Sonnenkleid 3
Spanien 3
Speisen. 3
Spiegel, 3
Spielfeld. 3
Spielplatzausrüstung 3
Spielwagen 3
Spielzeugen. 3
Spielzeugflugzeug 3
Spieß 3
Spitze. 3
Split 3
Sport. 3
Sportfeld 3
Sportkleidung 3
Sportmantel 3
Sprungs 3
Spur 3
Spur. 3
Stachel 3
Stadtszene. 3
Stadtteil 3
Stadtzentrum. 3
Staffelrennen. 3
Statuen 3
Staubsauger 3
Steaks 3
Steg 3
Steinkonstruktion. 3
Steinweg. 3
Sternen 3
Stiefeln. 3
Stierreiter 3
Stoppsignal. 3
Strasse 3
Straßenansicht 3
Straßenecke, 3
Straßenschild. 3
Streichinstrument 3
Streichinstrumente. 3
Streifen, 3
Streifen. 3
Streifensocken 3
Stroh 3
Sträuchern 3
Studenten. 3
Studentin 3
Stunde 3
Stäbe 3
Ständen 3
Stöckchen. 3
Stück. 3
Stühle. 3
Subway 3
Sumpf. 3
Supermarkt 3
Supermarkt. 3
Surfbrett, 3
Surfen 3
Sweatanzug 3
Säule, 3
Säule. 3
Süßigkeiten. 3
Tablett 3
Tag, 3
Tages 3
Tal. 3
Tanz, 3
Tauchen 3
Taxi. 3
Team, 3
Teamkollegen 3
Teamkollegen, 3
Teamkollegen. 3
Teichs. 3
Telefonkabine. 3
Telefonstrang 3
Tempel 3
Tennis-Outfit 3
Tennisbälle 3
Tennisplatz. 3
Tennisspiel 3
Teppich, 3
Teppichfuss 3
Terrasse 3
Theater. 3
Thema 3
Themenpark 3
Tiara 3
Tiere. 3
Tintenfisch. 3
Tisches. 3
Toast. 3
Tomate 3
Top, 3
Topf. 3
Tourbus 3
Touristen, 3
Treppen, 3
Tribüne 3
Tribünen 3
Trikots, 3
Trinken. 3
Trio 3
Träger 3
Tuch, 3
Tux 3
Tuxedo 3
Tuxen 3
Tänzern, 3
Töpfe 3
U-Bahn-Tunnel 3
U-Bahn-Zug, 3
US-Armee 3
Uhr. 3
Ukulele 3
Umfeld 3
Umschwung, 3
Uniformiertes 3
Unirad. 3
Universität 3
Unruhen 3
Unterhaltung. 3
Urlaub 3
Vans 3
Vaters 3
Vaters. 3
Vegetation 3
Ventilator 3
Veranstaltung, 3
Veste. 3
Vesten, 3
Vesten. 3
Videospiele 3
Videospiele. 3
Vierrad 3
Violine 3
Vogel. 3
Volkswagen 3
Von 3
Vorbereitung 3
Vorderseite. 3
Vorhang. 3
Vögel. 3
Waffe, 3
Waffen. 3
Wakeboard 3
Waldgebiet 3
Walkie 3
Walmart. 3
Wandbild. 3
Wanderausrüstung 3
Wanderstock 3
Wandmalerei 3
Wandmalerei. 3
Warenkorb 3
Warten 3
Wartezimmer 3
Waschmaschinen 3
Wasserbeckens 3
Wasserflasche. 3
Wasserkörpers. 3
Wasserschlauch, 3
Wasserstrom. 3
Weges 3
Weibchen 3
Weihnachten. 3
Weihnachtsmann 3
Weihnachtszeit 3
Weinglasen. 3
Weiß. 3
Wellen, 3
Welpen, 3
Welt. 3
Wenn 3
Wetter. 3
Wettkampfes. 3
Whirlpool. 3
Wiese 3
Wildnis 3
Wildnis. 3
Windsurfer 3
Winterkleidung, 3
Wintermanteln 3
Wintertag 3
Wintertag. 3
Wissenschaftsexperiment 3
Wohnung. 3
Wurzeln. 3
Wäldern 3
Wänden, 3
Würstchen 3
Xylophon 3
York. 3
Zahnarzt 3
Zauns 3
Zeichnung 3
Zeitschrift, 3
Zeitungen. 3
Zement. 3
Zentrum. 3
Zeremonie. 3
Ziege. 3
Ziegel. 3
Ziegelgebäudes. 3
Ziegelweg. 3
Ziegen 3
Zoo. 3
Zugspielzeug. 3
Zusammenkunft 3
Zuschauern, 3
Zwölf 3
Zähnen 3
Zügen 3
abfallenden 3
abgefallenen 3
acro@@ 3
adul@@ 3
afroamerikanischen 3
ak@@ 3
alleine, 3
alleinerziehender 3
alles 3
amerikanischer 3
anda 3
angeboten 3
angebrachten 3
angel@@ 3
angelt 3
angenehmen 3
angeordnet 3
angeschlagen 3
angezogen 3
angezogen. 3
antiken 3
anzugreifen. 3
ara@@ 3
arabischer 3
armen 3
arring 3
asi@@ 3
att@@ 3
aufblasbares 3
aufeinander. 3
aufgehebt. 3
aufgeregt 3
aufnimmt. 3
aufzuheben. 3
auseinander 3
ausgestreckt, 3
ausgestrecktem 3
ausländische 3
aussteigen 3
b-@@ 3
ba 3
backpa@@ 3
baden. 3
balancieren 3
beauti@@ 3
bedeckte 3
beendet 3
befahrenen 3
begraben. 3
begrüßt 3
beigeen 3
beißen. 3
beißt. 3
bekannt 3
bekleideter 3
bekommt. 3
bekämpfen. 3
belebter 3
beleuchtet. 3
bemalt 3
bereitete 3
berührt, 3
beschreiben. 3
beschädigtes 3
besseren 3
besteht, 3
bet@@ 3
beten 3
beten. 3
betrachtet 3
betreiben. 3
bewegt. 3
bewölktem 3
ble@@ 3
bli@@ 3
blicken. 3
blon@@ 3
blond-Kind 3
blond-female 3
blond-gekleidete 3
bloßen 3
blumenartigen 3
blumenbedruckten 3
blättet 3
bm@@ 3
body@@ 3
boo@@ 3
bowlt 3
boxen 3
bran@@ 3
braunen, 3
brennende 3
brennt. 3
bringen. 3
britischen 3
bronco 3
brunetten 3
bucks 3
budd@@ 3
burger 3
by@@ 3
bürstet. 3
cano@@ 3
cation 3
ciali@@ 3
cobb@@ 3
comi@@ 3
convers@@ 3
costum@@ 3
cour@@ 3
cran@@ 3
crou@@ 3
cycle 3
dach@@ 3
dargestellt 3
del@@ 3
dem, 3
deutsche 3
deutschen 3
dicken 3
diese 3
disc@@ 3
diskutiert 3
don 3
door@@ 3
dor 3
dor@@ 3
dort 3
dotierten 3
drin. 3
dummes 3
dunkel 3
dunkelhaarigen 3
dünne 3
dünner 3
ef@@ 3
eifrig 3
eil 3
eilen 3
eingewickelt, 3
einheimische 3
einheimischer 3
einsames 3
einzigartige 3
einzigartiges 3
ek 3
elektronisches 3
eless 3
eli@@ 3
entdeckt 3
entfernt. 3
enthusi@@ 3
enthält. 3
entscheiden, 3
entu@@ 3
entwirft 3
erfahrener 3
erfreuen 3
erfährt 3
erhebt. 3
erhoben. 3
erhält. 3
erklärt 3
erledigen. 3
erledigt 3
erleuchtetes 3
ernten 3
erteilt 3
erzählt 3
ethni@@ 3
fabriziert 3
falschen 3
fami@@ 3
farbiges 3
fasziniert 3
fau@@ 3
fee@@ 3
fegt. 3
feierliche 3
feierlichem 3
fest 3
fetter 3
ffnung 3
fiel@@ 3
filmt. 3
finden. 3
fixieren 3
fixiert. 3
flaches 3
fleckiger 3
fleißig 3
fliegende 3
fliegenden 3
fliegt, 3
flüchten 3
flüstern 3
football@@ 3
fragt 3
fran@@ 3
französischen 3
frei 3
freundlichen 3
froh 3
frustriert 3
fröhlich 3
fter 3
fuhr 3
färben 3
füttern 3
gam@@ 3
gat@@ 3
ge-@@ 3
gebaute 3
gebogen 3
gebogenen 3
gebärdeter 3
gedruckten 3
gefahren. 3
gefallen. 3
gefaltet, 3
gefesselt 3
geflochtenem 3
geformt 3
gefräst. 3
gegensätzliche 3
gegenüberstehen. 3
gegnerisches 3
gehaltene 3
gehobenen 3
gekennzeichnet 3
gekreuzt. 3
geküsst. 3
gelassen 3
gelb-blauen 3
gelb-grünen 3
gelb-weißen 3
gelegt. 3
geneigt. 3
genießt. 3
gerät 3
gesammelt. 3
gescheckten 3
geschlossen 3
geschlossen. 3
geschnitzten 3
geschossen 3
gesetzt 3
gesponsert 3
gestapelten 3
gestellt. 3
gesunken. 3
getroffen. 3
gezeigt, 3
gezogenen 3
geöffnet 3
glatten 3
glänzt 3
glätten 3
golf@@ 3
graben 3
grenzt. 3
größer 3
guten 3
halben 3
hamburger 3
haw@@ 3
heftig 3
heimischen 3
heiraten 3
heiraten. 3
heiß 3
heißes 3
hell@@ 3
hellblau 3
hellbraunem 3
heller 3
helles 3
her. 3
heraussteckt. 3
herstellt. 3
hielt 3
hilft, 3
hilft. 3
hinab 3
hinter. 3
hinterlassen 3
hochhalten. 3
hoher 3
horizon@@ 3
hula-hoop 3
hängen, 3
hängende 3
hätte 3
i-@@ 3
ilt 3
indisches 3
infan@@ 3
inner@@ 3
innerhalb. 3
intensives 3
ire 3
irgendwo 3
irritiert 3
itali@@ 3
iter 3
jam@@ 3
japanischer 3
jemandes 3
jenseits 3
jo 3
jogger 3
joggt. 3
jonglieren 3
jongliert, 3
jug@@ 3
jugg@@ 3
jum@@ 3
jun@@ 3
jüdischer 3
k-@@ 3
kalte 3
kaltem 3
kanadische 3
kaucasischer 3
keeper 3
keinem 3
keinen 3
ken@@ 3
kinds 3
klappt 3
klare 3
klatschen. 3
kleidet, 3
kleideten 3
kli@@ 3
klopfen 3
knallt 3
kni@@ 3
knien, 3
kniffelndem 3
knöchelnden 3
kommunizieren 3
komplett 3
kontrollieren. 3
kontrolliert 3
krabbelt, 3
krabbelt. 3
krachierten 3
kreiert 3
kreuzen 3
kräftig 3
kräftiger 3
kräftiges 3
kurzhaarige 3
kümmert. 3
künstlichen 3
küsset. 3
label@@ 3
labra@@ 3
lad@@ 3
lag 3
landen. 3
langem, 3
lateinamerikanischen 3
laufenden 3
lebhafte 3
leere 3
legen, 3
legen. 3
leidenschaftlich 3
leidet 3
leiten. 3
leot@@ 3
lesen, 3
letter 3
leuchten 3
leuchtende 3
leuchtet. 3
lied 3
liegen, 3
lings 3
linkes 3
links, 3
live@@ 3
long@@ 3
loun@@ 3
lustiger 3
ly@@ 3
lächerliche 3
löschen 3
löst 3
lötet 3
mannequ@@ 3
mari@@ 3
marin@@ 3
marschieren. 3
maskierter 3
mati@@ 3
mehrfarbig 3
meine 3
meiner 3
mer 3
merkwürdig 3
meter 3
metri@@ 3
mets 3
mexikanischen 3
mexikanischer 3
militärischen 3
militärischer 3
mittelalterlichen 3
mittelgroße 3
mittelgroßen 3
mittlerer 3
mock 3
moder@@ 3
modische 3
montiert 3
mp 3
musikalische 3
musikalischen 3
muslimische 3
muslimischer 3
männlicher, 3
nahegelegenen 3
nament 3
nati@@ 3
natürlichen 3
navig@@ 3
neck@@ 3
neongelben 3
ner@@ 3
neu 3
nicht, 3
niedrig 3
nimmt, 3
note@@ 3
num@@ 3
nutzt. 3
nächste 3
nähern 3
nähernden 3
näht. 3
offiziellen 3
olli@@ 3
olympischen 3
om@@ 3
onloo@@ 3
ore 3
organisieren 3
ort@@ 3
oth@@ 3
outfielder 3
overall 3
packen. 3
pal@@ 3
parkierten 3
parkte 3
passendem 3
patri@@ 3
pause 3
pfeift. 3
pflücken 3
pho@@ 3
pier@@ 3
piercings 3
platziert 3
poliert 3
pony@@ 3
portra@@ 3
potat@@ 3
praktizieren. 3
praktiziert. 3
professionell 3
professioneller 3
profi@@ 3
progra@@ 3
protestieren 3
präsentieren 3
prügelt 3
pump@@ 3
quar@@ 3
radeln 3
raket 3
raues 3
reagieren 3
recht 3
reicht 3
reife 3
reist 3
reißt 3
rennen. 3
renoviert 3
repariert. 3
restaurants 3
retten 3
retten. 3
richten 3
richtet. 3
ridor 3
riecht 3
ro 3
rockt 3
rosafarbener 3
rot. 3
rotkopfiger 3
ruhige 3
rutscht, 3
rutscht. 3
rzten 3
saft 3
saftig 3
sagt: 3
saniert 3
sanierten 3
sari 3
saubere 3
scheinen, 3
scherzen 3
schieben. 3
schießen, 3
schießt. 3
schlafend. 3
schlafet 3
schlanke 3
schlecht 3
schmiedet. 3
schmutziger 3
schmutziges 3
schnelle 3
schnellen 3
schnitzt. 3
schnürt. 3
schockiert 3
school-@@ 3
schottischen 3
schreienden 3
schreit, 3
schroffe 3
schroffen 3
schwarz-braune 3
schwarz. 3
schwarzhaariger 3
schwebt 3
schwätzen 3
schält 3
scienti@@ 3
scream@@ 3
scu@@ 3
sees 3
seilen. 3
seitlich 3
seltsamer 3
sexy 3
sh-@@ 3
shin@@ 3
sichern. 3
sichtbar 3
silhouetted. 3
sitzend. 3
skaten 3
skifahren. 3
skinned 3
skulpt 3
sobald 3
sogar 3
sollen. 3
sonnendurchfluteten 3
sonniger 3
spandex 3
spannt 3
spen@@ 3
spir@@ 3
sport@@ 3
spot@@ 3
sprangen 3
spät 3
spült 3
ssel 3
stap@@ 3
stapelt 3
starten. 3
steckt, 3
stehende 3
steinernen 3
steinige 3
steuern 3
stolpert 3
stop@@ 3
stoßen. 3
streiten. 3
stricken. 3
stören 3
stößt. 3
stürzt, 3
stürzte 3
suspen@@ 3
sy@@ 3
sym@@ 3
tagsüber. 3
tain@@ 3
tank@@ 3
teil, 3
telefoniert. 3
tha@@ 3
tiefes 3
tolle 3
tollen 3
ton 3
toter 3
traditionelle 3
trafen 3
tragender 3
tragendes 3
trainiert. 3
traurig 3
traurigen 3
trin@@ 3
trinken, 3
trol@@ 3
tropischer 3
trottet 3
tter 3
ttery 3
tut@@ 3
tätowierten 3
umeinander 3
umgibt. 3
umherlaufen 3
umherlaufen. 3
umrundet. 3
unbefestigten 3
unbekannte 3
ungewöhnlich 3
unsichtbaren 3
unterrichten 3
unterrichtet. 3
untersuchen. 3
unterwegs. 3
unusu@@ 3
unvollendeten 3
uro 3
us@@ 3
vacuum@@ 3
vement 3
verdunkelten 3
verfallenen 3
verheirateter 3
verkaufen, 3
verkauft, 3
verletzten 3
verliert 3
verloren 3
verrückten 3
versteckt. 3
verstreut 3
verstreut. 3
verwirrt 3
verwirrten 3
verziert 3
verzweifelt 3
vice 3
vin@@ 3
vollzieht 3
voran. 3
vorgefertigten 3
vorn 3
vorne, 3
vro@@ 3
wachsen. 3
wacht 3
waff@@ 3
walk@@ 3
war, 3
ware 3
watst 3
weggeht. 3
wegschaut. 3
wehen. 3
weht. 3
weichem 3
weite 3
weiteres 3
weißes, 3
weißhaariger 3
windo@@ 3
winzige 3
wir@@ 3
woo@@ 3
wrest@@ 3
wunderschöner 3
wurden 3
wählen 3
wäscht. 3
zeremonieller 3
zermahlen 3
zerreißt 3
zerstörten 3
zielt 3
ziemlich 3
zuschaut 3
zuwenden. 3
zweispurigen 3
zügig 3
Überführung. 3
ähnlicher 3
älter, 3
älterer, 3
älteres, 3
üben, 3
üben. 3
überdeckt. 3
übergewichtige 3
überknickt. 3
überprüfen 3
übersät 3
überwachen 3
"Daumen 2
"Free 2
"Guitar 2
"I 2
"Liebe" 2
"Welcome 2
"no 2
#5 2
#8 2
$ 2
(ein 2
(oder 2
,@@ 2
13 2
25 2
30 2
30er 2
40 2
50 2
63 2
80er 2
96 2
Abhang 2
Abschnitt 2
Absolventen 2
Absolventen. 2
Abstieg 2
Absätzen 2
Affenbügeln 2
Afrikaner, 2
Afroamerikaner 2
Afroamerikanische 2
Akrobatik. 2
Akrobatin 2
Aktion. 2
Aktivitäten, 2
Akustikgitarre, 2
Alaska 2
Algen 2
Alkohol 2
Alkoholladen. 2
Als 2
Altersgruppen 2
America. 2
Americans 2
Amish-Dame 2
Ampel 2
Ampel, 2
Amtsträger 2
Ananas 2
Anbau 2
Angel. 2
Angeles 2
Angelfahrt 2
Angeln 2
Angelnetz. 2
Angels 2
Angelstock. 2
Angestellte 2
Angreifer 2
Angst. 2
Anhängers. 2
Anlage. 2
Anlass 2
Anlass. 2
Anorak 2
Anordnung 2
Antiquitäten 2
Anvil 2
Anzeige, 2
Anzeige. 2
Anzeigen 2
Anzeigen. 2
Anzügen. 2
Apartment 2
Apartmenthaus. 2
Apartmenthäusern. 2
Apfel. 2
Apotheke 2
Aprons, 2
Apronskochen 2
Apronstumpf 2
Aquarium 2
Aquarium, 2
Aquarium. 2
Arbeiten 2
Arbeitsbank. 2
Arbeitshandschuhe 2
Arbeitsstelle. 2
Arbeitstag 2
Arcade-Spiel. 2
Archäologen 2
Arena, 2
Armband. 2
Armbändern 2
Army 2
Arsch 2
Art, 2
Arts 2
Arzt, 2
Asiaten, 2
Asienkinder 2
Assistent 2
Attraktion. 2
Attraktive 2
Aufbau 2
Aufbau. 2
Aufdruck 2
Aufführung 2
Aufgabe. 2
Aufklebern 2
Aufmerksamkeit. 2
Aufregende 2
Aufregung, 2
Aufschrift 2
Aufstieg 2
Auftritt. 2
Auftritte. 2
Auftritts 2
Augenliner 2
Ausblick 2
Ausblick. 2
Ausdruck 2
Ausnahme 2
Ausrüstung, 2
Aussicht 2
Aussichtspunkt 2
Autohaube 2
Automaten 2
Autowaschanlage 2
Außenbereich 2
Außenfenster 2
BH 2
BMW 2
BMX 2
Baby-Baby-Stroller. 2
Baby-Boy 2
Baby-Swing 2
Babybär 2
Babys, 2
Backen 2
Backflip. 2
Backwaren 2
Badehosen, 2
Bademäntel 2
Badmintonspieler 2
Bagger 2
Bahngleise 2
Bahngleisen 2
Bahnstrecke 2
Balancebalken. 2
Balancierbalken. 2
Bald 2
Balken, 2
Balkon, 2
Ballen, 2
Balles 2
Balles. 2
Ballett. 2
Ballmütze, 2
Ballonen. 2
Ballonhauben 2
Ballons, 2
Ballontier 2
Ballontiere 2
Ballwurf 2
Baltimore 2
Banane 2
Bananen 2
Bandmitglied 2
Bandmitgliedern. 2
Banjo, 2
Bankettsaal. 2
Bannern 2
Bannern. 2
Barfuß-Kind 2
Barfußmann 2
Barrikade 2
Barts 2
Base, 2
Baseball-Kleidung 2
Baseballfeld. 2
Baseballkopf 2
Baseballspiels 2
Baseballspiels. 2
Baserunner 2
Basisläufer 2
Basketball-Schritt 2
Basketballs 2
Basketballs. 2
Bassist 2
Batman 2
Bauarbeiten. 2
Bauch, 2
Bauch. 2
Bauern 2
Bauernhof 2
Baufahrzeug. 2
Baumaschinen 2
Baumaschinen. 2
Baumhang. 2
Baumstamm. 2
Baumstich 2
Baumstich. 2
Baumstöck. 2
Baumwollsüßigkeiten 2
Bauwerk 2
Beachvolleyball 2
Beagle 2
Beamten 2
Bechern 2
Beckens. 2
Bedeckung 2
Begleitung 2
Behinderte 2
Beifahrersitz 2
Beifall 2
Beim 2
Bein, 2
Beleuchtung 2
Beleuchtung. 2
Beobachter 2
Bereichs. 2
Bergberg 2
Berggebiet. 2
Berghang. 2
Berglandschaft. 2
Bergleute 2
Bergsteigen 2
Bergsteiger 2
Bergstraße 2
Bergweg. 2
Besitzern 2
Bestellung 2
Besuchern 2
Beton, 2
Betonbank 2
Betonkonstruktion. 2
Betonmauer 2
Betonplatte 2
Betonplatte. 2
Betonrampe. 2
Betonsperre 2
Betrachter 2
Betten. 2
Beutel 2
Biene 2
Bierdose 2
Biere. 2
Bierflaschen. 2
Biergläser. 2
Big 2
Bikefahrer 2
Bikini, 2
Bildbuch. 2
Bildern. 2
Bildschirms 2
Bill 2
Billard 2
Blaue 2
Blaues 2
Bleistift. 2
Blicks 2
Blume. 2
Blumenblätter 2
Blumengeschäft 2
Blumenkorb 2
Blumenladen. 2
Blumenstand 2
Blätterbläser, 2
Blätterstapel 2
Boa 2
Bodenball 2
Bohnen 2
Bohrmaschine 2
Boje 2
Boje. 2
Bongo-Trommeln 2
Book 2
Border 2
Boston 2
Bostoner 2
Bowling, 2
Bowling. 2
Bowlinghalle 2
Boxkampf 2
Boxkampf. 2
Brautmädchen 2
Brautmädchenin 2
Brautpaar 2
Brettern, 2
Briefen 2
Briefkasten, 2
Briefkasten. 2
Brieftaschen 2
Brokkoli 2
Bronzestatue 2
Broom 2
Brunette, 2
Bruststich 2
Brüder 2
Buches 2
Buchhandlung 2
Bucht 2
Bucht. 2
Bump 2
Burgund 2
Burka 2
Busch, 2
Bussen 2
Busses 2
Bäcker 2
Bänder 2
Böden. 2
Böse, 2
Bürgerkriegskleidung 2
Bürsten 2
Büsche. 2
Büsten 2
Cadillac 2
Cafeteria 2
Calvin 2
Camo 2
Camouflage-Shorts 2
Campern 2
Campingausrüstung 2
Campingplatz 2
Campingplatz. 2
Canyon 2
Capris 2
Cartoon-Charakter 2
Casino 2
Casino. 2
Caucasian 2
Champagner. 2
Charakter 2
Charaktere 2
Cheerleader, 2
Cheerleadermannschaft 2
Chinatown, 2
Chinesen 2
Chinesisch 2
Chinesische 2
Claus-Kleidung 2
Clown-Makeup 2
Clown-Nase 2
Club, 2
Coaches 2
Cola 2
Computer, 2
Computermonitor 2
Computermonitor. 2
Computermonitoren 2
Computern, 2
Converse 2
Cookies. 2
Cottages. 2
County 2
Cover 2
Cowboy-Mützen, 2
Cowboy-Mützen. 2
Cowboystiefeln 2
Cracker 2
Crash 2
Cricket, 2
Cupcakes 2
Cupcakes. 2
DS 2
Dachdecker 2
Dachshund 2
Dampf 2
Darth 2
Daumen, 2
Deckendach 2
Delfin 2
Delphin 2
Denkmal 2
Denkmal. 2
Derby, 2
Designs 2
Desserts 2
Deutschen 2
Deutscher 2
Diashow 2
Dingen 2
Direktor 2
Disk 2
Diskussion, 2
Diskussion. 2
Do 2
Dojo. 2
Dollar 2
Dolly 2
Donnerstagabend 2
Donuts 2
Doppeldeckerbus 2
Dose. 2
Dosen 2
Dosen. 2
Drachen, 2
Dragster 2
Drahtzaun. 2
Dreirad. 2
Dreiraden 2
Drähten 2
Dschungel 2
Dschungelgymnasium 2
Duffeltasche 2
Dunk 2
Dunkelhaarige 2
Durchlaufen 2
Dusche. 2
Dünen 2
Dünen. 2
Dünenschlitten 2
Earmuffs 2
East 2
Edelstahl. 2
Ehebruch 2
Ehemann 2
Ehren 2
Ehrfurcht 2
Eichhörnchen 2
Eiffelturm. 2
Einfahrt 2
Einfahrt. 2
Einheimische 2
Einheimischen 2
Einkaufstasche. 2
Einkaufswagen, 2
Einkaufswagens 2
Einkaufszentrums 2
Einkaufszentrums. 2
Einklang. 2
Einrichtung, 2
Einsamer 2
Einstellungen 2
Einzelner 2
Einzelperson, 2
Eiscreme 2
Eiscreme-Kegel 2
Eiscreme-LKW, 2
Eiscremekondensatoren. 2
Eisenbahngleise 2
Eishockey 2
Eiskarren. 2
Eislaufbahn 2
Eislaufschuhe 2
Eisschild. 2
Eisskulpturen 2
Eisstand, 2
Eistee 2
Elefanten. 2
Elektrobohrmaschine 2
Elf 2
Empfang. 2
Endzone 2
Engelskostümen 2
Enrolling 2
Enten. 2
Entertainer 2
Entscheidung 2
Erdboden. 2
Erfrischungen. 2
Ernte. 2
Ernten 2
Erwachsener, 2
Erzeugnisse 2
Escaliere, 2
Esel, 2
Eseln 2
Espresso 2
Etage 2
Ethnien 2
Europa, 2
Events. 2
Fabrik. 2
Fabrikarbeiter 2
Fackel, 2
Fackel. 2
Faden 2
Fahrersitz 2
Fahrradgeschäft. 2
Fahrradhelm 2
Fahrradladen 2
Fahrradreifen, 2
Fahrradreifen. 2
Fahrt, 2
Fahrtreppe. 2
Fahrzeuge, 2
Fahrzeugen. 2
Fairway 2
Falke 2
Falken 2
Fall 2
Fallen 2
Fallschirmspringer 2
Familienmitglieder 2
Fang. 2
Farbdose. 2
Farbe, 2
Farben, 2
Farbenfrohe 2
Fass 2
Fassade 2
Faust. 2
Fechten 2
Fechtenwettbewerb. 2
Feier 2
Feiertage 2
Fels 2
Felsenhaufen. 2
Felsens 2
Felsformation. 2
Felskletterer 2
Felswand, 2
Felsweg 2
Fernsehbildschirm. 2
Fest. 2
Feuerplatz 2
Feuerplatz, 2
Feuerplatz. 2
Feuerwagen 2
Feuerwehrleute, 2
Feuerwehrmotor 2
Feuerwehrwagen, 2
Feuerwerk 2
Figur. 2
Fisch- 2
Fische, 2
Fischen 2
Fischerbooten 2
Fitnessstudio. 2
Flachbett 2
Flaggen. 2
Flammen, 2
Flannel 2
Fledermäuse, 2
Fleece 2
Fliege 2
Flips 2
Flohmarkt 2
Flohmarkt. 2
Floß, 2
Floß. 2
Flug. 2
Flugbegleiter 2
Flughafens. 2
Flugzeug, 2
Flugzeugs. 2
Flussufer 2
Flöte. 2
Flöten 2
Flügeln 2
Flügeln. 2
Flüssigkeiten 2
Formen 2
Fotografieren. 2
Französisch 2
Französische 2
Freiheit 2
Freizeitweg 2
Freude. 2
Freundes. 2
Freundin. 2
Frieden 2
Friedensschild 2
Friedensschild. 2
Friedenssymbol. 2
Friedenszeichen 2
Friedhof 2
Friseursalon. 2
Funken 2
Fußball-Torpfosten. 2
Fußballbälle 2
Fußballer 2
Fußballnetz. 2
Fußballrichter 2
Fußballspiel, 2
Fußballtrikot 2
Fußbrücke 2
Fußgängerbrücke 2
Fußgängern, 2
Fußgängerweg 2
Fußspuren 2
Fähigkeiten 2
Fässer 2
Füßen, 2
Gabel. 2
Gabelstapler 2
Gap-Shops 2
Garage, 2
Garn. 2
Garnelen. 2
Gartenarbeit 2
Gas 2
Gasmaske 2
Gebiet, 2
Geburtstagsfeier 2
Geburtstagstorte. 2
Gebäuden, 2
Gegenständen, 2
Gegnern 2
Gegnern. 2
Gehstock 2
Gehwegen 2
Gehäuse 2
Geige, 2
Geigen 2
Geldautomaten, 2
Geldautomaten. 2
Geldbörsen. 2
Geländer, 2
Geländerstange. 2
Gemeinde 2
Gemeinschaftszimmer 2
Gemüse, 2
Gemüsemarkt 2
Genießen 2
Gepäck, 2
Gepäckstücken. 2
Gerüsten. 2
Geschichte. 2
Geschäfte. 2
Gesichtsausdrücken 2
Gesichtsbild 2
Gesichtsfarbe. 2
Gesichtsmasken 2
Gestrüpp. 2
Gestrüppen 2
Getränk, 2
Gewebe 2
Gewehre 2
Gewichte. 2
Gewässern 2
Gipfel. 2
Gipfeln 2
Glas, 2
Glasgebäudes. 2
Glastisch. 2
Gleise 2
Gleisen. 2
Glieder 2
Gläsern. 2
Go-Kart. 2
Goldhelm 2
Goldhemd 2
Golfball. 2
Graffiti-Wand. 2
Grafik. 2
Gras- 2
Grasberg 2
Grasfläche. 2
Grasknoten 2
Grasweg. 2
Graswiese. 2
Grauen 2
Grauer 2
Green 2
Griffe. 2
Grills. 2
Groucho 2
Großes 2
Großvater 2
Grund 2
Grundschulalter 2
Grundschule 2
Grundstück 2
Gruppe, 2
Gruppenfoto 2
Grün. 2
Gut 2
Gymnasium 2
Gürteln 2
Gürteln. 2
Haarstil 2
Hacke 2
Halfpipe. 2
Halloween-Kostümen 2
Halskette. 2
Halskragen 2
Halter 2
Haltestelle 2
Handarbeit 2
Handgepäck 2
Handgerät. 2
Handgesten 2
Handlaufleiste 2
Handlaufleiste. 2
Handlaufstange. 2
Handschlag 2
Handtücher 2
Handwaffe 2
Handwagen 2
Handwerk, 2
Hard-Hat 2
Hardhat. 2
Harmonika 2
Hass 2
Hat, 2
Haufens 2
Hausaufgaben. 2
Hausmeister 2
Haustür, 2
Haut 2
Hawaiian-Hemd 2
Head 2
Headset 2
Headset. 2
Heimatlandes. 2
Heißluftballon. 2
Helfer 2
Helikopter 2
Hello 2
Hemdenlos, 2
Herbsttag 2
Herbsttag. 2
Herde 2
Herstellung 2
Herzen, 2
Heubündel 2
Hintern 2
Hinterteil 2
Hippie 2
Hipster 2
Hirsch 2
Hispanic 2
Hochzeitsfeier. 2
Hochzeitsfoto 2
Hochzeitskleidung. 2
Hochzeitsparty, 2
Hochzeitstag 2
Hocker, 2
Hocker. 2
Hockeypuck. 2
Hockeyschlägern 2
Hockeyspiel. 2
Hockeyspieler, 2
Hockeystick 2
Hockeyteams 2
Holzbalken 2
Holzbearbeitung 2
Holzblöcke. 2
Holzboot 2
Holzbrett 2
Holzbrett. 2
Holzfußboden. 2
Holzfußböden. 2
Holzgebäude. 2
Holzkisten. 2
Holzkohlegrill. 2
Holzkonstruktion, 2
Holzleiter. 2
Holzobjekt 2
Holzplattform 2
Holzrampe. 2
Holzspielplatz. 2
Holzspänemaschine. 2
Holzstange 2
Holzstöcken 2
Holzstück 2
Holztür. 2
Holzweg 2
Holzwerkstatt. 2
Hoodies 2
Hoop 2
Hoops. 2
Hosenanzug 2
Hot 2
Hotdog. 2
Hotelzimmer, 2
House. 2
Hula 2
Hummer 2
Hundebahn. 2
Hundechen 2
Hunderte 2
Hundeschau 2
Hundeschau. 2
Hundeshow 2
Hundespielzeug 2
Husky 2
Huts 2
Händler. 2
Häusern. 2
Hügels 2
Hügelspitze. 2
Hühnerfleisch 2
Hüllen. 2
Hündin 2
Hürde, 2
Hürden 2
I 2
Ihnen 2
Indianern 2
Innenraum 2
Inneren. 2
Insekt, 2
Inspektoren 2
Instrumenten. 2
Interessantes 2
Iowa 2
Jacken. 2
Jahr 2
Jalousien 2
Japaner 2
Jazz 2
Jean 2
Jeansjacke. 2
Jeep. 2
Jemand, 2
Jenga 2
Jenga, 2
Jersey 2
Jet 2
Jo-Jo. 2
Job 2
Jockey, 2
Joe's 2
Joggen. 2
Jogginghosen 2
Jugendlicher, 2
Jumpseil. 2
Jumpsuit, 2
Junge. 2
Kajak, 2
Kajaks, 2
Kalb, 2
Kalb. 2
Kamel, 2
Kamel. 2
Kameraleute 2
Kameramann. 2
Kamin 2
Kampfes 2
Kampfkunst-Kurs. 2
Kampfkunstturnier 2
Kampfsportkleidung 2
Kaninchen 2
Kaninchen, 2
Kanuboot 2
Kap 2
Kape 2
Kappe. 2
Kapuze, 2
Kapuze. 2
Karaoke 2
Karate-Moves 2
Karate-Wettbewerb 2
Karate. 2
Karawane 2
Kardigan. 2
Karnevalfahrt. 2
Karnevalspiele 2
Kartoffelchip. 2
Karton, 2
Kartonbox. 2
Kartonkisten 2
Kasse 2
Kassenkasse 2
Katamaran 2
Katze, 2
Kaukasier 2
Kaukasus 2
Kaut 2
Kein 2
Keller, 2
Keramik. 2
Kette, 2
Ketten, 2
Ketten. 2
Kettensäge, 2
Kettenzaun. 2
Keyboards 2
Khaki 2
Kick. 2
Kickboxen, 2
Kicker 2
Kiefernbaum 2
Kies. 2
Kiesel 2
Kimono, 2
Kinderbecken 2
Kinderbuch, 2
Kirche, 2
Kirchenchor 2
Kiste, 2
Kisten. 2
KitchenAid 2
Kitesurfen 2
Kitty 2
Klarinette 2
Klarinette. 2
Kleiderbügel. 2
Kleiderhemden 2
Kleidungsstück 2
Kleidungsstücken. 2
Klein 2
Kleinkinder, 2
Kleinkinderin 2
Kleinkindern 2
Kleinkindes, 2
Kletterausrüstung 2
Klima 2
Klippen. 2
Knien, 2
Knopf 2
Knopfhemd, 2
Knöchel 2
Kochjacke 2
Kochtunika 2
Kofferraum 2
Kokosnüsse 2
Komfort 2
Kondensatoren 2
Konferenztisch 2
Konferenztisch. 2
Konstruktion, 2
Konvenienzladen. 2
Konvention 2
Konzert, 2
Kopfbänder 2
Kopffrau 2
Kopfhörer, 2
Kopfhörern, 2
Kopfsteinpflasterweg. 2
Korbstuhl. 2
Korbstöcke 2
Kormoran 2
Korridor. 2
Kostüme. 2
Kostümen, 2
Kraft 2
Kraft. 2
Kragen. 2
Kran, 2
Krankenhausbett 2
Krankenhauszimmer. 2
Krawatte. 2
Krawatten, 2
Kreatur 2
Krebse 2
Kreidezeichnung 2
Kreuzweg, 2
Krippe 2
Krokodil 2
Krücken 2
Kugeln, 2
Kultur 2
Kunst- 2
Kunst. 2
Kunstausstellung 2
Kunstausstellung. 2
Kunsthandwerk. 2
Kunstmaterialien 2
Kunstmuseum. 2
Kunststoffhandschuhen 2
Kunstwerke. 2
Kurzshorts 2
Kutschen 2
Kwon 2
Käfig. 2
Kälte, 2
Können 2
Köpfe 2
Köpfen, 2
Körbe 2
Küchenboden 2
Küchenchefs 2
Küchentisch, 2
Küken. 2
Künsten 2
Künstler, 2
Kürbis. 2
LA 2
Lab 2
Lack 2
Lager. 2
Lamas 2
Lampe 2
Landen 2
Landkarte 2
Landkarte, 2
Landstraße 2
Landstraße. 2
Langhaariger 2
Lantern 2
Laptop-Computer. 2
Las 2
Latexhandschuhen 2
Latino 2
Laub. 2
Laufausrüstung 2
Laufbahn. 2
Laufen 2
Laufshorts 2
Lautsprecher. 2
Layup 2
LeBron 2
Leben. 2
Lebensmittelgeschäfts 2
Lebensmittelhändlers 2
Lebensmittelkaufmann 2
Lebensmittelwagen 2
Lederjacke. 2
Ledersesseln 2
Lederweste 2
Legos. 2
Lei 2
Leichtathlet 2
Leiste 2
Leistung, 2
Leitern 2
Lemonade 2
Lenkern. 2
Lenkstange 2
Leopardenprint 2
Leotard, 2
Licht, 2
Lichtshow 2
Liebe 2
Liegen 2
Liegestuhl. 2
Linie, 2
Lippen. 2
Lippenstift 2
Live-Konzert. 2
Lobby. 2
Log 2
Logen. 2
Lokomotive. 2
Lokomotiven 2
Londoner 2
Long-Sleeve-Hemd 2
Long-Sleeve-Jacke 2
Los 2
Lounge 2
Louvre. 2
Luftmatratzen 2
Lupe 2
Länge 2
Löwe 2
Löwenstatue. 2
Mac 2
Magazin 2
Magazin, 2
Magen 2
Mahl 2
Mahl. 2
Mahlzeit. 2
Mahlzeiten 2
Mal 2
Mama 2
Mannequinen 2
Manns 2
Mannschaftsuniform 2
Mantzen 2
Maracas 2
Marathonläufer, 2
Marathons. 2
Marine-Männer 2
Markisen 2
Marktstraße. 2
Martialkünstler 2
Marx 2
Maskottchen 2
Masse 2
Matador 2
Match. 2
Matratzen 2
Matratzen. 2
Matte, 2
Maulbein 2
McDonalds 2
Mediziner 2
Meerjungfrau 2
Megafon. 2
Mehl 2
Meisterwerk 2
Menschenmenge, 2
Menschenmengen 2
Messengertasche 2
Metall, 2
Metall-Faltenstühlen 2
Metallarbeiter 2
Metalldach 2
Metallfässer. 2
Metallobjekt 2
Metallrahmen 2
Metallstange 2
Metallstangen 2
Metallstuhl. 2
Metallstöcke, 2
Metallstück 2
Metalltor. 2
Metalltreppen 2
Metallzaun 2
Mexikanische 2
Michael 2
Michigan 2
Mike 2
Mikrofonen, 2
Mikroskopen 2
Militärgruppe 2
Militärpersonal 2
Mine 2
Minigolf 2
Minirock, 2
Minnesota 2
Mitgliedern, 2
Mitspielern 2
Mittelpunkt, 2
Modellflugzeug. 2
Mom 2
Moments 2
Monstertruck 2
Moschee. 2
Motorhaube 2
Motorradfahren 2
Motorradhelm 2
Motorradpolizist 2
Motorroller 2
Motorräder. 2
Motorrädern, 2
Mound, 2
Mountainbikes 2
Mr. 2
Muscheln 2
Muscheln. 2
Musikausrüstung. 2
Musikband, 2
Musiker. 2
Musikinstrument. 2
Musikinstrumenten 2
Musikkonzert 2
Mut 2
Mädels 2
Mäher 2
Männlich 2
Männliches 2
Möwe 2
Müllhaufen 2
Müllkippe, 2
Mülltonne 2
Mülltonne. 2
Mülltrockner 2
Mütter 2
Müttern 2
NY. 2
Nachbarkinder 2
Nachricht 2
Nachtclub. 2
Nachts 2
Nachtstraße 2
Nadeln 2
Nahrung, 2
Namensschild, 2
Namensschildern 2
Nappen 2
Nassanzug, 2
Nasser 2
Native 2
Natur 2
Navy 2
Neben 2
Nebenstraße 2
Needle. 2
Neonlicht. 2
Neugeborene 2
Nike-Schild 2
Nonnenkleidung 2
Note 2
Notizbuch 2
Notizbuch, 2
Notre 2
Nudeln. 2
Nächstes 2
Nägel 2
Nähen. 2
Nähmaschine, 2
O 2
Oakland 2
Obdachlose 2
Oberbekleidung 2
Oberbekleidung, 2
Oberfläche, 2
Oberschenkel, 2
Oberseite 2
Objekte. 2
Objektiv. 2
Obstkarren 2
Obstmarkt 2
Obststand. 2
Ofen, 2
Ohrbuden. 2
Ohrring 2
Ohrringen. 2
Operation. 2
Ordner 2
Orgel 2
Orioles 2
Orte 2
Osten. 2
Ostereier 2
Outdoor-Bekleidung 2
Outfielder 2
Overall 2
Oxford 2
Ozeans, 2
Ozeanwasser 2
Ozeanwasser. 2
Pabst 2
Paddel 2
Paddles 2
Paket. 2
Palmenbaums 2
Papagei 2
Papieren. 2
Papierhauben 2
Papiertasche 2
Paraphernalia 2
Parasail 2
Parka 2
Parken 2
Parkmeter 2
Parks 2
Passagiere, 2
Passagieren, 2
Passagieren. 2
Passagierzug 2
Pelikan 2
Pelzmütze 2
Penn 2
Performer, 2
Perlen, 2
Perlen. 2
Perücken 2
Pfaden 2
Pfarrer 2
Pferdehaut 2
Pferdehunde 2
Pferdekutschen 2
Pferderennens 2
Pferdes, 2
Pferdes. 2
Pfote 2
Pfähle 2
Pfützen, 2
Picknick 2
Picknickbank. 2
Picknickdecke 2
Picknicktisch, 2
Picknicktischs. 2
Pickups. 2
Piers. 2
Pin 2
Pinata, 2
Pingpong 2
Pinien 2
Pink 2
Pinselspitze 2
Pirate 2
Piraten 2
Piste 2
Pisten. 2
Pitbull 2
Pitch. 2
Pitcher, 2
Pitcherhügel 2
Pizzarestaurant 2
Plaidhemd. 2
Plaidkleid 2
Plaidshirt 2
Plakat, 2
Plakate 2
Plakate. 2
Plastik 2
Plastikflaschen. 2
Plastikkugeln. 2
Plastiksache 2
Plastikstuhl 2
Plastiksäcken 2
Plastiktasse 2
Platte-Mützen 2
Plattenspieler 2
Platzes 2
Plätzen. 2
Poker 2
Polizeiuniformen 2
Polizistin 2
Polka-Dot-Hemd 2
Polka-Dot-Kleid 2
Polkapunkten 2
Ponchos 2
Ponytail, 2
Ponytails 2
Pools 2
Pop 2
Popsicle. 2
Pose, 2
Position, 2
Power 2
Preis 2
Preise 2
Presse 2
Proben 2
Produkten, 2
Produkten. 2
Programmen. 2
Projekt, 2
Projektor 2
Projektor. 2
Präsentation, 2
Präsentation. 2
Prüfung 2
Prüfung. 2
Pucks 2
Puff 2
Punkrock-Kleidung 2
Punkt, 2
Punkte 2
Puppe, 2
Puppenspielzeug 2
Putt 2
Puzzle. 2
Pyramide. 2
Quadrat. 2
Quadraten 2
Quelle 2
Radfahren 2
Radio 2
Radrennen, 2
Radrennfahrer 2
Radweg 2
Raft 2
Rahmen, 2
Rahmens 2
Rake 2
Rake. 2
Rampen. 2
Rasenbahn 2
Rasenfeld, 2
Rasiercreme 2
Rasierer. 2
Rassen 2
Raumes, 2
Redebeitrags 2
Rednerin 2
Reenactment 2
Referent 2
Reflektorweste 2
Reflektorwesten 2
Reflexion 2
Regal. 2
Regen, 2
Regenbogenschirm 2
Regenjacken 2
Regenkleidung 2
Regierung 2
Rehe 2
Reifen, 2
Reifenschwinge 2
Reifenstapel 2
Reis. 2
Reise. 2
Reisen 2
Reitausrüstung 2
Reitmäher. 2
Rennbahnen 2
Rennhund 2
Rennmotorrad. 2
Rennwagen, 2
Rennwagen. 2
Reporter 2
Requisiten 2
Restaurantküche 2
Restaurants, 2
Restauranttisch 2
Retriever 2
Rettungspersonal 2
Ribbon 2
Richtung, 2
Richtungen, 2
Ride. 2
Riesige 2
Rind. 2
Ringe 2
Ringen. 2
Ritter 2
Roboter 2
Rockband. 2
Rod 2
Rodeo-Arena 2
Rodeo-Reiter 2
Rodgers 2
Rohrs. 2
Rolle 2
Rollerblade 2
Rollerblade. 2
Rollerblading 2
Rollerskater 2
Rollstuhlrennen 2
Rollstöcken. 2
Rosen 2
Rosinenpflücker 2
Rote 2
Rotes 2
Rough 2
Routine. 2
Ruder 2
Ruder, 2
Ruderboot. 2
Rudern 2
Rugby 2
Rugby. 2
Ruinen 2
Ruinen. 2
Run 2
Röcken, 2
Röhren. 2
Rückschlag 2
Rücksitz. 2
Rückwärts-Flip, 2
S 2
SUV 2
Saal. 2
Sackrennen. 2
Saiten 2
Sammlung 2
Samsung 2
San 2
Sandburg 2
Sandburg. 2
Sanddünen 2
Sandfalle 2
Sandhaufen 2
Sandkasten. 2
Sandschloss 2
Sandskulptur 2
Sandweg. 2
Sandwich-Board 2
Santa-Kleidung 2
Santa-Kleidung, 2
Santa-Mützen 2
Sari 2
Sattelanzug 2
Sauna. 2
Saxophonisten 2
Schachbrett. 2
Schachtel 2
Schachtel. 2
Schachteln. 2
Schafe. 2
Schals, 2
Schaufelhammer 2
Schaufenster, 2
Schaufenstern 2
Schaufenstern, 2
Schaufenstern. 2
Schaukeln. 2
Schaukelspielplatz. 2
Schaukelspiels. 2
Schaukelstuhl 2
Schaum 2
Schauspieler 2
Schauspielern 2
Scheibe, 2
Scheibe. 2
Scheinwerferlicht. 2
Scheinwerfern. 2
Scheißel 2
Schere. 2
Schicht 2
Schiedsrichter. 2
Schienenführung 2
Schießen. 2
Schießplatz 2
Schilder. 2
Schirm, 2
Schirm. 2
Schlagen 2
Schlamm, 2
Schlammloch 2
Schlammloch. 2
Schlammpfütze 2
Schlammweges. 2
Schlangen 2
Schleife 2
Schleifer 2
Schlitten. 2
Schlittenhammer 2
Schlittenrennen. 2
Schloss. 2
Schlucht 2
Schläger, 2
Schlüssel 2
Schmiede 2
Schmutz. 2
Schnecke 2
Schneeangen. 2
Schneeball 2
Schneebrillen 2
Schneeburg. 2
Schneefeld. 2
Schneehose 2
Schneemann. 2
Schneeschuh 2
Schneidebrett. 2
Schnorchel 2
Schokoladeneis. 2
Schotterstraße, 2
Schrank. 2
Schraubenzieher 2
Schraubenzieher, 2
Schraubenzieher. 2
Schriften 2
Schränken. 2
Schubladen 2
Schuhladen 2
Schuhputzmann 2
Schulalter 2
Schulbus 2
Schultern, 2
Schultertasche, 2
Schuluniformen 2
Schuss. 2
Schutthaufen. 2
Schuttstapel 2
Schwan 2
Schwarzen 2
Schwarzer, 2
Schwarzes 2
Schwein 2
Schweißen 2
Schweißen. 2
Schwermaschinen. 2
Schwertkampf 2
Schwestern 2
Schwimmbrille, 2
Schwimmbrillen 2
Schwimmern. 2
Schwimmlehrer 2
Schwimmstrümpfen 2
Schwimmweste. 2
Schwimmwesten, 2
Schwingen 2
Schwäne 2
Schädeln 2
Schönheit 2
SchülerInnen 2
Scout 2
Sedan 2
Segel 2
Segway 2
Sehenswürdigkeiten 2
Sehne 2
Seifenwasser 2
Seile 2
Seils 2
Seilschwinge 2
Seilschwinge. 2
Seitenrand 2
Serve 2
Serviette. 2
Shepard 2
Shop. 2
Showjumper 2
Sicherheitsbrille 2
Sicherheitshelm. 2
Sicherheitsseilen 2
Side 2
Sie. 2
Sieg, 2
Sieg. 2
Situation 2
Sitzen. 2
Sitzplätzen 2
Sitzung 2
Sitzung, 2
Sitzung. 2
Skateboard-Moves 2
Skateboarder, 2
Skating 2
Skiboard 2
Skier 2
Skifahrerin 2
Skigebiet. 2
Skilift 2
Skimaske, 2
Skipiste. 2
Skistöcken 2
Skit 2
Slam 2
Snack, 2
Sneakern 2
Sneakern, 2
Sofa, 2
Sofas 2
Softball, 2
Soldaten, 2
Sommerkleidung 2
Sommerkleidung. 2
Sommertag 2
Sonnenanbeter 2
Sonnenaufgang. 2
Sonnenlicht. 2
Sonnenschirme, 2
Sonnenschirmen. 2
Space 2
Spatula 2
Speer 2
Speisewagen 2
Spiderman 2
Spiegelbild 2
Spiegeln 2
Spielautomaten 2
Spielbahn. 2
Spielen. 2
Spielgeräte. 2
Spielgitarre 2
Spielhaus 2
Spielpferd. 2
Spielplatzausrüstung. 2
Spielplatzes. 2
Spiels, 2
Spielsache 2
Spieltunnel 2
Spielzeug-LKWs 2
Spielzeugauto. 2
Spielzeughaus, 2
Spielzeugladen. 2
Spielzeugwagen. 2
Spielzeugzug. 2
Splash. 2
Splits. 2
Sportfans 2
Sportgeschäft 2
Sportspiel 2
Sportspiel. 2
Sporttrikot 2
Sportuniform 2
Spritzen 2
Sprungs. 2
Sprungschanze 2
Spur, 2
Spuren. 2
Spüle. 2
Spülmaschine 2
Square. 2
SquarePants. 2
Staaten 2
Staatspark 2
Stab 2
Stachel, 2
Stadions 2
Stadtbus. 2
Stadtecke 2
Stadtgebiet. 2
Stadtgebäuden 2
Stadtgebäudes. 2
Stadtpark 2
Stadtplatz, 2
Stadtsteig, 2
Stadtstraßen. 2
Stadtweg, 2
Stadtweg. 2
Stahl 2
Stamm 2
Stamm, 2
Standes 2
Start. 2
Startbahn 2
Startlinie. 2
Starttor 2
Station 2
Staubsauger. 2
Staubwolke 2
Staubwolke. 2
Steigung. 2
Stein, 2
Steinbank 2
Steinbogen. 2
Steinbrücke 2
Steine. 2
Steingebäude 2
Steinmauer, 2
Steinstufen. 2
Steintreppe 2
Steintreppe. 2
Steinweg 2
Stelle 2
Stelle. 2
Steuer 2
Steuerungen 2
Stiefel. 2
Stierkampf. 2
Stift. 2
Stimmung 2
Stirn, 2
Stock, 2
Stones 2
Store 2
Story 2
Strassenkleidung 2
Straße; 2
Straßenarbeiten. 2
Straßenbahn. 2
Straßenfest. 2
Straßenhändlers 2
Straßenlampe 2
Straßenrennen 2
Straßenrennen, 2
Straßenschild 2
Straßenszene. 2
Streicher 2
Streichinstrumente 2
Streichorchester 2
Streitkräfte 2
Stricken 2
Strobeln. 2
Stroh, 2
Strohmützen 2
Stromschnellen 2
Struktur, 2
Strukturen 2
Sträucher 2
Studentin, 2
Studio. 2
Stufe, 2
Stände 2
Stöckes. 2
Stücken 2
Stühlen, 2
Stützen 2
Subway. 2
Sumo-Wrestler 2
Sumpfgebiet 2
Sumpfgebiet. 2
Superman 2
Suppe 2
Surf 2
Surfboard. 2
Surferin 2
Sweatpants 2
Swimmingpool 2
Swing 2
Swing. 2
Symbol 2
Symphonie 2
Szene, 2
Säge, 2
Sänger, 2
Sängerinnen 2
Säulen. 2
Söhne 2
Süßigkeiten, 2
T-Shirts, 2
Tabak 2
Tae 2
Tafeln 2
Talent, 2
Talkie. 2
Tank, 2
Tankstelle. 2
Tanktop. 2
Tanzboden 2
Tanzpaar 2
Tanzroutine 2
Tanzstudio. 2
Tanzvorstellung 2
Tarnungskleidung 2
Taschenformat. 2
Taschenlampen 2
Tassen 2
Tasten 2
Tattoo. 2
Tauchausrüstung 2
Tauchgang 2
Teammitglied 2
Teddybär. 2
Teddybären. 2
Teenagerinnen 2
Teenagerinnen, 2
Teenagern, 2
Teenagern. 2
Teilen 2
Teilnehmern 2
Telefonstrang. 2
Teleskops 2
Tellern 2
Tennisschläger, 2
Tennisschuh. 2
Tennisschuhen. 2
Tennisspieler, 2
Tennisspielerin, 2
Teppiche 2
Terrier 2
Texte 2
Thai 2
Thema, 2
Thema. 2
Ticket. 2
Tickets 2
Tiger 2
Tim 2
Tischtennis, 2
Tischtuch. 2
Titel 2
Toiletten. 2
Top-Mütze 2
Torgang. 2
Tornetz 2
Tors 2
Toyota-LKW 2
Trackjacke 2
Tragen 2
Trail. 2
Trainer. 2
Training 2
Trainingsanzug 2
Trainingskleidung 2
Trainingsrädern. 2
Trampel 2
Trampolin, 2
Transport 2
Trays 2
Treppenaufgang 2
Treppenaufgang. 2
Trikot. 2
Trinken 2
Trinkgeld 2
Trinkgelder. 2
Trockner 2
Trockner. 2
Trolley 2
Trommel, 2
Trommelsatz. 2
Trompeter 2
Truppen 2
Tuba 2
Tulpen 2
Tunnel, 2
Tunnels. 2
Turbanen 2
Turnier. 2
Turtleneck 2
Tutus 2
Tänzerinnen, 2
Tätowierungen, 2
Töchter 2
Töpfen 2
Töpfen. 2
Töpferrad. 2
Tücher 2
Tüchern 2
U-Bahn, 2
U-Bahn-Fenster 2
U-Bahn-Mitarbeiter 2
U-Bahn-Station, 2
U-Bahn-Tunnel. 2
Uhr, 2
Umarmung 2
Umarmung. 2
Umarmungen 2
Umdrehung 2
Ummantelung 2
Unicycle 2
Uniformierten 2
Uniformträgerin 2
Union 2
University 2
Unkraut 2
Unkraut. 2
Unterhaltung 2
Unternehmens 2
Unterseite 2
Untertasse 2
Unterwäsche. 2
Vater. 2
Ventilator. 2
Verdächtigen 2
Vereinigten 2
Vergnügungsfahrt. 2
Verkehrs 2
Verkleidung 2
Verkäufer, 2
Verkäufern 2
Verpackungspapier 2
Versammlung. 2
Version 2
Versorgungsarbeiter 2
Verstärker 2
Verteidiger. 2
Vest 2
Videoband 2
Videokamera. 2
Videospiel, 2
Videospiel. 2
Viertel 2
Violett 2
Violett. 2
Vogel, 2
Vogelschwarm 2
Volk 2
Volleyballmannschaft 2
Volleyballplatz. 2
Volleyballspielerin 2
Vorderfenster. 2
Vorderrad 2
Vortrag. 2
Wagens 2
Waldbrand 2
Waldlandschaft. 2
Walker 2
Walkman 2
Walmart 2
Walze. 2
Wanderstöcken 2
Wanderweg 2
Wanderweg. 2
Wandgemälde. 2
Wangen 2
Wangen, 2
Wanne. 2
Warenkorb. 2
Warenwagen 2
Warnband. 2
Wartebereich 2
Wartungsarbeiter 2
Wartungsmitarbeiter 2
Waschbecken 2
Waschbecken, 2
Waschmaschine 2
Waschmittel 2
Washington 2
Wasserbrunnen, 2
Wasserfahrt. 2
Wasserfahrzeug 2
Wasserfahrzeug. 2
Wasserfluss 2
Wasserkocher 2
Wassermelonen. 2
Wasseroberfläche. 2
Wasserpfütze 2
Wasserpistole 2
Wasserpistolen 2
Wasserrad. 2
Wasserschlauch. 2
Wasserspritzer 2
Wasserstrahl. 2
Wasserweg 2
Webstuhl 2
Wegen 2
Weide. 2
Weihnachten 2
Weihnachtsbaum, 2
Weihnachtsgeschenke 2
Weihnachtsgeschenke. 2
Weihnachtsgeschenken. 2
Weihnachtsschlafhosen 2
Weinflasche. 2
Weinglas 2
Weise 2
Weise. 2
Weizen 2
Weißes, 2
Wellencrest 2
Werbeschild 2
Werbetafel 2
Werk. 2
Werkzeug, 2
Weste. 2
Wildblumen 2
Windbreaker 2
Windhundhunde 2
Winkel 2
Winterjacken 2
Wohngebiet 2
Wohnung 2
Wok 2
Wolke 2
Wolke. 2
Wolken. 2
Woman 2
Wonder 2
Worten 2
Wunden 2
Wurf. 2
Wäldern. 2
Wäsche, 2
Wäsche. 2
Wäschekorb 2
Wäschematte. 2
Wäschereiladen 2
Wörtern 2
Würfeln 2
Yankees 2
Zahl 2
Zauberer 2
Zehen 2
Zeitrafferaufnahme 2
Zeitschriften. 2
Zelten, 2
Zelten. 2
Zelts 2
Zementplattform 2
Zementwagen 2
Zementwagen. 2
Zentrum 2
Ziegelmauer 2
Ziegelmauer. 2
Ziegelwand 2
Ziel, 2
Zigeunerinnen 2
Zip-Linie. 2
Zitrone 2
Zivilisten 2
Zugfahrt. 2
Zugfahrten 2
Zugs 2
Zugsteig. 2
Zugtunnel 2
Zugwagen 2
Zugwagen. 2
Zuhause. 2
Zungen 2
Zuschauer, 2
Zuschauermenge. 2
Zweige 2
Zwillinge 2
Zwischen 2
Zäune 2
Züge 2
Züge. 2
abenteuerlicher 2
abfährt 2
abfällt. 2
abgelegenen 2
abgerissenen 2
abgeworfen. 2
abhängt. 2
abschüttelt. 2
abwechslungsreiche 2
abwendet. 2
abwärts. 2
abzuziehen. 2
acrobati@@ 2
ade 2
adi@@ 2
akrobatisches 2
aktuelle 2
akustische 2
alle. 2
allem 2
alt 2
alt@@ 2
amm@@ 2
ammer 2
amüsiert 2
ander 2
andere, 2
anderer. 2
aneinander 2
anfeuern. 2
angefertigter 2
angegriffen. 2
angehaltenen 2
angelehnt 2
angeln. 2
angeordnet. 2
angeschlagen. 2
angeschlossenen 2
angewiesen 2
angezündete 2
anhält. 2
animiert 2
anschauen, 2
anschließt. 2
ansehen. 2
anziehen. 2
anzieht. 2
anzulegen. 2
anzuschauen. 2
approa@@ 2
aquafarbenen 2
arabische 2
arbeitender 2
area. 2
armer 2
aro@@ 2
atemberaubenden 2
athletische 2
aufblasbarer 2
aufgehängt 2
aufgehängt. 2
aufgenommen. 2
aufgeregt, 2
aufgeregt. 2
aufgeregten 2
aufhängt. 2
aufmerksam. 2
aufspringt, 2
aufstehend. 2
auftreten 2
aufträgt. 2
aufwändig 2
aufzeichnen 2
aufzeichnet. 2
ausdehnt. 2
auseinander. 2
ausführen. 2
ausgebildet 2
ausgebreitet 2
ausgebreitet, 2
ausgedehnter 2
ausgeschnittenen 2
ausgestattet 2
ausklappbaren 2
ausländischer 2
ausruhen. 2
aussehendes 2
ausstrecken, 2
außen. 2
backflip 2
bad 2
badet 2
badet. 2
balanziert 2
balde 2
balder, 2
bandan@@ 2
barfußes 2
baumlosen 2
beau@@ 2
bedecken. 2
beeindruckenden 2
beenden 2
befestigt 2
befindet, 2
befleckt 2
befragt. 2
befüllten 2
begeistert, 2
begeistertes 2
begibt 2
beginnen 2
beginnt. 2
begleitet, 2
begrenzten 2
begrüßen 2
begutachten 2
behaarten 2
behinderter 2
beider 2
beinahe 2
beinhaltet. 2
bekleideten 2
bekommen 2
beladen. 2
beleuchtete 2
beleuchteter 2
bellen 2
benutzen. 2
bequem 2
bergab 2
bergab. 2
bergauf. 2
berühmten 2
berühren 2
bes 2
beschließt 2
beschäftigen 2
beschäftigt 2
beschäftigt. 2
besetzt 2
bespritzt 2
bespritzt. 2
bestellen 2
bestimmte 2
besuchen, 2
besucht, 2
betreiben 2
betreibt. 2
betreten 2
betritt 2
betrunkene 2
betrunkenen 2
betönter 2
beugen 2
beugen. 2
bewachen 2
bewachsenen 2
bewaldete 2
beweglichen 2
bewegt, 2
bewirtschaftet 2
bewundert. 2
bikin@@ 2
bisschen 2
bist 2
blasser 2
blau-braunen 2
blau-gelben 2
blau-weiß 2
blauer, 2
blaugrünes 2
blea@@ 2
bleiben 2
blockiert, 2
blockiert. 2
blockt. 2
blond, 2
blond-@@ 2
blond-Frauen 2
blond-haar, 2
blondkopfes 2
blue@@ 2
blumengeschmückten 2
blässt. 2
bläst. 2
blätterlosen 2
boar@@ 2
born 2
bott@@ 2
braune, 2
braunhaarigen 2
brechen 2
breitet 2
brides@@ 2
bringen 2
brüchiges 2
bst 2
buff@@ 2
bunten, 2
bus@@ 2
bzw. 2
bösen 2
bügelt. 2
bürdet 2
bürsten 2
bürsten. 2
c-@@ 2
ca. 2
camer@@ 2
cand@@ 2
cele@@ 2
cers 2
chirurgisches 2
chur@@ 2
cil 2
cken 2
class@@ 2
classi@@ 2
close@@ 2
cones. 2
coolen 2
cture 2
cue 2
da, 2
dame 2
daran 2
dargestellt. 2
darin 2
darüber 2
darüber, 2
das, 2
defensiver 2
dekoriert 2
denken 2
denkt, 2
derjenige 2
derzeit 2
deutlich 2
dickmütiger 2
die@@ 2
disappointed 2
diskutieren, 2
diverse 2
dokumentieren. 2
dominiert 2
drag@@ 2
dread@@ 2
drehen. 2
drehenden 2
dreifarbiger 2
dreiköpfige 2
drittes 2
drängen 2
drücken. 2
du?" 2
dul@@ 2
dunkelblaue 2
dunklen, 2
dur@@ 2
durchbohrten 2
durchquert. 2
durchschnittlich 2
durchstöbern. 2
durchsucht 2
durchzuführen. 2
dut@@ 2
dy@@ 2
dämmerlich 2
dünn 2
dünnem 2
dünneren 2
dünnes 2
ebenso 2
egal 2
eh@@ 2
eigenes 2
eilt 2
ein@@ 2
eine@@ 2
einfährt. 2
eingerichtet 2
eingeschlafen. 2
eingespannt. 2
eingetuckt. 2
einheimischen 2
einrollen. 2
eleganten 2
elt 2
empfangen. 2
empfängt 2
ena 2
ene 2
ental 2
entgegengesetzten 2
entgegengesetzter 2
entgegenstellt. 2
entgehen. 2
entladen 2
entlangfährt. 2
entlangläuft 2
entlassen. 2
entnehmen. 2
entran@@ 2
entre@@ 2
entri@@ 2
entsorgt 2
entspannen. 2
entzieht 2
erarbeitet 2
erbitterten 2
erfrischenden 2
ergreifen 2
ergreift 2
ergriffen 2
erhalten 2
erklärt. 2
erledigt. 2
erlernen. 2
erleuchteten 2
ern@@ 2
erregen. 2
erreichen, 2
erscheinen 2
erschöpft 2
erstaunliche 2
erwartet 2
erwischt. 2
erzeugen. 2
erörtern 2
escal@@ 2
europäischen 2
europäischer 2
europäisches 2
ev@@ 2
even@@ 2
exotischen 2
fahren, 2
fallen, 2
fallenden 2
falsche 2
faltet 2
fegen. 2
fehlenden 2
feiert. 2
feilt 2
felsigem 2
fern. 2
fertiggestellten 2
fest, 2
festhält 2
fett 2
ffe 2
film@@ 2
filmen 2
finden, 2
fing 2
fini@@ 2
fischen, 2
fixieren. 2
fixiert, 2
flag@@ 2
fliehen. 2
flieht 2
fließt. 2
fokussiert. 2
folgen 2
fotografieren, 2
fragen 2
französisches 2
frei@@ 2
freigegeben. 2
freundliches 2
freut 2
friendly. 2
frisbe@@ 2
frischer 2
frolict 2
fröhlichen 2
fröhlicher 2
fuhren 2
ful@@ 2
funktioniert, 2
funktioniert. 2
fängt. 2
füllen. 2
füttert. 2
gall@@ 2
ganz 2
gebaut 2
gebaut. 2
geblasen. 2
gebogen. 2
gedeckt 2
gedeckten 2
gedreht 2
gedreht. 2
gedrängt. 2
gefahren, 2
gefaltet 2
gefaltet. 2
gefangen, 2
gefilmt. 2
geflochtenen 2
geformten 2
gefunden. 2
geführt, 2
geführt. 2
gefüllte 2
gegensätzlichen 2
gegenüberstehen 2
gegnerischem 2
gegrillten 2
geh@@ 2
gehalten, 2
gehebt 2
gehört. 2
gejagt 2
gejubelt. 2
gekauft 2
gekleideter, 2
gel 2
gelandet. 2
gelb-schwarzen 2
gelben, 2
gelegenes 2
gelehnt 2
gemalt. 2
gemaltem 2
gement 2
gemusterte 2
gemustertes 2
gemässtes 2
gen 2
geneigt, 2
geniesst. 2
genommen 2
genommen, 2
geometrischen 2
gepflasterte 2
gepolsterte 2
gepolsterten 2
geradem 2
gerahmte 2
geri@@ 2
gerissen. 2
gerne 2
gerollten 2
gesammelt 2
gesattelten 2
geschrieben. 2
gesenkt. 2
gespaltenen 2
gespannt, 2
gespickten 2
gespielt, 2
gespottter 2
gestalten. 2
gestalteten 2
gestapelt 2
gestreifte 2
gestrichen. 2
gesäumte 2
getrennt 2
getrennten 2
gewartet. 2
gewaschen. 2
gewickelten 2
gewinnen 2
geworfen, 2
geworfene 2
gezähmten 2
geöffnet. 2
geöffneten 2
giesst. 2
git@@ 2
gleich 2
gleichmäßig 2
gleichzeitig, 2
glänzendem 2
glänzt. 2
gläsernen 2
glättet 2
glättet. 2
glücklich. 2
glückliche, 2
goldenes 2
goldfarbene 2
gos 2
graben. 2
graffit@@ 2
gras@@ 2
grau, 2
grau-weißer 2
grau. 2
greifen. 2
grillt. 2
grimmt 2
gruben 2
größten 2
grün-weiß 2
grün. 2
grüßen 2
gutes 2
habe 2
halbformalen 2
handgefertigten 2
handhaben. 2
hard@@ 2
hartem 2
hawaiianischer 2
hei@@ 2
heiligen 2
heizt 2
heiße 2
hellblaue 2
hellblauer 2
hellfarbigen 2
hellgrün 2
hellgrünem 2
hellgrünen 2
hellgrünen, 2
helllichten 2
hellrosa 2
hemdlos, 2
herab, 2
herauszufinden, 2
herd 2
herumläuft. 2
herumstehen 2
herumstehen. 2
herunterfällt. 2
hielten 2
hinauffährt. 2
hindern, 2
hinläuft. 2
hinten, 2
hintere 2
hintereinander 2
hinterlässt 2
hinuntergehen. 2
hinuntergeht. 2
hinunterläuft 2
hinunterschaut. 2
hinunterspringt. 2
hinzu. 2
hispanische 2
hispanischer 2
historische 2
hoch" 2
hochgehalten. 2
hooping. 2
horizontalen 2
hout 2
hug@@ 2
hy@@ 2
hydr@@ 2
hügeligen 2
hüllten 2
iPod 2
iPod. 2
ihn, 2
iler 2
in. 2
indigener 2
indischen 2
individuellen 2
industriellen 2
inform@@ 2
informell 2
ington 2
inklusive 2
innen. 2
installiert 2
intensiv 2
interessante 2
interessierte 2
invol@@ 2
irgendein 2
irts 2
is@@ 2
jagt. 2
japanisches 2
jeden 2
jemandens 2
jemandes. 2
jetzt 2
jeweiligen 2
jubeln, 2
juckt 2
jünger 2
kann, 2
kayakt 2
ke-@@ 2
kets 2
kimon@@ 2
klarem 2
klassisches 2
klebt 2
kleidet. 2
klein, 2
kleinem 2
kleinerer 2
kleineres 2
klettern, 2
klopft. 2
knebeln 2
knicken 2
knien. 2
knietief 2
knurrt 2
knöchellosen 2
kochen! 2
kocht, 2
kollidieren 2
kollidiert 2
komisches 2
kommen, 2
kommuniziert 2
komplexes 2
komplizierten 2
kopflose 2
koreanische 2
kostenlose 2
krabbelnder 2
kreuzt 2
ku@@ 2
kurzarmigen 2
können, 2
könnte 2
könnte. 2
köstliche 2
kühl 2
kühle 2
kühlen 2
kühlen, 2
kürzere 2
kürzlich 2
küsset, 2
labor 2
lachen, 2
lachsfarbenen 2
lagert 2
landwirtschaftlichen 2
langarmen 2
langarmiges 2
langer 2
langhaariger, 2
langhaariges 2
laut 2
leben. 2
lebendige 2
lebhaftes 2
leckeren 2
leer 2
leerer 2
leichte 2
leichten 2
leitet. 2
lernt, 2
leset, 2
letes 2
liebt 2
liegend 2
liegend, 2
ließen 2
lila, 2
ling@@ 2
lly 2
location, 2
locks 2
lokale 2
los 2
losen 2
lows 2
lullen. 2
lun@@ 2
lung 2
lustig 2
lustig. 2
lächelnde, 2
lächerlichen 2
ländliche 2
ländlicher 2
lässt. 2
läutet 2
läßt. 2
löscht 2
mach@@ 2
mal 2
malt, 2
malte 2
massive 2
massiven 2
mau@@ 2
meditiert 2
mehrfarbige 2
mehrfarbigem 2
mein 2
meißelt 2
merkwürdiger 2
merkwürdiges 2
mers 2
messen 2
met 2
mexikanische 2
mir@@ 2
mischt. 2
mit. 2
mittelalterlicher, 2
mittelgroßer 2
mittelöstlichen 2
mittelöstliches 2
model@@ 2
moderne 2
modernes 2
mongolischen 2
montierten 2
motorisierte 2
moun@@ 2
multifarbigen 2
mundt 2
musikalisches 2
mutiger 2
mähen 2
männlich 2
männlichen, 2
möglichen 2
müder 2
mühlt 2
müssen 2
nackt 2
nah. 2
nasses 2
nasst 2
navi@@ 2
navigieren. 2
navigiert. 2
neigh@@ 2
neigt. 2
neongrünen 2
neongrüner 2
ners 2
nervös 2
nette 2
neuer 2
neugierig 2
neugieriges 2
neun 2
nicht. 2
niedergeworfen. 2
niemand 2
normaler 2
nu@@ 2
nummerierte 2
nächtlichen 2
oce@@ 2
offen, 2
offener 2
offenes 2
offi@@ 2
olivgrünen 2
olympi@@ 2
olympischer 2
ong@@ 2
orange, 2
orange-@@ 2
orange-weißem 2
orangen, 2
ostasiatische 2
outf@@ 2
pa 2
pajam@@ 2
paper@@ 2
paral@@ 2
parks 2
parkt 2
parkt, 2
partment 2
passen 2
passender 2
pastellfarbenen 2
patrouillieren 2
pel 2
pelziger 2
pf 2
pfel 2
pfeln 2
pflanzen 2
pflegt. 2
pflücken. 2
pflügen 2
pflügt 2
ph 2
pic@@ 2
pinken 2
ples 2
pok@@ 2
politische 2
posieren, 2
positioniert 2
possi@@ 2
presen@@ 2
primitiven 2
professionelles 2
protestieren. 2
ption 2
pulsierenden 2
puzz@@ 2
rachen 2
rad 2
raken 2
raktiert 2
rasiert. 2
rauchen. 2
rauschende 2
reagiert 2
rechteckigen 2
rechtes 2
reflektierender 2
regal 2
rehebt 2
reichen. 2
reifer 2
reisen 2
religi@@ 2
religiöse 2
religiösen 2
religiöses 2
rench 2
rennen, 2
reo@@ 2
repair@@ 2
reparieren, 2
repariert, 2
richtig 2
richtige 2
ried 2
riesiger 2
roll@@ 2
rollenden 2
roof@@ 2
rot-schwarz 2
rot-weißes 2
rotkopf 2
rotkopfige 2
rotkopfiges 2
rout@@ 2
rufen 2
rug@@ 2
rötlichen 2
rücklich 2
rückwärts. 2
rühren. 2
sahen 2
sandwi@@ 2
sar@@ 2
sauberen 2
saß 2
scaffol@@ 2
scen@@ 2
schaltet 2
schamlos 2
scharfen 2
schattige 2
schaue 2
schauende 2
schauender 2
schi@@ 2
schie@@ 2
schiebt. 2
schiefen, 2
schienen 2
schimmernder 2
schlafen, 2
schlammigem 2
schlammiges 2
schlechte 2
schlechtem 2
schleichen. 2
schleppt. 2
schließt. 2
schlitten 2
schlittent 2
schlittschuht 2
schlummern 2
schlüpft. 2
schmales 2
schmilzt 2
schmutzigen, 2
schmückt. 2
schnallt 2
schneichelt 2
schnelles 2
scho@@ 2
schreibe 2
schreibt, 2
schreien. 2
schreiten 2
schwache 2
schwachem 2
schwammige 2
schwarz-blauem 2
schwarz-blauen 2
schwarz-orangenen 2
schwarz-weißem 2
schwarz-weißen, 2
schwarzhaarigen 2
schweben, 2
schwebt. 2
schweift. 2
schweißen 2
schweißt. 2
schwenkt 2
schwerem 2
schwimmende 2
schwitzt 2
schönen, 2
schüttelt. 2
scul@@ 2
secon@@ 2
secur@@ 2
segelt 2
segelt. 2
seh@@ 2
sehr, 2
seitlich. 2
seltsame 2
seltsames 2
sely 2
senkrechte 2
shaw@@ 2
shop@@ 2
shoul@@ 2
sicherzustellen, 2
sidel@@ 2
silbernem 2
silberner 2
sine 2
skatet. 2
skimboardt 2
skite 2
sle 2
soft@@ 2
sonnen 2
sonnenbeleuchteten 2
sowie 2
sowohl 2
sozialen 2
sozialisieren 2
spanisch 2
spanischen 2
spaziert, 2
spektakulären 2
spezielle 2
speziellen 2
spielend. 2
spielende 2
spitz 2
sportliche 2
sportlichen 2
spre@@ 2
sprintt 2
sprudeln 2
spröde 2
späten 2
squattiert 2
ss-@@ 2
sser 2
ssig@@ 2
stam@@ 2
stand@@ 2
stange 2
stattfinden. 2
stehend 2
stehendes 2
stehlen. 2
steingepflasterten 2
stellt. 2
stellte 2
stem 2
sten@@ 2
steuert. 2
stilles 2
stillt 2
stilvollen 2
ston 2
stoppen 2
stoppt 2
stoßen 2
streichelt. 2
streifen 2
streifen. 2
striktes 2
strömen 2
strömenden 2
strömt. 2
studieren 2
studieren. 2
stuff@@ 2
stun@@ 2
städtische 2
stöhnt, 2
stürzen. 2
stützen, 2
stützen. 2
suchen. 2
sung 2
swee@@ 2
swin@@ 2
syn@@ 2
synchronisieren 2
synchronisierten 2
süßen 2
tagging. 2
tail@@ 2
taktet 2
tam@@ 2
tanzende 2
tanzenden 2
tatenlos 2
tauchen. 2
taucht 2
te-@@ 2
teilen. 2
tele@@ 2
terri@@ 2
testen 2
tet 2
the@@ 2
theat@@ 2
tial 2
tiefblauen 2
tiefe 2
tippt. 2
tol@@ 2
tor 2
tou@@ 2
traditionelles 2
tragenden 2
treiben. 2
treibt. 2
tren@@ 2
trockene 2
trockenen, 2
trockenes 2
trocknet. 2
trug 2
trugen 2
tty 2
turn@@ 2
two@@ 2
tye 2
typischen 2
uch 2
uf@@ 2
ulti@@ 2
umarmen, 2
umgedreht 2
umgibt 2
umherstehen 2
umwickelt 2
unersehenes 2
ungewöhnliches 2
unglückliches 2
uns, 2
unschärfen 2
unsicher 2
unten, 2
unter. 2
unterbrechen 2
untergegangen. 2
untergehenden 2
untergeht, 2
unterhalb 2
unterirdisch 2
unterstützt. 2
untersucht, 2
untersucht. 2
unterzeichnen 2
up. 2
urs 2
us-@@ 2
ussion 2
uta@@ 2
v 2
vari@@ 2
veral 2
verbringen 2
verdeckt 2
verdeckt, 2
verdienen. 2
verfolgen. 2
vergnügt. 2
verhaftet 2
verkleidet 2
verkleidete 2
verletzte 2
verletzter 2
vermutlich 2
vern 2
verrückt 2
verrücktem 2
verrückter 2
verschiedensten 2
verschneite 2
verschwommen. 2
verschüttet 2
versucht. 2
verteidigen 2
verteidigt 2
verteidigt. 2
verteilen. 2
vertikale 2
vertreiben 2
vertreiben. 2
verw@@ 2
verwenden 2
verwirrt, 2
verwitterten 2
verzerrtes 2
verziertes 2
video@@ 2
vie 2
vielleicht, 2
vierten 2
vierter 2
voll. 2
vollbringen. 2
vollführt. 2
vorbeifahren. 2
vorbeifährt, 2
vorbeigehen, 2
vorbeiläuft 2
vorbereitet 2
vorgeblich 2
vorgibt, 2
vorzubereiten. 2
vorübergehenden 2
wachen 2
wachen. 2
wachsamen 2
wagt 2
wai@@ 2
wand 2
wandert. 2
waren, 2
wartenden 2
warteten 2
wash@@ 2
waten 2
web@@ 2
wedelt 2
wegen 2
weglaufen. 2
weht, 2
weiblich 2
weiblicher 2
weinen 2
weinend. 2
weitem 2
weiten, 2
weiter 2
weiter. 2
weiteren 2
weiße, 2
weißhaarige 2
welche 2
well@@ 2
wenigen 2
westlicher 2
wettbewerbsfähige 2
wetteifern. 2
widerspiegelt. 2
wildem 2
windigen 2
wirft, 2
wirkt 2
wischt. 2
wissenschaftlichen 2
wissenschaftliches 2
wisst 2
wunderschöne 2
wunderschönes 2
wurden, 2
wurden. 2
wäre 2
wäre, 2
wühlt 2
würde 2
würden 2
würfelt 2
wüsten 2
wütend 2
wütender 2
xing 2
xy@@ 2
ym@@ 2
zahlreichen 2
zeichnen. 2
zeigen, 2
zentral, 2
zerfallenden 2
zerhackt. 2
zerklüftetem 2
zerknirschten 2
zerstört 2
zickzackt 2
ziehen, 2
zielstrebig 2
zig@@ 2
zubewegt. 2
zuhört 2
zun@@ 2
zusammenzufügen. 2
zuschaut, 2
zusehen, 2
zuwendet 2
zuwendet, 2
zweistöckigen 2
zweiter 2
zwingen. 2
zz@@ 2
züchtet 2
zünden. 2
Über 2
Überhang. 2
ähnelt, 2
ähnlichen 2
älter 2
ängstlichen 2
ärmellosem 2
ärmelloses 2
öffentlich 2
öffentlicher 2
öffentliches 2
öffnen. 2
überbend, 2
überbend. 2
überblickt 2
überdeckte 2
überfallen. 2
überfluteten 2
überfüllt. 2
übergeben 2
übergeben. 2
übergroße 2
überknickt 2
überkreuzt. 2
überprüfen. 2
überprüft 2
überspringen 2
überwachen. 2
üppigen, 2
"4" 1
"5 1
"85" 1
"ARRIVO". 1
"Absturzmanöver". 1
"Amble" 1
"Autowasch"-Schild 1
"Barney". 1
"Bienvenue 1
"Biergarten", 1
"Birthday 1
"Boombox" 1
"Boss 1
"Buchtstelle" 1
"Cafe 1
"Cariboos 1
"Connie 1
"Cyclone" 1
"DEMOS, 1
"DOWN 1
"ELOIN" 1
"END 1
"Einmann"-ATV 1
"Elch 1
"Elmo" 1
"Energizer"-Hühnerohren 1
"Es 1
"Exodus" 1
"Fabrik" 1
"Finish" 1
"Fischhändler" 1
"Frösche 1
"GIGOLO"-Hemd 1
"Geld 1
"Glass 1
"Grace" 1
"Gratisessen" 1
"Green 1
"Hair 1
"Haken 1
"Haltet 1
"Happy 1
"Hinhaltet 1
"Ihre 1
"Jim" 1
"Jobs 1
"Jump 1
"Keep 1
"Kenji". 1
"LUCKY" 1
"Labradoodle" 1
"Lang 1
"Le 1
"Liebe 1
"Live 1
"MAKE 1
"Maritime 1
"Melanie" 1
"Mooch-Kunst" 1
"NIE 1
"November 1
"Obama". 1
"Oh 1
"Ohio 1
"Okay"-Symbol. 1
"One 1
"P". 1
"PORT 1
"Pain 1
"Pain" 1
"Paris" 1
"Pferd"-Schwingen 1
"Pinguin 1
"Polizei" 1
"Pop!Tech" 1
"Post 1
"RONA" 1
"Radeo" 1
"Raucherbereich" 1
"Sara's 1
"Seattle 1
"Shine 1
"Sky-Watcher" 1
"Sommerschule" 1
"Sorvette 1
"South 1
"Sparkasse"-Schildern 1
"Spring 1
"Stimmen" 1
"Stoppt 1
"TELL 1
"Telefonkasten", 1
"Terrible's" 1
"Teva 1
"Texas 1
"Thomas 1
"To 1
"Touchdown!" 1
"Twister" 1
"Washington 1
"Whatever 1
"Willkommen 1
"Wir 1
"Wo 1
"aus 1
"cool 1
"coolest 1
"eXXXotica 1
"evergreen" 1
"freier 1
"gnu" 1
"got 1
"impeach" 1
"just 1
"kein 1
"langsamen" 1
"nackter 1
"rawr" 1
"reale 1
"sicher" 1
"surfen" 1
"wer 1
"zwei 1
#24 1
#38, 1
#7 1
#8. 1
&apos;@@ 1
'Grand 1
'Love 1
'Thriller' 1
'Tickets 1
'em 1
(2 1
(7) 1
(Carol 1
(Frank 1
(Frau) 1
(Kunst) 1
(außer 1
(beide 1
(bekleidet 1
(ca. 1
(einen 1
(einer 1
(im 1
(in 1
(vielleicht 1
-Frauen 1
-Mantel. 1
-american 1
-reparaturen 1
-tassen. 1
0095 1
08 1
1. 1
10.000 1
100 1
100m-Sprint 1
11-Hemd 1
11:27 1
126 1
145 1
16 1
18-Rad-Fahrzeug 1
1800er 1
18th 1
19 1
1950er 1
2,00 1
2,52. 1
2-Punkte-Linie, 1
20. 1
2008-Schild. 1
2008. 1
2010 1
21 1
22 1
24 1
24, 1
25. 1
28. 1
281 1
2jähriger 1
3. 1
30-Meter-Linie 1
33 1
34 1
35 1
38 1
39 1
3D 1
3rd 1
4. 1
40er 1
41 1
43 1
44 1
46, 1
49ers-Fußballspiel, 1
5-köpfige 1
5-saitige 1
5. 1
5003 1
50er 1
53:11 1
58 1
5K-Event. 1
6. 1
60er 1
661 1
697 1
70er 1
7@@ 1
84 1
9, 1
93 1
94 1
95.000 1
96. 1
= 1
A&amp;M 1
A&amp;M-Fußballspieler 1
A's 1
A-Busses. 1
A-Löffel, 1
A. 1
AAA-zertifizierten 1
ACE-Bändchen 1
AIDS 1
AMC-Gebäude 1
AND 1
ATV's 1
ATV-Fahrer 1
ATV-Racer 1
ATV-Rennfahrer 1
ATVs 1
AVEDA-Shop 1
Aaron 1
Abbildung 1
Abendaktivitäten 1
Abendessens 1
Abendessens. 1
Abendevent. 1
Abendfußballspiel 1
Abendkleid 1
Abendkleidern. 1
Abendlicht 1
Abendtisch 1
Abenteuer 1
Abenteurers 1
Aberdeen" 1
Abfahrt 1
Abfahrt. 1
Abfahrtskifahrer 1
Abfahrtsskateboarder 1
Abfall 1
Abfallen 1
Abfallwagen. 1
Abfluss. 1
Abflussgitter, 1
Abflussgraben 1
Abflussgraben. 1
Abfälle. 1
Abgrund. 1
Abhangs 1
Abholzen 1
Abiturmütze 1
Abmachungen 1
Abrutschen. 1
Absatz. 1
Abschlag 1
Abschleppwagen 1
Abschluss. 1
Abschneiden 1
Abschnitts 1
Absolvierung 1
Absprungleistung 1
Absteigen. 1
Abstellraum, 1
Abstieg. 1
Abwehr 1
Abwehrmauer. 1
Abwerfen 1
Abwärtsschritten 1
Abzeichen 1
Abzeichen. 1
Accessoires 1
Achterbahn, 1
Achterbahn-Schiebeturm 1
Ackerland. 1
Action-Shoot 1
Action-Shot 1
Activity 1
Acura 1
Adidas 1
Adirondack 1
Adler 1
Adobe-Gebäude 1
Adoleszent 1
Advocacy-Walk 1
Aeropostale-Hemd 1
Affenbarren 1
Affenbarren, 1
Affens 1
Affenstatue 1
Affäre 1
Afrika 1
Afrika. 1
Afrikanischer 1
Afrikas, 1
Afro 1
Afroamerikaner, 1
Afroamerikanern, 1
Agility 1
Agrarstadt. 1
Ahead 1
Ahornblatt 1
Ahornsirup. 1
Airways 1
Airways. 1
Akkordeon, 1
Akkordeonist 1
Akkordeons. 1
Akkordeonspieler 1
Akrobaten 1
Akrobatikgruppe 1
Akrobatische 1
Akt 1
Aktenraum 1
Aktion, 1
Aktionen 1
Aktionen. 1
Aktionsfoto 1
Aktivitäten 1
Aktivitäten. 1
Aladdin 1
Alarmmeldung. 1
Algen. 1
Algenhaufen. 1
Aligator 1
Alkoholladen 1
Alkoholspritzen. 1
Allee, 1
Allee. 1
Alliance 1
Allianz 1
Alligatoren 1
Allround-Kleidung 1
Alltag. 1
Ally 1
Alpakas 1
Alphabet 1
Alphabetisierung. 1
Alpin-Enthusiast 1
Altar, 1
Altar. 1
Alter. 1
Altzeitkamera. 1
Aluminiumdose. 1
Aluminiumfolie, 1
Aluminiumstück. 1
Ambiente 1
Ambiente, 1
Ambulanzdienst 1
Ambulanzfahrzeug 1
America 1
America's 1
American 1
Amerika 1
Amerika. 1
Amerikaner 1
Amerikaner, 1
Amerikanerin 1
Amerikanischer 1
Amish 1
Amish-Familie 1
Amish-Teil 1
Amp 1
Ampelmasts 1
Ampeln 1
Ampelschild. 1
Ampelstange 1
Amphibien 1
Amputierte 1
Amputiertes 1
Amsterdam. 1
Anaheim 1
Ananas-Teppichs 1
Ananas. 1
Anbetung. 1
Anblick. 1
Anführer 1
Angehen 1
Angehörige 1
Angehörigen 1
Angelausrüstung 1
Angelausrüstung. 1
Angeles. 1
Angelhaken 1
Angeln. 1
Angelnetzen 1
Angelnetzen. 1
Angelspiel. 1
Angelstab. 1
Angelstange 1
Angelsteg. 1
Angelstöcke 1
Angelstöcken. 1
Angriffshund, 1
Angriffsspieler 1
Angst 1
Angst, 1
Anhängerladung 1
Anhängerpark 1
Anhöhe. 1
Animaniacs 1
Ankleide 1
Ankleidetisch. 1
Ankündigung 1
Ankündigung. 1
Anlage, 1
Anlass, 1
Anlegeplatz, 1
Anlegestegs 1
Anleitung 1
Anne 1
Annual 1
Anpassung 1
Anruf 1
Anruf. 1
Anschlag 1
Anstieg 1
Anstrengung 1
Anstrengungen 1
Antennen 1
Anterior 1
Antilopen 1
Antiquitätenladen 1
Antriebsvorgang. 1
Antwort 1
Antworten 1
Anwesenheit 1
Anzugjacke, 1
Anzugmänteln 1
Anzugsmantel 1
Anzüge 1
Aoge 1
Apartmentanlage. 1
Apartmentgebäudes 1
Apartmenthäuser 1
Apartmenthäusern 1
Apartmentkomplex. 1
Apartments 1
Apartments, 1
Apartments. 1
Apartmenttisch 1
Aperitif 1
Apfel, 1
Apfelgarten 1
Apfelkuchen. 1
Apfelmarktes. 1
Apotheker 1
Apparat. 1
Apparaturen 1
Apple-Laptop. 1
Applebee's 1
Applikation, 1
Aprons. 1
Apronsaps 1
Apronstreich 1
Aqua-Sweateranzug 1
Aquahosen 1
Aquarium-Tank. 1
Arabische 1
Arbeit, 1
Arbeiter. 1
Arbeiter." 1
Arbeiterinnen 1
Arbeiterjacke. 1
Arbeitern, 1
Arbeitnehmerinnen 1
Arbeitsbank, 1
Arbeitsbereich 1
Arbeitsboot, 1
Arbeitshandschuhen 1
Arbeitshemd 1
Arbeitskleidung, 1
Arbeitslounge 1
Arbeitsplatz, 1
Arbeitsraum 1
Arbeitsstelle 1
Arbeitstag, 1
Arbeitsumgebung. 1
Arbeitsuniform 1
Arbeitswesten 1
Arbeitszimmer. 1
Arc 1
Arch. 1
Architektur 1
Architektur. 1
Arena-Event. 1
Ariel 1
Armband, 1
Armbanduhr. 1
Armbrust 1
Armee 1
Armee-Ausrüstung 1
Armee-Männer 1
Armee-Männern 1
Armee-Männern. 1
Armeebeamte 1
Armeeflugzeugen, 1
Armeehund, 1
Armeemediziner 1
Armeemüll 1
Armeeuniform 1
Armschleppen 1
Armschwimmern. 1
Armstand. 1
Armut 1
Armutsgebiet. 1
Armwärmer 1
Arsenal 1
Art-Deco-Wand. 1
Arten. 1
Artikeln. 1
Artisan 1
Artist, 1
Artisten 1
Arts-Move. 1
Arztbefehl, 1
Arztes 1
Arztscheinwerfers, 1
Aschenbecher. 1
Asiat 1
Asiatenrobe 1
Asiatin 1
Asiatischen 1
Asienpolizisten 1
Asienstudenten 1
Asier 1
Asphalt 1
Asphaltoberfläche 1
Asphaltstrecke 1
Assistenten 1
Assistenten-Coach. 1
Assistentin 1
Astro 1
AstroTurf 1
Astronautenanzug 1
Atem. 1
Atemschutzmaske 1
Atemzüge 1
Athletics 1
Atlanta 1
Atlanta. 1
Atomschild. 1
Attraktionen, 1
Atyl-Atyl. 1
Au 1
Auberginen 1
Auch 1
Audi 1
Audio- 1
Audio-Mischer 1
Aufblasbecken 1
Aufblaser. 1
Aufblasflaschen 1
Aufblashammer. 1
Aufblasspielzeug. 1
Aufblasungsaktivität. 1
Auffangen 1
Aufgeregte 1
Aufheben 1
Aufhängen 1
Aufnahme. 1
Aufnahmestudio 1
Aufrechter 1
Aufregendes 1
Aufregendes, 1
Aufregung 1
Aufschwung 1
Aufsicht 1
Aufstand 1
Aufsteigen 1
Aufstiegs 1
Aufstrichen 1
Auftreten 1
Auftreten, 1
Auftritt 1
Auftritten. 1
Aufwärmung 1
Aufwärtsblick. 1
Aufzug, 1
Aufzugsstollens. 1
Augen-Abbildung. 1
Augenbekleidung 1
Augenbraue 1
Augenbrauen 1
Augenbrauen. 1
Augenbäumen 1
Augenlächeln. 1
Augenmake-up 1
Augenmanik 1
Augenverschluss 1
Aurora 1
Ausbildungsmission. 1
Ausdruck. 1
Ausgabe 1
Aushilfe 1
Ausland 1
Ausländische 1
Auspuff 1
Ausrüstungen 1
Ausrüstungsstück. 1
Aussage 1
Ausschnitt 1
Ausschnitte 1
Ausschreitungsgewänder 1
Ausschreitungsgewändern. 1
Aussichtspunkt. 1
Ausstellung, 1
Ausstellungen 1
Ausstellungstisch 1
Ausstellungszelt. 1
Aussterben 1
Ausstieg 1
Auswahlen 1
Auswählen 1
Auszeit 1
Auszug 1
Autobahn, 1
Autobahnausgangsschild. 1
Autobahnszene 1
Autobrand 1
Autofahrer 1
Autofahrer, 1
Autofahrers 1
Autofahrt 1
Autofenster 1
Autogramme 1
Autoladen, 1
Automaten, 1
Automatten 1
Autoprobleme, 1
Autor 1
Autorennen 1
Autoschlüsseln 1
Autospielzeug 1
Autostand 1
Autounfalls. 1
Außen-Thermen 1
Außenbank 1
Außenbecken. 1
Außenbereich, 1
Außenbordmotor 1
Außenfeld 1
Außenfeld. 1
Außengrill. 1
Außenhandelszentrum 1
Außenhändler 1
Außenhändler. 1
Außenlaufbahn 1
Außenlift. 1
Außenloipe. 1
Außenmarkt, 1
Außenparty. 1
Außenpool 1
Außenpumpe. 1
Außensessel, 1
Außenstange. 1
Außenstelle. 1
Außentisch 1
Außentreppe 1
Außenverkauf. 1
Außenwand 1
Außenwaschbecken, 1
Außenweg 1
Außenwerkstatt 1
Außerhalb 1
Available 1
Aviator-Sunnys 1
Aviatorbrille 1
Avril 1
Axten 1
B 1
BBQ-Neonschild 1
BH-Top 1
BHs 1
BHs, 1
BMW. 1
BMX-Bike. 1
BMX-Bikes 1
BMX-Strecke. 1
BUA. 1
Babies 1
Babuschka 1
Baby-Baby-Baby-Baby-Baby-Baby-Baby-Baby-Baby-Baby-Baby-Baby-Baby-Baby-Baby-Baby-Baby-Baby-Baby-Baby-Baby-Baby-Baby-Baby-Baby-Ba 1
Baby-Baby-Bühnen 1
Baby-Baby-Roller 1
Baby-Girl 1
Baby-Mädchen. 1
Baby-Schwinge, 1
Baby-Skipper 1
Babybadegerät 1
Babyblut-Workshirt 1
Babyelefanten-Modellausstellungen 1
Babyenten. 1
Babyflasche. 1
Babykamel, 1
Babykleid 1
Babykuh 1
Babymädchen 1
Babymädchen, 1
Babypuppe 1
Babypuppen, 1
Babysitz 1
Babytier 1
Bach, 1
Baches 1
Baches. 1
Back-up-Gitarrist 1
Back-up-Gruppe. 1
Backblech 1
Backflip 1
Backgammon, 1
Backhand-Tennisschläger 1
Backhoefer 1
Backhoefer. 1
Backkleidung 1
Backofen. 1
Backsteinbank 1
Backsteinstränd 1
Backsteinweg. 1
Backstroke 1
Backup-Tänzern 1
Backwaren. 1
Bad, 1
Badeanzüge 1
Badeanzügen) 1
Badeanzügen. 1
Badebadet. 1
Badebecken 1
Badehose 1
Badehose, 1
Badekleidung 1
Bademänteln 1
Bademützen 1
Baden 1
Badesprudel 1
Badesuite 1
Badeurlaub 1
Badewand. 1
Badezimmer, 1
Badezimmerspiegel 1
Badminton 1
Badminton-Birdie. 1
Badminton. 1
Badmintonplatz 1
Bag 1
Bagelladen, 1
Bagelladen. 1
Baggie 1
Bags 1
Bahn. 1
Bahnarbeiter 1
Bahngleise. 1
Bahnhof, 1
Bahnhofs. 1
Bahnhofsbaus. 1
Bahnhofseingang 1
Bahnhofsplattform 1
Bahnhöfe 1
Bahnplattform 1
Bahnsteig, 1
Bahnsteige, 1
Bahnsteigen 1
Bahnsteigs. 1
Bahnzug. 1
Baker 1
Balance 1
Balance. 1
Balancebalken-Routine 1
Balancieren 1
Baldaadler 1
Balkens 1
Balkens, 1
Balkone 1
Balkonen. 1
Ball! 1
Ball; 1
Ballerina-Lehrerin 1
Ballerinenkostüm 1
Ballerinenshow. 1
Ballerinentanz 1
Ballerinentänzer 1
Ballett, 1
Ballettklasse 1
Balletttanzer 1
Balletttanzerinen 1
Balletttänzerin 1
Balletttänzerinnen 1
Ballettunterricht 1
Ballettvorstellung. 1
Ballettänzer, 1
Ballfeld. 1
Ballmannschaft 1
Ballon, 1
Ballon-Bounce-Haus. 1
Ballonen, 1
Ballonfahrt. 1
Ballonfigur. 1
Ballonfiguren 1
Ballonhaube. 1
Ballonhändler 1
Ballonhütten 1
Ballonkunst 1
Ballonkunst. 1
Ballonmützen 1
Ballonschloss 1
Ballontiere. 1
Ballontiers 1
Ballplatz 1
Ballplatz, 1
Ballplatz. 1
Balls. 1
Ballsaal 1
Ballspieler 1
Ballspiels. 1
Ballspielzeug 1
Ballstreifen. 1
Bambus 1
Bambus-Bandana 1
Bambus-Fischerstab 1
Bambusbäumen 1
Bambusbäumen. 1
Bambusstangen. 1
Bambusstämmen 1
Bambusstöckl. 1
Bambuszaun. 1
Banane, 1
Banane. 1
Bananenhauben 1
Bananenspielzeug 1
Bandag 1
Bandausrüstung 1
Banddemonstration 1
Bandes 1
Bandgruppe 1
Bandklasse 1
Bandkollegen. 1
Bandkollegin 1
Bandmajorette. 1
Bandmitgliedern, 1
Bandshell 1
Bandstand 1
Bandsäge. 1
Bandsänger 1
Banduniform 1
Banduniformen 1
Banjo-Spieler 1
Banjos. 1
Bankenrettungsaktionen. 1
Bankett. 1
Bannern, 1
Bar-B-Que. 1
Bar-Kenntnisse 1
Barbell 1
Barbie-Puppe 1
Barbie-Puppen 1
Barbie-Spielzeuge 1
Barer 1
Barfuß-Mädchen 1
Barfußfotograf 1
Barfußfrau, 1
Barfußgänger 1
Barfußkinder 1
Barfußmädchen 1
Barfußmädchen. 1
Bargeld 1
Bargästen 1
Barista 1
Barkeeperin 1
Barken 1
Barker 1
Barrels 1
Barret 1
Barriere 1
Barrierenbands 1
Barrikaden 1
Barrikaden. 1
Bars. 1
Barsessel 1
Barstool 1
Bartenderin 1
Bartisch 1
Bartmann 1
Base-Spieler 1
Baseball-Basis 1
Baseball-Batter 1
Baseball-Diamanten. 1
Baseball-Helmet 1
Baseball-Hitter 1
Baseball-Mütze 1
Baseball-Mützen 1
Baseball-Pilot 1
Baseball-Stadion. 1
Baseballausrüstung 1
Baseballbekleidung 1
Baseballbrett, 1
Baseballcatcher 1
Baseballcatchers 1
Baseballfeld, 1
Baseballhandschuh 1
Baseballhandschuhen 1
Baseballmannschaft. 1
Baseballs 1
Baseballschläger, 1
Baseballschläger. 1
Baseballschlägern 1
Baseballspiel, 1
Baseballspielerin 1
Baseballspielern 1
Baseballstadion. 1
Baseballteam 1
Baseballuniform 1
Baseballuniformen 1
Basenmann 1
Basketball-Jersey 1
Basketball-Spiel 1
Basketball-Team 1
Basketball-Team, 1
Basketball-Tisch. 1
Basketball-Tores 1
Basketballarena 1
Basketballball 1
Basketballhaufen 1
Basketballhoop 1
Basketballhoop. 1
Basketballhoops. 1
Basketballmannschaft 1
Basketballplatz, 1
Basketballschläges. 1
Basketballspiel, 1
Basketballspielball. 1
Basketballspielerinnen 1
Basketballspielers 1
Basketballspiels. 1
Basketballteams 1
Basketballtrikot 1
Basketballuniform 1
Basking 1
Basrelief-Skulptur 1
Bass. 1
Bassistin, 1
Basstrommel 1
Bat. 1
Batman-Hemd 1
Batman-Kostüm 1
Batman-Pajamas 1
Batman-Spielwagen 1
Batman-Strümpfen. 1
Batman-Uniform 1
Batters. 1
Bau. 1
Bauarbeit. 1
Bauarbeiten, 1
Bauarbeitergruppe 1
Bauchkleid, 1
Bauchtänzer 1
Bauchtänzerin 1
Bauchtänzers 1
Bauern, 1
Bauernhaus, 1
Bauernhof, 1
Bauernhofs. 1
Bauernmarkttag, 1
Baufahrzeug 1
Baufässer 1
Baufässern 1
Baugewand 1
Bauhelm. 1
Bauhelmen 1
Baujacke. 1
Baujob 1
Baukegel. 1
Baukleidung 1
Baum; 1
Baumaterial 1
Baumbestand-Strecke 1
Baumbestandes. 1
Baumbestandpfad 1
Baumbild 1
Baumhaus. 1
Baumlinie 1
Baumlinie. 1
Baumschaukel 1
Baumschnittwerkzeugen. 1
Baumschnitzwettbewerb. 1
Baumstock 1
Baumstock. 1
Baumstraße 1
Baumstumpf 1
Baumstämmchen 1
Baumstämmchen. 1
Baumstöck 1
Baumwald 1
Baumwolle 1
Baumzweige 1
Bauplatz 1
Bauprojekt, 1
Bauprojekt. 1
Baus 1
Bauschild. 1
Baustelle, 1
Bauszene. 1
Bauteams 1
Bauwerk. 1
Bauwerks, 1
Bauwerkzeugen. 1
Bauwesen. 1
Bauzone. 1
Bauzäunen 1
Bay 1
Beach" 1
Beach-Volleyballspieler 1
Beachball 1
Beachvolleyball, 1
Beachvolleyballspiel. 1
Beachvolleyballspieler 1
Beamten. 1
Beanbag 1
Beanbags 1
Bear 1
Bears 1
Beatle 1
Beckens 1
Beckens, 1
Bedarf 1
Bedeutung. 1
Bediener 1
Bedienstete 1
Bedienung, 1
Bedingungen 1
Beerdigung 1
Beeren 1
Beetle 1
Befestigung 1
Begeisterung, 1
Beginn. 1
Begleitperson 1
Begraben 1
Behandlung 1
Behältern 1
Behältern. 1
Behörden, 1
Beifahrerseite 1
Beine. 1
Beinen, 1
Beinlifte 1
Beinverlängerungen 1
Beinwärmern 1
Beispiel 1
Bekannten 1
Bekleidung 1
Bekleidungsboutique 1
Bekleidungsgeschäfts, 1
Bekleidungsgeschäfts. 1
Bekleidungsmarkt. 1
Bellingham 1
Belohnung 1
Belohnungen 1
Benatar. 1
Benehmen 1
Benzin. 1
Beobachten 1
Beobachter) 1
Beobachter. 1
Beobachtern, 1
Beobachtern. 1
Beobachtungsdeck 1
Bereichen 1
Bereichs 1
Bereits 1
Beret, 1
Bereuungen 1
Bergbach. 1
Bergbau 1
Bergberg. 1
Bergblick. 1
Bergen, 1
Berges, 1
Berggebiet 1
Berghintergrund 1
Berghintergrund. 1
Bergholzgrenze 1
Bergkette 1
Bergkette. 1
Bergklippe. 1
Bergkulisse 1
Berglandschaft 1
Berglöwe 1
Bergpiste. 1
Bergregion 1
Bergrücken 1
Bergrückens 1
Bergseite 1
Bergspitze 1
Bergspitzen 1
Bergspitzen. 1
Bergsteigen. 1
Bergszene 1
Bergszene. 1
Bergwand 1
Bergwanderer 1
Bergwelt. 1
Bergwiesen 1
Bergzuges. 1
Bergüberblick 1
Bergüberblick. 1
Bericht 1
Berichte 1
Berlin 1
Berlin, 1
Berliner 1
Bermudashorts 1
Bernhard 1
Bernsteinflüssigkeit 1
Bernsteinflüssigkeit, 1
Berufskleidung 1
Berufung. 1
Beschlag 1
Beschreibung 1
Beschwerden 1
Besitzern. 1
Besitzers 1
Besitztümer. 1
Best 1
Bestand 1
Bestellungen 1
Bestrebungen 1
Besuch 1
Besucherin 1
Beton-Pfad 1
Beton-Picknickbank. 1
Betonanlegestelle 1
Betonbarrieren 1
Betonberg. 1
Betonblock 1
Betonblocks. 1
Betonblöcken 1
Betonboden 1
Betonfliese. 1
Betongebäude 1
Betongebäude. 1
Betonledge. 1
Betonlochs 1
Betonoberfläche. 1
Betonpark. 1
Betonplattform 1
Betonplatz 1
Betons. 1
Betonschiene. 1
Betonstatue 1
Betonstreifen 1
Betonstühl. 1
Betonsäule. 1
Betontreppe 1
Betontreppe. 1
Betontreppen. 1
Betonwand. 1
Betonwasserweg. 1
Betonweg. 1
Betonweges 1
Betonwände 1
Betrachter, 1
Betrachter. 1
Betriebes 1
Bettbezügen 1
Bettdecke 1
Betten, 1
Bettlaken 1
Bettler. 1
Bettwäsche 1
Bettwäsche. 1
Beuteln 1
Bevor 1
Bevölkerungsbereich. 1
Bewegung, 1
Bewegung; 1
Bewegungen. 1
Bewegungszug 1
Beweis 1
Bezahlung 1
Biber 1
Bicyclisten 1
Bieber. 1
Biek 1
Bier- 1
Bierdosen. 1
Bieres. 1
Bierhahn. 1
Biers. 1
Biersorten 1
Bigrig-LKW. 1
Bike-Anzügen 1
Bike-Rennen 1
Bike-Shirt 1
Bike-Sprung 1
Bikegewand 1
Bikemechaniker 1
Biker. 1
Bikerin 1
Bikern, 1
Bikers" 1
Bikes, 1
Bikespringen. 1
Biking 1
Biking-Kleidung. 1
Bikini- 1
Bikini-Bademänteln 1
Bikini-Frau. 1
Bikini-Set 1
Bikinihose 1
Bikinitop, 1
Bikinitop. 1
Bildern, 1
Bildes 1
Bildschirmen, 1
Billardkugel 1
Billards 1
Billardschlag 1
Billardschuss 1
Billardstick 1
Billardtisch 1
Bills." 1
Billy 1
Binden 1
Binder. 1
Bingo. 1
Binky 1
Binoculars. 1
Bio-Früchte 1
Biohazard-Anzügen 1
Biplan 1
Birmingham. 1
Birne 1
Birthday, 1
Bison 1
Biss. 1
Bistro. 1
Bistros. 1
Bitte 1
Black 1
Blackberry. 1
Blake 1
Blasen, 1
Blasenblasengebläse. 1
Blasenfinger. 1
Blasenflöten. 1
Blasenmaschine. 1
Blasinstrument, 1
Blasinstrumente 1
Blasklarinette. 1
Blauen 1
Blauer 1
Blauhosen 1
Blaujacken 1
Blazer. 1
Blech 1
Bleiben 1
Bleistiftrock 1
Blicke 1
Blicken 1
Blickfeld, 1
Blinddate 1
Blindenmasken 1
Bling 1
Blockbuster-Video 1
Blockflöte 1
Blockflöte. 1
Blockhütte 1
Blockmauer 1
Blockparty. 1
Blockturm 1
Blond-Junge 1
Blond-Kind 1
Blonde 1
Blondhaarer 1
Blondhaarige 1
Blondin, 1
Blondine, 1
Blondine. 1
Blondinnen, 1
Blowtrockner 1
Blues 1
Blues-Schuhen 1
Blumen-Bikini 1
Blumenarrangement 1
Blumenarrangements 1
Blumenbekleidung 1
Blumenbestand 1
Blumenbett 1
Blumenbett. 1
Blumenblättern 1
Blumenbündel. 1
Blumendruck, 1
Blumendruck-Waschtasche, 1
Blumendrucken 1
Blumendruckshorts 1
Blumengarten 1
Blumengarten. 1
Blumenhauben 1
Blumenhemd. 1
Blumenhändler 1
Blumenhüten 1
Blumenkarren 1
Blumenkleid, 1
Blumenkleid. 1
Blumenkoffer 1
Blumenkorbs. 1
Blumenkostüme 1
Blumenmarkt 1
Blumenmotiven 1
Blumenmuster 1
Blumenmutter 1
Blumensessel 1
Blumenstand. 1
Blumenstuhl 1
Blumenszene 1
Blumenteppich. 1
Blumentopf 1
Blumentopf, 1
Blumentopf. 1
Blumentuch 1
Blumentöpfe 1
Blumentöpfe. 1
Blumentöpfen. 1
Blumenwagen, 1
Blumenwänden. 1
Blur-Shirt 1
Blutprobe 1
Blutzellen. 1
Bläser 1
Bläserkapelle. 1
Blätterbläser 1
Blätterbläser. 1
Blätterkronen 1
Blätterkuchen 1
Blättern, 1
Blätterstapel, 1
Blöcken, 1
Blüte, 1
Blüte. 1
Blüten, 1
Blüten. 1
Blütenblätter 1
Blütenjacke, 1
Bmx-Bike, 1
Bmx-Fahrrad 1
Bmx-Rennen 1
Board, 1
Boarding 1
Boards 1
Boardshorts 1
Bobslederteam 1
Bocciabälle. 1
Bodenarbeiten 1
Bodenbereich. 1
Bodengestützte 1
Bodenhosen, 1
Bodens. 1
Bodyboard. 1
Bodyboarder 1
Bodybuilder 1
Bodybuilder. 1
Bodysuit, 1
Bodysuit. 1
Bodysuits 1
Bogengang 1
Bohrer 1
Bollywood-Tänzer 1
Bombardier 1
Bombermütze 1
Bon 1
Bonding 1
Bongo 1
Bongo-Spieler 1
Bongo-Trommel. 1
Bongo. 1
Bongos 1
Boogieboards, 1
Boote, 1
Booten, 1
Bootsanleger 1
Bootsanleger, 1
Bootsanlegers. 1
Bootsdeck. 1
Bootsfahrern 1
Bootsfahrern, 1
Bootsfahrt 1
Bootsfähre 1
Bootsmann 1
Bord. 1
Botenrücken 1
Bottle. 1
Bottoms, 1
Bottoms. 1
Boulevard. 1
Boulevards, 1
Bounce 1
Bouncer. 1
Boutique. 1
Bowl 1
Bowl. 1
Bowlermütze 1
Bowling-Loch 1
Bowling-Pen 1
Bowling-Pin, 1
Bowling-Pins 1
Bowling-Pins. 1
Bowling-Schuß 1
Bowling-Verbündeten. 1
Bowlingball, 1
Bowlingball. 1
Bowlingballs. 1
Bowlingspiel 1
Bows 1
Boxenmannschaft 1
Boxenmannschaftsleiter 1
Boxenschneider 1
Boxenteam 1
Boxerinnen 1
Boxern 1
Boxern. 1
Boxhaltung 1
Boxhandschuhe 1
Boxing. 1
Boxring 1
Boxring. 1
Boy, 1
Bradford's. 1
Braid, 1
Braiden 1
Brand. 1
Brasilien-Flagge. 1
Brasilien-Hemd 1
Brasilien. 1
Bratwurst 1
Braun-Markierungen 1
Braun-Recliner. 1
Braun-Weiß-Windhund 1
Brauner, 1
Braunhaarige 1
Braunhaariger 1
Braunhaariges 1
Brautbräute 1
Brautdamen 1
Brautdamen. 1
Brautflechte 1
Brautgruppe 1
Brautkleides. 1
Brautmann 1
Brautpaare 1
Brautseite 1
Brautsinnen 1
Brautstuten 1
Brautveil. 1
Breakdance, 1
Breakdancer 1
Breakdancern 1
Breakdancing. 1
Breeze, 1
Breitbildfernseher, 1
Bremswand 1
Brenmark 1
Brett, 1
Brett- 1
Brettern 1
Brettspiel, 1
Brettspiele. 1
Brewing" 1
Bridges, 1
Brief 1
Brief. 1
Briefbox. 1
Briefkarren 1
Briefmarke 1
Briefs 1
Brieftasche, 1
Briefträger 1
Brillenträgerinnen 1
Brim 1
Brimmedahl 1
Brimshauben 1
Brise 1
Broad 1
Broadway-Bühne 1
Bronco, 1
Bronislaw 1
Bronze-Geläser 1
Bronzestatue. 1
Broschüre, 1
Brot, 1
Brotbrote. 1
Brotkartons 1
Brotstand, 1
Brotstand. 1
Brownies 1
Bruce 1
Bruder, 1
Bruders 1
Brulee 1
Brunnenrand 1
Brustbereich 1
Brusten 1
Brustmann 1
Brutalität 1
Bryant 1
Bräutigam. 1
Brückenhunde 1
Brückentreppe 1
Brüsten. 1
Bubble 1
Buche. 1
Buches, 1
Buches. 1
Buchfenster. 1
Buchhandlung. 1
Buchladen. 1
Buchmesse 1
Buchsack 1
Buchsignatur. 1
Buchstaben. 1
Buchstabenform 1
Buchstabens 1
Buchverkauf. 1
Bucking-Bohrer 1
Bucking-Bronco. 1
Bucking-Pferdes 1
Bucks. 1
Bud 1
Buddhas. 1
Buddhistischer 1
Budget 1
Budweiser 1
Budweiser-gesponsertes 1
Buffettisch, 1
Bug 1
Buggy 1
Bugs 1
Bull 1
Bull-Auto. 1
Bull-Material 1
Bulldog 1
Bulldoggen, 1
Bulldozer. 1
Bulldozers. 1
Bulle 1
Bullen 1
Bullen, 1
Bulletin 1
Bullhorn. 1
Bum 1
Bummeln 1
Bun 1
Bund 1
Bund, 1
Bundtkuchen 1
Bungees 1
Bungees. 1
Bungeespringen. 1
Bungeesprung 1
Bungie-Sprungfahrt. 1
Bunnenkostüm 1
Bunny 1
Burberry 1
Burg 1
Burka-bekleidete 1
Burrito. 1
Burritos 1
Bus-Dorf, 1
Busbahnhof. 1
Busbank 1
Buschs 1
Bush 1
Bushaltestelle, 1
Bushaltestellen-Gehäuse. 1
Business-Anzug, 1
Business-Anzug. 1
Business-Kleidung. 1
Businessanzug 1
Busker 1
Buspassagiere 1
Busse 1
Bussen. 1
Busters 1
Butter 1
Butter. 1
Butterfly-Stroke 1
Button 1
Buy-Shop. 1
Bäcker, 1
Bäckerei. 1
Bällen 1
Bällern 1
Bändern. 1
Bändertänzerin 1
Bänke 1
Bänken, 1
Bären-Standards 1
Bären. 1
Bärenanzug, 1
Bärenhandschuhen. 1
Bärenstatue, 1
Bärenstiefel. 1
Bögen. 1
Böse 1
Bücher, 1
Bücherhaube 1
Bücherregal. 1
Bücherregalen 1
Bücherregals. 1
Büchersack 1
Büffel 1
Bühnenlicht 1
Bühnenlicht. 1
Bühnenlichts 1
Bühnenset 1
Bühnenshow 1
Bündchen. 1
Bürgerinnen 1
Bürgerkrieges 1
Bürgerkriegssoldaten, 1
Bürgersteig, 1
Büro, 1
Büro-ähnlichen 1
Büroangestellte 1
Bürobereich. 1
Bürogebäude 1
Bürogebäudes. 1
Bürogeräten. 1
Bürokratie 1
Büroparty. 1
Bürostühlen 1
Bürste. 1
Bürsten, 1
Büsche, 1
Büschenland. 1
Büste 1
Büste, 1
C 1
C.D's. 1
CASQUE 1
CD-Galerie. 1
CGT 1
CYFD 1
Cabana 1
Cabrio. 1
Cache, 1
Caddy 1
Cafes. 1
Cafeteria. 1
Cafés. 1
Calzone 1
Camcorder 1
Camcorder, 1
Camcorder. 1
Camelbak 1
Camouflagehose 1
Camouflagejacke 1
Camp 1
Camp, 1
Camp-Betreuer 1
Campgruppe. 1
Camping 1
Camping. 1
Campingausrüstung. 1
Campingplatz, 1
Campingplatzes. 1
Campingplätze 1
Campingstuhl 1
Campingstuhl. 1
Campingzelt, 1
Campleiter 1
Campstühlen 1
Campus 1
Campus. 1
Candy 1
Canon-Kamera. 1
Cap 1
Cappuccinos. 1
Capri 1
Caprihosen 1
Capture 1
Car 1
Car. 1
Carabiner 1
Carcassonne 1
Cardigan 1
Care 1
Care". 1
Carhartt 1
Carnegie 1
Carolina 1
Cart 1
Cart. 1
Cartoon 1
Cartoon-Maskottchen 1
Cartoons 1
Casino-Atmosphäre. 1
Casino-Videospiel 1
Casinotisch. 1
Casterol-Logo 1
Castle 1
Castro 1
Castro. 1
Catch. 1
Catcher. 1
Catchers 1
Catering-Unternehmen. 1
Caucasus, 1
Caucasus-Männern 1
Cellist 1
Cello, 1
Cello-Instrument. 1
Celtics 1
Center, 1
Centers. 1
Central 1
Centre. 1
Challenge 1
Challenge. 1
Champagner 1
Champagner- 1
Chan 1
Chance 1
Channel 1
Chaos 1
Chaparral, 1
Chasers 1
Chat. 1
Cheap 1
Check 1
Check-out. 1
Checkout 1
Checkout-Schalter 1
Checkout-Zeile. 1
Checkout. 1
Checkpoint 1
Cheerleader-Squad, 1
Cheerleaders 1
Cheerleaderteam 1
Cheerleading-Moves 1
Cheesecake 1
Chef." 1
Chefuniform 1
Chelsea-Fußballspieler 1
Chemie-Klassenzimmer; 1
Chemiestudent 1
Chemikalie 1
Chemise. 1
Cher. 1
Cherokee 1
Chevrolet 1
Chevron 1
Chevy-Van. 1
Chi 1
Chicagoer 1
Chiefs 1
Chili-Käse-Hotdog. 1
Chilidämpfen 1
China-Männer, 1
Chinatown-Sektion 1
Chinatowns 1
Chines-Tempel. 1
Chinese-American 1
Chip 1
Chip-Restaurant 1
Chip-Set 1
Chips 1
Chips. 1
Chirurg 1
Chirurgenkleidern 1
Chirurgie 1
Chor. 1
Chorpraxis 1
Chorvortrag 1
Chun 1
Chung 1
Cigar 1
Circus 1
Circus. 1
Cirque 1
Classic. 1
Claus, 1
Clear" 1
Clear. 1
Clippers, 1
Clown-Face-Farben 1
Clown-Kleidung 1
Clown-Kleidung, 1
Clown-Makeup. 1
Clown-Maske 1
Clowngewandte 1
Clownin 1
Clownkleidung 1
Clownkostüm, 1
Clowns, 1
Clowns. 1
Clubs. 1
Clue-Statue 1
Clydesdale-Pferd 1
Coca-Cola-Hemd 1
Coca-Cola-Saftfontäne. 1
Coca-Cola-Schild 1
Coca-Cola. 1
Cockpitfenster 1
Cocktails 1
Code 1
Coffee 1
Coke-LKW 1
Coke. 1
Cola-Gebäude 1
Cola-Hemd 1
Cola-LKW. 1
Collector" 1
College-Alter 1
College-Basketballspieler 1
College-Boys 1
College-Fußballspiel. 1
College-Fußballspieler 1
College-Kinder 1
College-Studenten 1
College-Studenten, 1
Coloring 1
Coloring-Buch 1
Coloring-Büchers. 1
Columbia 1
Comcast 1
Comicbuch. 1
Comics. 1
Company 1
Company-Geschäft 1
Company. 1
Computer-Arbeitsstation 1
Computer-DJ-Geräten. 1
Computerbank 1
Computerbildschirm, 1
Computergeschäft. 1
Computerklasse. 1
Computerlabor 1
Computermonitor, 1
Computermonitore. 1
Computerprojekt. 1
Computers. 1
Computerstation. 1
Computersystem 1
Computerteil 1
Computerterminals 1
Computerterminals. 1
Computertest 1
Computertisch 1
Computertischen 1
Concert 1
Concert" 1
Concords 1
Conditioner 1
Cones 1
Cones. 1
Conference 1
Connah 1
Container 1
Container, 1
Contest. 1
Converse-Schuhe 1
Cookie 1
Cookie. 1
Copiloten. 1
Corduroy 1
Corgie 1
Corgis 1
Corndogs 1
Corp 1
Corporation 1
Cosplay 1
Costa 1
Costco-Shops. 1
Couchtisch. 1
Counter 1
Country-Band 1
Country-Musik-Gruppe 1
Countrymusiker 1
Court-Betreuer 1
Court-side 1
Cowboy" 1
Cowboy-Hütten. 1
Cowboy-Kleidung. 1
Cowboy-Mütze, 1
Cowboy-Outfits 1
Cowboy-Waist, 1
Cowboymütze 1
Cowboys, 1
Cowboystiefeln, 1
Cowgirl-Mütze 1
Cowgirl-Mützen 1
Cowgirls 1
Crayola 1
Crayola-Kreuzchen 1
Cream". 1
Creme-Tanktop 1
Cremeanzug 1
Crememantel 1
Cricket-Schlagzeuger 1
Cricket-Uniform 1
Cricket. 1
Cricketspiel 1
Cricketspiel. 1
Cristy 1
Crocs 1
Crocs. 1
Croquet 1
Cross 1
Cross-Fit. 1
Cross. 1
Crossbike 1
Crosse. 1
Crushers, 1
Cruz. 1
Cue-Karte 1
Culotten 1
Cunningham 1
Cupcake 1
Cupcake-Formen 1
Cupcake-Hemd 1
Cupcake. 1
Curling 1
Curling-Eisen 1
Curry-Linie. 1
Cutoffs 1
Cyclone-Thrill-Ride 1
Cyclothon 1
Cyranka 1
D 1
DAHLAK 1
DHL-Mitarbeitern 1
DIEGO, 1
DIESES 1
DIO-Shirt 1
DJ-Ausrüstung 1
DJ-Ausrüstung, 1
DJ-Host 1
DJ-Spiel. 1
DJ-Stand. 1
DMC 1
DS. 1
DU 1
DVD-Spiel. 1
Da 1
Dachdach 1
Dachdach. 1
Dachfenster 1
Dachfenstern. 1
Dachs 1
Dachsel 1
Dachshunde 1
Dachskater 1
Dachterrasse 1
Dachziegel. 1
Dachziegeln. 1
Dalmatin 1
Dalmatinen 1
Dalmation 1
Damen. 1
Damenbad. 1
Dampfbrillen 1
Dampfes. 1
Dampfmaschine 1
Dance. 1
Dandelion. 1
Daniels 1
Dank 1
Darbietung 1
Daredevils 1
Dart. 1
Darte. 1
Darts 1
Darts. 1
Dashiki 1
Datei 1
Daumen" 1
Daumen-Up 1
Daumen-Up. 1
Daunen 1
Daunenjacke, 1
Dave 1
David. 1
Davidstern. 1
Day", 1
Dayglo 1
De 1
Dead 1
Dealer. 1
Dealers 1
Deckeln 1
Deckenplatte 1
Decks. 1
Deckung 1
Deep 1
Deere-Farmgeräts. 1
Dekolletés 1
Dekorationen, 1
Dekorplatte 1
Deleon 1
Delfine 1
Deli". 1
Delikatessen. 1
Delikatessenküche. 1
Delikatessenladen 1
Delikatessenladens. 1
Delwood 1
Demonstrant 1
Demonstrant, 1
Demonstrantin 1
Demonstration. 1
Denken 1
Denken, 1
Denkmal, 1
Denkmals. 1
Dennis 1
Deponiefahrzeug 1
Deponiefahrzeugs. 1
Depressiv 1
Derby-Gewändern 1
Design-Shirt 1
Designer, 1
Designer-Schirm. 1
Designer-Tote 1
Designerhandtasche 1
Designtisch 1
Dessert 1
Dessert-Mischung. 1
Dessert. 1
Desserts. 1
Dessous-Anzeige. 1
Dessous-Kollektion 1
Detailladen 1
Detailmal. 1
Details 1
Deutschland, 1
Dia 1
Diagramm. 1
Diagramme 1
Diamanten-Print 1
Diashow-Projektion. 1
Diashow. 1
Didgeridoo 1
Dienste 1
Dienstes 1
Dienstleistungen 1
Diet 1
Differenzen 1
Digital 1
Digitalkamera, 1
Diner 1
Diners, 1
Dinge, 1
Dinge. 1
Dingen. 1
Dingy 1
Dinosaurier 1
Dinosaurier-Ausstellung 1
Dinosaurier. 1
Dinosaurierspielzeug. 1
Dinosaurierstatue. 1
Dinosaurierstuhl 1
Dinoskelett 1
Dior 1
Diplom 1
Diplome. 1
Diplomstudent 1
Direktboxen 1
Dirkbike. 1
Dirt-Strecke 1
Dirt. 1
Dirtbike-Piste. 1
Dirtbike-Racer 1
Dirtbike-Rennens. 1
Dirtbike-Rennfahrer 1
Dirtbikeausrüstung 1
Dirtbikes 1
Dirty 1
Disco. 1
Discount 1
Dishdashas, 1
Diskothek. 1
Diskus. 1
Disney 1
Disney's 1
Disney-Charakter 1
Disney-Charakteren. 1
Disney-Filmen 1
Display-Gerät 1
Display-Kasten. 1
Display-Tisch. 1
Distanz, 1
Distanzläuferin, 1
Diät 1
Do-Wettbewerb, 1
Dobermann 1
Dobermans 1
Dodgeridoos 1
Dodgers 1
Dojo 1
Dokumente 1
Dolch 1
Dolche 1
DollHouse. 1
Dollarsymbolen 1
Domingo. 1
Domino 1
Domino's 1
Dominos 1
Dominos, 1
Dominospiel. 1
Dominosteinen 1
Donald 1
Donut, 1
Donuts. 1
Doo 1
Doo-rags 1
Doppelbassinstrument 1
Doppeldecker-Tourbusses 1
Doppelschale 1
Doppelspiel 1
Doppeltennisspiel. 1
Dorado 1
Dorf, 1
Dorfbewohnerin 1
Dorfeinkäufer 1
Dorfstraße 1
Dorothy-Kostümträgerin 1
Dose, 1
Dosenblöcke. 1
Dr 1
Dr. 1
Drachen-Puppen 1
Drachenkostüm 1
Drachenkostüme. 1
Drachentanzes 1
Draht. 1
Drahtbrücke 1
Drahtgitter. 1
Drahtgitterzaun 1
Drahtseil 1
Drahtspule. 1
Drahtturm, 1
Drahtzaunen. 1
Drahtzäunen 1
Drainagebereich. 1
Drape-Bezug 1
Dreck. 1
Drehen 1
Drehungen. 1
Dreieck 1
Dreieck. 1
Dreieckskostüm 1
Dreiergruppen 1
Dreirad-Rollers, 1
Dreiradfahrzeug 1
Dreiradfahrzeuge. 1
Dreiradmotorrad. 1
Dreiradrad 1
Dreiradrickshaws. 1
Dreirads 1
Dreiräder. 1
Dreisektionstab 1
Dreistöckiges 1
Dress-up-Spielart 1
Drill 1
Drink! 1
Drink, 1
Drink. 1
Drittel 1
Drittweltland 1
Driver 1
Driving 1
Droney 1
Dropdown-Bildschirm. 1
Drucke 1
Drucken 1
Druckmaterial 1
Druckreiniger 1
Drummer 1
Drähte. 1
Drähten, 1
Drähten. 1
Dschungel, 1
Dschungel-Gym 1
Dschungelgebiet 1
Dschungelgymnasium. 1
Dschungelgymnasiums, 1
Dschungelgymnasiums. 1
Dschungelhauben 1
Dudelsack, 1
Dudelsack-Straße-Performer 1
Dudelsackdudelassen 1
Dudelsackdudelsackern 1
Dugout. 1
Dunce-Mütze 1
Dung 1
Dunk, 1
Dunkel 1
Dunkelbild 1
Dunkeler 1
Dunkelhaariger 1
Dunkelhäutige 1
Dunkelmarkt. 1
Dunking 1
Durch 1
Durcheinander 1
Durchfahrt 1
Durchgang. 1
Durchschnittliche, 1
Duschen 1
Duschen. 1
Dutzenden 1
Dächer, 1
Dünenfeldern. 1
Dünenschlitten. 1
Dünger. 1
Dünnwurf. 1
EC. 1
EL 1
Earth 1
Easy-Knopf 1
Eating 1
Ebay-Geschäft 1
Ebene 1
Ebene, 1
Ebene. 1
Ebenen 1
Ebenen. 1
Eckcafé 1
Ecke, 1
Ecke. 1
Eckladen 1
Eddies 1
Ehebruch, 1
Eheschein 1
Eheschläfer 1
Eicheln 1
Eichelschalen 1
Eichenbaum. 1
Eidechse 1
Eidechsen 1
Eier. 1
Eiergebilde. 1
Eierkarren 1
Eiern, 1
Eik 1
Eile 1
Eimerlift 1
Eimern. 1
Eimers 1
Eimerschwingen. 1
Einbahnstraße. 1
Eindruck, 1
Einfahrt, 1
Einfahrtsweges. 1
Eingangs 1
Eingangsbereich, 1
Eingeborenen 1
Eingeborenenladen. 1
Eingeborener 1
Eingängen. 1
Einheimischer 1
Einheimischer, 1
Einkauf 1
Einkaufen. 1
Einkaufsbummels 1
Einkaufsfrau 1
Einkaufsliste, 1
Einkaufsstraße 1
Einkaufsstraße. 1
Einkaufstag 1
Einkaufstag. 1
Einkaufstasche, 1
Einkaufstaschen. 1
Einkaufstüte. 1
Einkaufsviertel. 1
Einkaufswagens, 1
Einkaufszentrum, 1
Einklang 1
Einkäufen 1
Einkäufern 1
Einkäufern, 1
Einkäufern. 1
Einlaufen 1
Einmannband 1
Einrad 1
Einrad. 1
Einrichten 1
Einrichtung. 1
Einrichtungen. 1
Einsame 1
Einsamkeitsboot 1
Einsatz 1
Einschlag 1
Einseher 1
Einstellung. 1
Einstieg 1
Einstückanzug 1
Einteiler 1
Einwanderung 1
Einzelballspiel. 1
Einzelhandel 1
Einzelhandelsgeschäft 1
Einzelhandelsgeschäft) 1
Einzelhandelsgeschäft. 1
Einzelner, 1
Einzelpersonen 1
Eisbechers. 1
Eisblock 1
Eisblöcke 1
Eisblöcken 1
Eisboden. 1
Eisbärenanzug 1
Eiscreme-Kegel, 1
Eiscreme-LKW 1
Eiscreme-Snack. 1
Eiscremescontainern. 1
Eisdielenwagen 1
Eisen. 1
Eisenbahn 1
Eisenbahn-Krieg 1
Eisenbahn. 1
Eisenbahnarbeiter 1
Eisenbahnbrücke 1
Eisenbahner 1
Eisenbahngleise. 1
Eisenbahnhof 1
Eisenbahnkreuz 1
Eisenbahnschienen. 1
Eisenbahnwagen. 1
Eisenbahnübergang. 1
Eisenbalken 1
Eisenbrett 1
Eisenmaschine. 1
Eisenstöcke. 1
Eisenzaun 1
Eisenzauns. 1
Eisherz. 1
Eishockey-Gouverneur 1
Eishockey. 1
Eishockeyspiel 1
Eishockeyspiels 1
Eishockeyspiels. 1
Eishokey 1
Eishöhle 1
Eiskarren 1
Eiskasse, 1
Eiskern 1
Eiskletterausrüstung 1
Eiskonden 1
Eiskondensator 1
Eiskranz 1
Eiskrem. 1
Eiskunstläufer 1
Eiskunstläufer, 1
Eiskühler. 1
Eisladen. 1
Eisladens 1
Eisladens. 1
Eislauf 1
Eislauf-Lektion 1
Eislaufen, 1
Eislaufrennen 1
Eislaufschuhen. 1
Eislaufzeug. 1
Eisläuferinnen, 1
Eispops 1
Eisschuhen 1
Eisskulptur 1
Eissorten 1
Eisstück. 1
Eisstücken. 1
Eissäcken 1
Eiswand. 1
Eiswörterbuch 1
El 1
Elch 1
Elchkopf. 1
Elefant, 1
Elefanten, 1
Elefantenausstellungsobjekt 1
Elefantenkleid 1
Elefantenspielzeug. 1
Elektro-Cello. 1
Elektroarbeiter 1
Elektrobohrmaschine, 1
Elektrocello. 1
Elektrogitarren. 1
Elektroinstrumente 1
Elektronik-Bereich 1
Elektronik-Labor-Set. 1
Elektrorasierer. 1
Element. 1
Elementary 1
Elemente 1
Elfenhauben 1
Ellbogen- 1
Ellenbogen 1
Ellenbogen. 1
Elmo-Hemd 1
Elmo-Puppe. 1
Elmos 1
Eltern. 1
Elton 1
Em! 1
Emotionen 1
Empanadas 1
Empanadas-Geschäft. 1
Empfangs. 1
Empfangsschalter. 1
Empfänger 1
End" 1
Ende. 1
Enden. 1
Endurance-Test 1
Engel. 1
Engelflügeln 1
Engelkostüm 1
Engeln 1
Engels, 1
Engelstatue 1
England-Trikot 1
England. 1
Enkelin, 1
Entdecker 1
Entertainerin 1
Entfernung 1
Epee-Kampf. 1
Episoden 1
Erbes 1
Erbsen, 1
Erdbagger. 1
Erdbeere, 1
Erdbeere. 1
Erdbeeren 1
Erdbeerenfahrt 1
Erdbewegungsmaschinen 1
Erdboden 1
Erdbodenberg 1
Erdefeld 1
Erdenstruktur. 1
Erdestraße 1
Erdgeschossbecken. 1
Erdhaufen 1
Erdhaufen. 1
Erdmound, 1
Erdnüssen. 1
Erdnüsseröhre. 1
Erdrutsche, 1
Ereignis. 1
Ereignisses. 1
Erfassung 1
Erfindung 1
Erfolg 1
Erhebung. 1
Erinnerung 1
Erinnerungen 1
Erinnerungsbox. 1
Erinnerungsstücken 1
Ernten, 1
Ernten. 1
Errichtung 1
Errungenschaften. 1
Ersatzteil 1
Erschöpfung 1
Erstaunen 1
Erstellung 1
Erwachsene. 1
Erwachsenen" 1
Erwachsenenalter 1
Erwachsenerbetreuung. 1
Erzeugnisse. 1
Erzeugnissen. 1
Eröffnung 1
Eröffnungsshow 1
Escalier. 1
Escape 1
Esel. 1
Eskalator. 1
Essens 1
Essens-Workshop. 1
Essens. 1
Essplatz 1
Esstisch, 1
Esstischen 1
Esszimmer 1
Esszimmer, 1
Etage, 1
Etage. 1
Etappe 1
Ethnizität, 1
Etikett 1
Etiketten. 1
Euch 1
Eule 1
Eulen-T-Shirt 1
Euro" 1
Europa 1
Executive-Kleidung 1
Exemplar 1
Exibit 1
Experiment, 1
Experiment. 1
Experten-Schild, 1
Express" 1
Express. 1
Extrembiker 1
Extrembiker, 1
Exuma 1
F 1
FC 1
FROG 1
Fabelflügeln 1
Fabrik, 1
Fabrikgelände 1
Fabrikraum 1
Face 1
Face-off 1
Fachleuten, 1
Fachmann 1
Fachwissen 1
Fackeln 1
Factory 1
Factory-Schild 1
Faden, 1
Faden. 1
Fahnenstöck 1
Fahrbahnen 1
Fahrer, 1
Fahrer. 1
Fahrerin 1
Fahrers. 1
Fahrerseite 1
Fahrersitz. 1
Fahrgäste 1
Fahrgästen 1
Fahrpreis 1
Fahrrad-Stunt 1
Fahrrad-ähnliches 1
Fahrradbahn. 1
Fahrradbote 1
Fahrrades, 1
Fahrradfahrer 1
Fahrradfahrt 1
Fahrradhelm, 1
Fahrradhelm. 1
Fahrradkabinen 1
Fahrradkarren 1
Fahrradkette 1
Fahrradkisten 1
Fahrradladen. 1
Fahrradmechaniker 1
Fahrradpeddal. 1
Fahrradpolizist 1
Fahrradrahmen 1
Fahrradrake 1
Fahrradraket. 1
Fahrradreifenringe. 1
Fahrradrickshaw 1
Fahrrads, 1
Fahrradsitz 1
Fahrradspringen, 1
Fahrradsprung 1
Fahrradstange 1
Fahrradtaxi 1
Fahrradtrick 1
Fahrradträger, 1
Fahrradverleihschild. 1
Fahrradwagen 1
Fahrtreppen, 1
Fahrwerkbrücke, 1
Fahrzeuge. 1
Fahrzeugtypen, 1
Fahrzeugverkehr 1
Fake-Polizeibeamter 1
Falken-Outfits 1
Fall. 1
Falle 1
Fallenpass 1
Falles 1
Fallschirm, 1
Fallschirme. 1
Fallschirmen 1
Fallschirms. 1
Fallschirmskifahrer, 1
Fallschirmspringanlage 1
Fallschirmspringen 1
Fallschirmspringen, 1
Faltenstuhl. 1
Faltschreibstuhl 1
Faltscooter 1
Faltstuhl. 1
Faltstühlen. 1
Faltventilator, 1
Fame, 1
Familiencamping 1
Familienfeier 1
Familienfoto-Op. 1
Familienfoto. 1
Familiengruppen 1
Familienhaus. 1
Familienmitgliedern 1
Familientanz 1
Familienzimmer. 1
Fan. 1
Fanfest 1
Fangfängen 1
Fanny-Pak 1
Fantasie-Poster. 1
Farbanzüge 1
Farbblock-Quilt. 1
Farbdosen. 1
Farben. 1
Farbfernseher-Schild. 1
Farbreibungen 1
Farbspektakel 1
Farbspektrum 1
Farbtafeln 1
Fargo. 1
Farm. 1
Farmausrüstung. 1
Farmosa 1
Farms". 1
Farnblätter 1
Farne. 1
Farnen. 1
Fashioned 1
Fasteners. 1
Fastfood-Restaurant. 1
Fat 1
Fauna 1
Fecht. 1
Fechten, 1
Fechten. 1
Fechtenaktivität 1
Fechtenklasse 1
Fechtenkleid, 1
Fechtenkleidung 1
Fechtenspiel 1
Fechtenspiel. 1
Fechtkurs 1
FedEx 1
Federboa 1
Federbrett 1
Federbrett. 1
Federhauben 1
Federkleid 1
Federkleidern 1
Federkopfdekoren 1
Federmütze 1
Federmütze, 1
Federventilator 1
Fedora, 1
Feen, 1
Feen. 1
Feierlichkeiten 1
Feiern 1
Feiern, 1
Feiertage. 1
Feiertagnacht. 1
Feingefühl 1
Felder 1
Felder. 1
Feldern, 1
Feldes, 1
Feldhockeyspieler 1
Feldkrankenhaus 1
Feldtot 1
Feldübungen. 1
Fell. 1
Fellfreund. 1
Fels- 1
Felsboden 1
Felsen-Ausstellung. 1
Felsenbildhauer, 1
Felsendenkmal 1
Felsenfluss 1
Felsengrube, 1
Felsenhaufen 1
Felsenkante 1
Felsenklippe 1
Felsenklippe. 1
Felsenrand 1
Felsenriff 1
Felsens, 1
Felsensteg 1
Felsenteich 1
Felsenweg 1
Felsenweg. 1
Felsformation, 1
Felsoberfläche. 1
Felszaun 1
Female 1
Fence. 1
Fensterausstellung. 1
Fensterglas 1
Fensterhof 1
Fensterkäfig. 1
Fensterrand 1
Fensterrand, 1
Fensterreiniger 1
Fensters, 1
Fensterschiebe. 1
Ferien. 1
Fernaufnahme 1
Fernbedienung. 1
Fernglas, 1
Fernglas. 1
Fernglase. 1
Fernrohr, 1
Fernsehbildschirme 1
Fernsehbildschirms 1
Fernsehen, 1
Fernsehers, 1
Fernsehkamera 1
Fernsehkameras, 1
Fernsteuerflugzeug. 1
Ferris 1
Ferris-Rad 1
Ferse 1
Fersen 1
Fersenstiefeln 1
Fess 1
Fest, 1
Feste 1
Festes 1
Festival, 1
Festivalbesucher 1
Festivalrutsche. 1
Festivals. 1
Festlichkeiten 1
Festung 1
Festung. 1
Festungs-ähnlichen 1
Fetch. 1
Feuchtgebiet 1
Feuchtgebiete. 1
Feuerausrüstung 1
Feuerball 1
Feuerball. 1
Feuerhydrant 1
Feuerhydrant, 1
Feuerhydranten, 1
Feuerhydranten. 1
Feuerjuggling-Show 1
Feuerkorb 1
Feuerlinie 1
Feuerlöscher. 1
Feuerlöschers 1
Feuerlöschfahrzeug 1
Feuerlöschfahrzeug. 1
Feuerlöschmaschine 1
Feuerlöschstollen. 1
Feuerofen 1
Feuers 1
Feuers. 1
Feuerschlauch, 1
Feuerstaucher 1
Feuerstöcken 1
Feuertanz. 1
Feuertänzern. 1
Feuerwehrfahrzeug. 1
Feuerwehrfahrzeugs. 1
Feuerwehrhemd. 1
Feuerwehrmann, 1
Feuerwehrmanns 1
Feuerwehrmantel 1
Feuerwehrmütze 1
Feuerwehrmütze, 1
Feuerwehrteam 1
Feuerwehrwagenleiter, 1
Feuerwehrwagens. 1
Feuerwerken 1
Feuerwerkskörper 1
Feuerzeug, 1
Fiddle 1
Fidel 1
Figur, 1
Figuren, 1
Figurenskater 1
Film-Set 1
Filmbesatzungen 1
Filmcharakter 1
Filmcrew 1
Filmen 1
Filmplakat 1
Filmplakat. 1
Filmplakaten. 1
Filmset 1
Filmset, 1
Filmwerbung. 1
Finger, 1
Fingern, 1
Fingernagel 1
Fingernagelpaste 1
Fingernagelputz 1
Fingernägel 1
Fingernägeln 1
Fingernägeln. 1
Fingerspitzen 1
Fingerspitzen. 1
Finley 1
Fire" 1
Fired 1
Firefox-Seite 1
Firma 1
Firmenfeier. 1
Firmenkomplex 1
Fischabteilung, 1
Fischarten, 1
Fischausschnitttür. 1
Fische. 1
Fischen. 1
Fischens 1
Fischens. 1
Fischerboot. 1
Fischerei. 1
Fischereifahrzeug. 1
Fischerhose 1
Fischermütze 1
Fischermützen 1
Fischern 1
Fischernetz 1
Fischernetz. 1
Fischernetzen 1
Fischessen 1
Fischfang 1
Fischfang. 1
Fischmarkt. 1
Fischmarktes 1
Fischnetzen. 1
Fischnetzstrümpfen 1
Fischsektionen 1
Fischstreifen. 1
Fischtafeln 1
Fisher's 1
Fisheye-Objektiv 1
Fitness-Kurs 1
Fitness. 1
Fitnesscenter 1
Fitnessgeräte 1
Fitnessgeräten 1
Fitnessgeräten. 1
Fitnessraum, 1
Fitnessraumboden 1
Fitnessraums, 1
Fitnessraums. 1
Fitnessstudio, 1
Fixierung 1
Fixierungen 1
Flachbett. 1
Flag 1
Flagge, 1
Flagge-Fußball, 1
Flagge-Fußball. 1
Flaggentag 1
Flaggenträgern, 1
Flamingos. 1
Flammenlampen 1
Flammenpistole 1
Flammenroben 1
Flammenschädel 1
Flammenstäbe 1
Flammenstöckel. 1
Flannel-Pajamas 1
Flaschen, 1
Flaschen. 1
Flaschenausstellung. 1
Flaschenwasser 1
Flaschenwasser. 1
Flashcards 1
Flatbed-LKW 1
Fleckenhemd 1
Fledermäuse 1
Fleecehemd 1
Fleecejacke 1
Fleischer, 1
Fleischer-Apron 1
Fleischgeschäft. 1
Fleischladen. 1
Fleischpattys. 1
Fleischscheiben 1
Fleischschneidens 1
Fleischsorten 1
Fleischverarbeitungsanlage. 1
Fliegen 1
Fliegenball 1
Fliese 1
Fliesenboden 1
Fliesenbodenmuster 1
Fliesenböden 1
Fliesenladen. 1
Flip. 1
Flipper, 1
Float 1
Florida 1
Flotte 1
Floßboot. 1
Floßes 1
Flugbegleiter. 1
Flugbegleiterin 1
Flugbesatzung 1
Flugblatt 1
Flugfrau 1
Fluggäste 1
Flughafen, 1
Flughafens, 1
Flughafenschild. 1
Flughafensitz 1
Flugliste 1
Flugmann 1
Flugplatz. 1
Flugposition. 1
Flugstewardinnenkleidung 1
Flugzeugen 1
Flugzeuges 1
Flugzeughemd, 1
Flugzeugs, 1
Flugübergängen 1
Flur, 1
Flussbett 1
Flussbett. 1
Flussbettes 1
Flusses, 1
Flussmarktes. 1
Flussrand. 1
Flussufer, 1
Flussweg. 1
Flussweges 1
Flut 1
Flyballs 1
Fläche, 1
Flöteninstrument 1
Flötist 1
Flüchtlingen 1
Flügel, 1
Flügel. 1
Flüssigkeit. 1
Flüssigkeiten, 1
Folgen 1
Folsäure 1
Fond 1
Fondue. 1
Fontäne 1
Food-Restaurant 1
Food. 1
Foods 1
Foosball. 1
Footballspieler 1
Ford 1
Ford, 1
Ford-LKW 1
Forever 1
Forever". 1
Formalbekleidung 1
Formalbekleidung, 1
Formsache 1
Forschungsstandort 1
Forstwirtschaft. 1
Fort 1
Fortschritte 1
Foto-Opportunität. 1
Fotoalbum 1
Fotoalbum. 1
Fotoapparat. 1
Fotobildschirm 1
Fotograf, 1
Fotografenblick 1
Fotografie 1
Fotografien 1
Fotografieren, 1
Fotografiert. 1
Fotohandlung. 1
Fotojournalist 1
Fotokabine 1
Fotoladen 1
Fotolicht. 1
Fotoschnitt 1
Fotostudio. 1
Foul 1
Frachtwagen. 1
Frage-und-Antwort-Veranstaltung. 1
Frage. 1
Fragen 1
Fragen, 1
Fraktion 1
Francisco-Schild 1
Francisco. 1
Frankreich 1
Frankreich. 1
Frau!" 1
Frau) 1
Frauen-Lifestyle-Magazine 1
Frauenbildern 1
Frauengesichts 1
Frauengruppe. 1
Frauenhand 1
Frauenhockeyspieler 1
Frauenmenge 1
Frauenskater 1
Frauenteam 1
Frauentisch 1
Frauenvolleyball 1
Freebies 1
Freestyle-Move 1
Freestyle-Variante 1
Freigelände 1
Freigelände. 1
Freiheit. 1
Freiheitsstatue 1
Freihemd 1
Freiluft 1
Freiluft-Exerciseanlage. 1
Freiluft-Futterbasar. 1
Freiluftanlage. 1
Freiluftfestival 1
Freiluftfestival. 1
Freiluftmarkt 1
Freiluftmarkt. 1
Freiluftmarktes 1
Freiluftpark 1
Freiluftraum 1
Freiläufer 1
Freiplatz. 1
Freitagabend. 1
Freiwillige 1
Freiwilligen 1
Freiwilligen, 1
Freiwilligenorganisation. 1
Freiwurf 1
Freizeit. 1
Freizeitaktivitäten 1
Freizeitfahrzeug. 1
Freizeitkleidung 1
Fremdsprache 1
Frettchen 1
Freude! 1
Freunde, 1
Freundes 1
Freundfoto 1
Freundin, 1
Freundinnen 1
Freundinnen. 1
Friedensmotiv. 1
Friedensschild, 1
Friedensschildern 1
Friedenssymbol 1
Friedenssymbol, 1
Friedhof. 1
Friedhofs. 1
Friedhofsarbeiter 1
Fries 1
Fringejacke 1
Frisbee-Gleitens 1
Frisbee-Golf-Ziel. 1
Frisbee-Spiel 1
Frisbees 1
Frisbees. 1
Friseur-Shop, 1
Friseurin 1
Friseurin. 1
Friseurs, 1
Friseurstuhl. 1
Frittieren 1
Front, 1
Front-Flip. 1
Frontlader-Trockner. 1
Frontstroke 1
Froschskulptur. 1
Froschstatue. 1
Frucht, 1
Fruchtkarren, 1
Fruchtschalenmütze 1
Fräuleinkleid 1
Fräuleintattoo 1
Fröhliches 1
Früchte. 1
Früchten 1
Frühlingslaub 1
Frühlingsnachmittag. 1
Frühlingstag 1
Frühlingstag. 1
Frühstück 1
Frühstück. 1
Frühstücksbuffet 1
Frühstücksbuffet. 1
Fu 1
Fulton 1
Fumble. 1
Fun 1
Fundament 1
Fundament. 1
Fundraisermarathon 1
Fundstelle 1
Fundstelle. 1
Funken. 1
Fußabdrücke 1
Fußball-Gouverneur 1
Fußball-Kicker 1
Fußball-Mädchen-Mannschaft 1
Fußball-Spiel 1
Fußball-Star 1
Fußballballs 1
Fußballballspieler 1
Fußballbälle. 1
Fußballfan 1
Fußballfans 1
Fußballfeldes. 1
Fußballfähigkeiten, 1
Fußballgruppe 1
Fußballhemd 1
Fußballhemd, 1
Fußballmannschaften, 1
Fußballmädchen 1
Fußballmütze 1
Fußballnetz 1
Fußballplatz, 1
Fußballs. 1
Fußballschalen 1
Fußballschuhe. 1
Fußballspiel; 1
Fußballspielen. 1
Fußballspielerinnen 1
Fußballspielern, 1
Fußballspielzeug. 1
Fußballteams, 1
Fußballticket 1
Fußballtraining 1
Fußballuniform, 1
Fußballuniform. 1
Fußballuniformen. 1
Fußballzeremonie 1
Fußboden, 1
Fußbär 1
Fußgänger, 1
Fußgänger. 1
Fußgängerbaum. 1
Fußgängerbrücke, 1
Fußgängerbrücke. 1
Fußgängergruppen 1
Fußgängers. 1
Fußgängerzonen. 1
Fußlauf. 1
Fußnägel. 1
Fußrennen. 1
Fußsteig. 1
Fußstool 1
Fußstützen 1
Fußwegs, 1
Fähigkeiten. 1
Fähre 1
Fähre. 1
Färbungen. 1
Fässer. 1
Förderband 1
Förderband. 1
Führer 1
Führung. 1
Fülle 1
Für 1
Füße. 1
GAP-Hemd 1
GENAU" 1
GONTAGA. 1
GRAHAM 1
Gabeln 1
Gabelstapler. 1
Gabelstaplers. 1
Gadgets. 1
Gallon-Eimer. 1
Gallone 1
Galoshes 1
GameCube 1
Ganges, 1
Gangs, 1
Ganzen 1
Ganzkörperkostüm 1
Gao 1
Gap-Mütze 1
Garagen. 1
Garbanzo-Bohnen 1
Garden 1
Gardens 1
Garnelen 1
Garnkugel 1
Garnmachen. 1
Garntieren. 1
Gartenarbeit, 1
Gartenarbeiten. 1
Gartenbagger 1
Gartenbauers. 1
Gartenen 1
Gartenernte. 1
Gartengeräten. 1
Gartenmöbeln 1
Gartenparty 1
Gartensaal 1
Gartensicht 1
Gartensofa. 1
Gartentor. 1
Gartenverkauf 1
Gartenverkauf. 1
Gartenverkaufs. 1
Gartenwerkzeug 1
Gartenwerkzeug, 1
Gartenwirt 1
Gasbehälter 1
Gasdosen 1
Gasgrill 1
Gasgrill. 1
Gasmaske. 1
Gasmasken 1
Gassen 1
Gassenallee, 1
Gassenstraße. 1
Gassenstube 1
Gastes 1
Gaststätte 1
Gateway 1
Gators-Helmen 1
Gay 1
Gay-Halle." 1
Gebet 1
Gebet. 1
Gebetstücher 1
Gebieten 1
Gebirge. 1
Gebläsetrockner 1
Gebrauchtbuchhandlung. 1
Gebrauchtreifengeschäft. 1
Geburt. 1
Geburtstagsgeschenktasche 1
Geburtstagskarte 1
Geburtstagskerzen 1
Geburtstagskuchen. 1
Geburtstagsmütze 1
Geburtstagsparty 1
Geburtstagsparty, 1
Geburtstagstort. 1
Geburtstagstorte, 1
Gebäck. 1
Gebäcke. 1
Gebäudebalkon 1
Gebäudeeingang 1
Gebäudefassade 1
Gebäudehof 1
Gebäudekomplexes. 1
Gebäudemauer. 1
Gedanken 1
Gedanken. 1
Gedenkbild 1
Gedenkpark 1
Gedenkveranstaltung. 1
Gedichttausch 1
Geduld. 1
Gedächtnis, 1
Gefahrenkegel. 1
Geflügel 1
Geflügel. 1
Gefrierschrank 1
Gefängnis 1
Gefängnisanzug 1
Gefäß 1
Gefäß. 1
Gefäßen. 1
Gefühl, 1
Gefühl. 1
Gegenseite 1
Gegenstände, 1
Gegensätzliche 1
Gegner, 1
Gegner. 1
Gegnerin. 1
Geheimnis 1
Geheimnisse 1
Gehens 1
Gehgurt 1
Gehstock, 1
Gehstock. 1
Gehwegbank. 1
Gehwegen. 1
Gehweges 1
Gehweges, 1
Gehweges. 1
Gehäuse. 1
Geier 1
Geigen. 1
Geigenspielern. 1
Geiger, 1
Geiges 1
Geisha 1
Geisha-Outfits 1
Geisha-ähnliches 1
Geishas 1
Geist, 1
Geistlicher 1
Gelados" 1
Gelb. 1
Gelbe, 1
Gelber 1
Gelbes 1
Geld. 1
Geldbeutel, 1
Geldbeuteln 1
Geldbörse 1
Geleebohnen-Maskottchen. 1
Gelände, 1
Geländefahrzeug 1
Geländer-Rad. 1
Geländermauer 1
Geländerseilung 1
Geländerstange 1
Geländertreppe 1
Geländertreppe, 1
Geländertreppe. 1
Geländewagen, 1
Gemeinde. 1
Gemeindehochschule 1
Gemeindestraße. 1
Gemeinschaftsereignis. 1
Gemeinschaftsraum. 1
Gemeinschaftszentrum 1
Gemeinschaftszimmers 1
Gemälden, 1
Gemälden. 1
Gemäldes, 1
Gemäldes. 1
Gemüseausstellung 1
Gemüseausstellung. 1
Gemüsegericht. 1
Gemüsehändler 1
Gemüsekästen 1
Gemüseladen 1
Gemüsemarkt, 1
Gemüsepflanzen. 1
Gemüseplatten. 1
Gemüsestand 1
Gemüsestand. 1
Gemüsestandes 1
Gemüsestände 1
Gemüsesäcke 1
Gemüsetafel 1
Genauigkeit 1
Genehmigung 1
Generationen 1
Generator 1
Genpac 1
Gentlemen's 1
[...]
